#version: 0.2
d e
Ã ¤
Ġ s
Ã ¥
e n
e r
Ġ a
Ã ¶
t t
i n
Ġ f
a n
a r
l l
Ġ de
Ã¶ r
o m
Ġ m
e t
t i
Ġ v
Ġ h
Ã¤ r
Ġa tt
s t
a g
Ġ b
Ġf Ã¶r
in g
Ġ o
i g
Ġ i
Ġ k
n a
Ġ p
o n
Ġ u
o r
Ġo c
s k
e d
Ġoc h
r a
Ġ ti
n ing
Ġ n
Ã¤ n
Ġde t
Ġ t
Ġs om
Ġ r
Ġ in
Ġv i
Ġ g
Ġ l
Ġ e
Ġ en
Ġti ll
Ġa v
Ġde n
Ġs k
an de
Ġ Ã¤r
l ig
c k
Ġa n
a l
s s
Ġs t
Ġ om
Ġ j
u n
Ġu t
Ġ d
Ġp Ã¥
a t
a m
Ġ D
r Ã¥
t er
i k
Ġh ar
e s
Ã¥ r
de r
e l
Ġm ed
ti on
t e
Ġ 1
p p
v er
g a
Ã¤ tt
Ã¤ ll
i t
f Ã¶r
Ġs Ã¥
r o
o l
h et
Ġv ar
d a
e m
i l
Ġj ag
Ġb e
Ġin te
Ġ S
a ll
r e
Ġf rÃ¥
Ġ J
s l
Ġm an
r i
sk a
om m
Ġ M
u t
Ã¤ l
a de
Ã¤ g
Ġe tt
Ã¤ m
ĠD et
en s
a s
Ã¥ n
a d
er r
k t
Ġ Ã¶
v ar
i s
an d
Ġu pp
Ġ H
u ll
Ġk an
Ġa ll
ar e
tt a
t s
o tt
ĠJ ag
Ã¥ g
Ġk omm
m an
Ġu n
Ġ A
Ġ Ã¥
Ġr e
k s
a tt
o t
b et
sk ott
lig t
Ġs am
de n
u r
y ck
sl ag
Ġ N
Ġ V
at s
g er
Ġa f
i f
v a
e ll
Ġn Ã¥g
Ġt al
s e
d ag
ra m
ck e
ull e
Ġi cke
Ġ 2
skott et
Ġ F
k a
Ġsk ulle
v en
Ġb l
er na
Ġ K
Ġ Ã¤n
ning en
Ã¥ ll
Ġde tta
ing en
Ġa r
r u
d ig
Ġp ro
Ġun der
Ġh Ã¤r
Ġs ig
Ġf ram
de l
Ġ1 9
d ra
Ġd Ã¤r
st er
en t
â Ģ
s dag
Ġ (
Ġvi d
Ġr ik
a k
Ġm en
Ġn u
Ġk un
Ġm Ã¥
Ġh a
ss a
y r
Ġn Ã¤r
en de
st Ã¤ll
Ġf in
o s
r Ã¤
Ġ I
d r
Ġ E
Ġh err
Ġf Ã¥
Ġvi ll
Ġm o
Ġsk all
ĠfrÃ¥ n
st e
Ġar bet
lig en
v is
Ġde l
st a
Ġvar a
Ġb et
Ġm in
Ã¶ j
m ar
ĠH err
ĠÃ¶ ver
i sk
0 0
Ġden na
h Ã¥ll
Ġ âĢ
Ġ Ã¥r
or t
d an
m a
Ġtal man
lig a
f t
Ġ O
ks Ã¥
Ġoc ksÃ¥
y n
s p
ll er
i v
ĠA n
s er
n e
ning ar
na t
tion en
n s
ĠV i
Ġ L
Ġr es
y g
Ã¥n g
k ti
or d
ĠfÃ¶r slag
f f
Ġe ller
Ġk on
Ġg Ã¶r
g l
Ġ B
Ġj u
ĠâĢ Ķ
es l
l ar
g an
Ġd Ã¥
f ter
Ġo r
d s
i ti
r ed
Ġbe h
en om
o g
sdag en
Ġ R
ĠÃ¥ t
i tt
Ã¤ k
yck et
c i
er a
Ġan dra
a j
ning s
an s
Ġ 3
l ik
ed an
Ġ T
m in
ĠfÃ¶r s
de t
Ġsk a
Ġg Ã¤ll
ss on
Ġs in
o k
Ġv Ã¤l
Ġv er
il j
Ġm ycket
ĠsÃ¥ dan
Ġs j
Ġb er
Ġkomm er
Ġh el
Ġf l
os i
y tt
ĠfrÃ¥ ga
ter na
t a
Ġre ger
Ġkun na
Ġvi l
Ġut skottet
ande t
Ġde ssa
s ti
Ġl ag
p ar
v e
Ġ Ã¤
ĠnÃ¥g on
Ġut an
ar na
ĠfÃ¶r e
Ġk r
ĠD e
ĠM en
un d
Ġt r
Ġ P
k en
g Ã¥
i on
ol iti
ĠmÃ¥ ste
p osi
Ġbl i
Ġ U
Ġg enom
a tion
am mar
Ġv ad
i ll
Ġg r
Ġb Ã¶r
i ster
Ġst or
c h
Ġm ig
l ing
Ġr Ã¤tt
Ġst ats
b er
lig het
Ġs Ã¤tt
k et
Ġm Ã¶j
Ġ er
Ã¤n n
l ed
Ġb ar
s Ã¤tt
u d
Ġe fter
o st
Ġfin ns
Ġv Ã¥r
l a
g Ã¤r
Ġh an
Ġm ot
Ġn y
it et
Ġl Ã¤n
Ġs e
de s
Ġst Ã¤ll
. .
y d
ĠD en
ĠF Ã¶r
Ġf Ã¥r
ti g
Ġmo tion
sk il
Ġ 4
Ġd ag
Ġf or
Ġh em
Ġs l
ĠnÃ¥g ot
ĠgÃ¤ll er
Ã¤n k
u l
s om
Ġh ade
ĠM aj
g if
Ġh Ã¶
un kt
Ġ G
Ġe x
Ã¶ l
Ã¥ t
Ġb if
Ġall a
Ġin om
Ġ Ã
j a
o d
b l
r Ã¶
Ġh ur
v Ã¤n
v Ã¤r
t al
f att
Ġm Ã¥n
ĠgÃ¶r a
f rÃ¥
ver ig
o ck
Ã¤ ga
Â »
Ġf all
t ag
l Ã¤g
Ġst at
el se
ĠS verig
Ġde m
Ã¶ d
var ande
i st
esl ut
l e
Ġt a
min ister
s en
u m
ci al
Ġin ne
i ska
Ġpro posi
b ru
dr ag
Ġ 5
Ġres er
j e
Ġp er
v Ã¥r
st Ã¤m
dig t
Ã¤m n
r ik
Ġs ak
Ġan led
Ġn r
na s
yr k
ĠS t
ut skottet
Ġs Ã¤ga
s b
o cial
Ġl Ã¶
s a
d u
gÃ¥ ende
ol k
Ġ ytt
Ġh Ã¤n
k omm
p a
ĠÃ¤ ven
f or
l ag
Ġh and
k on
ĠfrÃ¥ gan
Ġanled ning
Ġreger ingen
Ġk ammar
Ġtr or
ks am
Ġin t
Ġver k
het en
Ã¥ l
or de
er ing
ĠAn f
Ġp ar
yg g
Ġkr on
Ġs ven
o pp
Ġbif all
ĠmÃ¥n ga
Ġrik sdagen
Ġe g
Ġvar it
Ġl ik
b il
ĠN r
ti d
ra f
Ġe m
ve ck
Ġb eslut
r Ã¤tt
ĠfÃ¶r et
Ġs p
ĠSverig e
Ġm ilj
Ġg j
m Ã¤n
Ġbeh Ã¶
ande n
n er
Ġv Ã¤r
ri v
rÃ¥ det
et s
ĠK un
ell er
Ġs yn
i d
Ġ 6
Ġkomm a
Ġg Ã¥
n an
Ġs y
ing ar
s am
lik a
Ġl and
ĠKun gl
Ġu tt
Ġt yck
Ġsk ol
Ġhem stÃ¤ll
e k
Ġsk att
na d
Ġf Ã¶l
Ġv Ã¤
g or
Ġl ed
Ġkron or
ĠfÃ¶r st
Ġor d
ĠU t
Ġsj Ã¤l
n ar
ok ra
ĠhÃ¶ g
re ss
a st
u s
b b
g r
Ġall t
Ã¶ k
Ġt v
g Ã¶r
Ġbli r
Ġvi kti
Ġs ocial
e f
ell an
Ġs i
Ġs Ã¤r
Ġut red
ig a
Ġsam man
Ġ 8
Ġti d
ska p
Ġh v
ar bet
Ġgr und
Ġl Ã¤g
i ss
het er
Ġkomm un
Ġh Ã¥ll
s on
Ġo lika
00 0
ĠdÃ¤r fÃ¶r
Ġreser va
ade s
Ġan s
lÃ¤g g
kon om
Ġan nat
g i
ĠO m
k om
ĠmÃ¶j lighet
Ġt ag
ĠM an
e del
ĠnÃ¥g ra
an t
Ã¤g er
Ġsam t
Ġst Ã¶r
ĠÃ¥t gÃ¤r
ĠfÃ¶r esl
Ġut l
Ġm er
ĠsÃ¤r skil
Ġrik sdag
na l
Ġ 7
Ġv et
Ġo ss
o v
o ll
Ġs edan
ell a
Ġvi ssa
Ġ yrk
ig t
Ġbar a
or g
or ts
ĠfÃ¶ret ag
ĠfÃ¶r hÃ¥ll
Ġan fÃ¶r
st em
h Ã¤ll
f ar
minister n
Ġut veck
Ġv Ã¤g
Ġm ellan
Ġall mÃ¤n
ĠE n
Ġutskottet s
Ġ nat
Ġarbet s
Ġstor a
a v
Ã ©
Ġs itt
der na
b ar
Ġk lar
Ġ c
b att
Ã¥n d
Ġnat ur
Ġen da
ĠÃ¶ k
v Ã¤g
ing s
de m
Ġp oliti
sk e
m ed
Ġf ull
ĠfÃ¶l j
rÃ¤ ff
Ġj ord
sk t
Ġtyck er
ska tt
Ġm ar
Ġan gÃ¥ende
Ġproposi tion
d re
Ġs Ã¤ger
ĠÃ¥ ter
Ġde r
p r
Ġ C
Ġp l
bil d
Ġsam ma
k lar
u v
Ġm Ã¤nn
g et
) :
ĠD Ã¤r
Ġvi s
Ġe konom
Ã¤ st
a kt
ver k
Ġsven ska
Ġkammar en
j Ã¤n
g Ã¥ng
Ġ Â»
Ġ19 8
Ġbe stÃ¤m
el sen
bl em
d om
i ck
an k
Ġf olk
Ã¤n g
Ġr Ã¶
h an
ul t
ĠfÃ¶r ut
Ġbar n
Ã¤m p
Ġ 9
Ġ2 0
st yr
dem okra
Ġhel a
Ġsl ut
ĠmÃ¤nn isk
ĠDe tta
ĠÃ¶ f
m er
Ġsin a
ĠfÃ¶r b
Ġn Ã¤m
Ġs var
ar i
Ġen ligt
an ska
Ġhel t
al a
Ġg Ã¥r
p ro
Ġbet Ã¤nk
Ġtill f
ĠR ik
Ã¤k er
Ġsam hÃ¤ll
Ġe j
Ġde ss
l and
Ġkan ske
ĠfrÃ¥ gor
Ġ ing
c e
Ġr edan
Ġl Ã¥ng
f va
ĠfÃ¶r sta
Ġt y
Ġny a
Ġvikti g
v in
Ġ1 8
Ġan vÃ¤n
ĠI n
Ġan g
ĠsÃ¥ som
Ġk om
ts Ã¥
tig t
Ġs er
par ti
Ã¥ ra
ĠmÃ¤nnisk or
ksam het
ĠN Ã¤r
Ġper son
ĠUt skottet
Ġ1 0
Ġv al
Ġsk Ã¤l
Ġp r
Ġinne b
Ġan slag
Ġbeh and
Ġint ress
Ġjord bru
Ġall tsÃ¥
Ġan ser
Ġb Ã¥
Ġg od
ĠÃ¥tgÃ¤r der
Ġd isk
n en
Ġde batt
st Ã¥
dig are
Ġ19 7
f all
mar k
Ġan nan
r ing
Ġb i
ĠÃ¤r o
h ol
ĠF ru
i m
gan is
Ġm aj
u k
b e
rÃ¤ ck
te m
Ġl Ã¤r
ĠÃ¤n d
t en
un k
utskottet s
Ġb es
Ġg Ã¥ng
ĠstÃ¶r re
ĠlÃ¤n g
Ġ ingen
sk ol
ĠsÃ¥dan a
ĠD Ã¥
ĠsjÃ¤l v
Ġupp fatt
Ġvi ss
Ġs ag
v al
p lik
g ar
ĠvÃ¥r t
Ġti digare
ost na
Ġi frÃ¥
a ti
del se
Ġpro blem
s m
en ter
Ġk ra
Ġp unkt
Ġbe f
Ġ W
Ġg e
Ġd ock
Ġf ri
ra d
lig are
st at
ra s
fÃ¶r s
Ġs vÃ¥r
Ġb ra
Ġom rÃ¥
Ġdisk u
ĠnÃ¤m ligen
du st
Ġreserva tion
Ġkun de
eller tid
s yn
Ġenda st
em p
m Ã¤r
ĠK on
Ġytt er
Ġbe gÃ¤r
Ġinneb Ã¤r
Ġp ri
ti ll
f v
Ġl e
Ġnatur ligt
ber g
kti v
Ġutl Ã¥t
.. ..
O N
p oliti
se ende
ĠfÃ¶r h
ĠhemstÃ¤ll an
ĠfÃ¥ tt
Ġtv Ã¥
j Ã¤l
Ġv or
n sdagen
ud get
Ġreger ing
Ġs en
ens ion
. )
Ġdel s
iv it
sÃ¤tt ning
ĠsÃ¥dan t
dag en
ĠO nsdagen
ĠÃ¶f ver
Ġin fÃ¶r
Ġfor ts
Ġg anska
F orts
dr ing
g Ã¥r
Ġu r
Ġmin dre
ĠfÃ¶r m
Ġpar ti
E R
Ġju st
Ã¶ m
r y
Ġr Ã¶r
Ġl ig
Ġk l
Ġb orde
Ġ1 1
ĠS k
ĠfÃ¶rs var
un da
hÃ¥ll a
hol m
Ġex emp
Ġs m
Ã¶ ter
o ch
Ġ1 5
o nal
Ġs Ã¤ker
Ġ1 2
Ġk ri
Ġn ed
Ġh var
Ġb ed
tal et
Ġhv il
Ġem ellertid
Ġv Ã¥ra
yn dig
Ġt ro
l ingen
un n
el ser
Ã¤tt re
v s
e st
ĠÃ ĸ
Ġled am
er i
ĠfÃ¶resl ag
Ġr Ã¥
Ġb Ã¤ttre
Ġbet y
c ent
Ġa l
e j
ĠÃ Ħ
ru pp
Ġsk e
Ġvid are
Ġun g
ar en
Ġbe k
Ġarbet e
o p
Ġj Ã¤m
Ġl andet
sl Ã¶
Ġ Â
ĠK ammar
n u
Ġstats rÃ¥det
Ġp en
sti ft
Ġutred ning
Ġexemp el
Ġst Ã¥r
Ġb el
Ġr ed
f l
h Ã¶r
Ġgj ort
p unkt
for m
ĠmÃ¶j ligt
Ã¶ ll
S S
Ġproposi tionen
de ra
r yck
raf ik
Ġans var
Ġbl if
Ġutt al
Ġh uv
p en
Ġtillf Ã¤ll
Ġvil ka
n es
Ġf r
Ġnaturligt vis
par tem
v id
t ro
Ġb udget
Ġen skil
na den
Ġvil ja
Ġn Ã¶d
Ġfram stÃ¤ll
Ġ1 3
Ġsj uk
ĠN u
Ġ1 4
Ġb ost
Ġsag t
er ade
st ad
Ġvor e
gif ter
st en
y l
t u
t ing
ro tt
el s
Ġvil ket
ak ti
v an
Ġst Ã¶d
Ġt jÃ¤n
d t
ĠÃ¶ n
Ġre plik
Ġn Ã¤mn
Ġh Ã¶r
sp ro
en het
Ã¤r n
i re
k Ã¤n
ĠV ad
Ã¶ n
del es
Ġskol a
ver ket
ter a
it s
ol ag
Ġg en
Ġytter ligare
Ã¶ ka
Ġber ed
Ġut bild
Ġ 000
ter ing
Ġha fva
ter p
ĠbehÃ¶ ver
Ã¤ sta
f ven
Ġ na
ganis ation
Ġs ade
Ġbet rÃ¤ff
ats er
parti et
Ġn og
ĠvÃ¤ ck
or itet
Ġha ft
Ġk a
ell t
j u
ĠbÃ¥ de
Ġfin ans
Ġl y
Ġst ar
Ġviktig t
tion s
ĠrÃ¶ st
na ds
SS ON
Ġ -
tion er
on er
ningar na
or na
v Ã¤
rÃ¶ m
Ġm era
Ġsocial demokra
ĠmÃ¥ tt
v et
st Ã¤n
dust ri
it u
Ġsk og
Ġin kom
Ġl Ã¥
ock holm
Ġf att
ĠÂ §
Ġfl er
Ġh on
A N
ĠVi d
sam ma
Ġeg en
in ci
Ġ1 6
Ġfram fÃ¶r
Ġv Ã¤n
ĠfÃ¶r Ã¤n
Ġb ygg
v Ã¤l
m Ã¤l
Ġv in
se tt
ig het
s fÃ¶r
Ġb il
or i
b org
ĠÃ¶ v
ĠJ o
Ġstat en
Ġt yd
Ã¤n s
iv et
ĠbestÃ¤m m
Ġb ort
Ġh Ã¶j
ĠM ed
A R
sp oliti
un der
ĠO ch
Ġfor m
i c
ĠfÃ¶r klar
ĠfÃ¶re lig
b i
Ġverk ligen
Ġhv ad
Ã© n
ĠbÃ¶r j
ion en
ga s
ĠsÃ¤rskil t
ĠÃ¤nd Ã¥
na de
p er
ĠSt ockholm
Ġn i
yr ka
Ġutveck ling
Ġf a
Ġv e
ĠÃ¤n nu
ĠS Ã¥
Ġkun nat
Ġsi da
b ygg
f Ã¤r
Ġall deles
Ġver ksamhet
Ġmo tionen
Ġbost ad
Ġp ra
Ġf ast
ult at
Ġh os
ent et
Ġm itt
ande l
ĠÃ¥r s
Ġlig ger
sl ut
ik t
ĠfÃ¶rslag et
Ġre g
isk t
ĠnÃ¶d vÃ¤n
Ġt ar
l Ã¶
Ġsamman han
du k
Ġk ostna
E N
Ġm edel
Ġre gl
er ar
Ġmar k
Ġekonom iska
Ġlik a
Ġk vin
Ġhand lar
ĠmÃ¥tt e
Ġvar je
ti ska
komm a
Ġh eller
Ġ1 7
erna s
Ġst ort
ĠbetÃ¤nk ande
st Ã¥nd
Ġp ension
u pp
Ġ19 6
Ġlag stift
Ġledam Ã¶ter
Ã¤ ck
Ġkon k
Ġuppfatt ning
Ġg l
ĠÃ¤ fven
Ġmen ing
Ġmo ts
ĠH Ã¤r
Ġkomm it
ĠÃ ħ
Ġde ras
ĠÃ¶n sk
a tionen
ĠutlÃ¥t ande
t ok
r ag
ar l
ĠstÃ¤ll et
Ġut skott
tok oll
Ġe ff
Ġk Ã¤n
Ġmotion er
unk ter
Ġf ar
ĠKammar en
ĠR e
Ġforts Ã¤tt
Ġsm Ã¥
ĠJ a
Ġupp l
ĠÃ¶v r
Ġ ra
Ġj o
m are
Ġfl era
Ġherr ar
Ġkomm u
Ġbe v
ĠfÃ¶lj ande
n or
ĠS edan
Ġin terp
Ġkammar ens
Ġbl and
n Ã¤mn
ĠomrÃ¥ de
sk ri
ĠmÃ¥ l
v t
ĠKon gl
Ġpr inci
Ġmo ti
Ġti den
Ġb ak
Ġst ad
p l
Ġl Ã¤m
ĠfÃ¶r del
Ġklar t
p e
ĠvÃ¤l digt
Ġo ff
pr il
y stem
ig enom
dig a
Ġpoliti k
Ġhuv ud
styr elsen
Ġbeh ov
Ġb yg
fÃ¶r a
st rÃ¶m
Ġf ort
Ġt re
Ġk ort
Ġl itet
ell ation
ut om
ĠlÃ¤n der
ĠH an
rik es
Ġpro cent
Ġh jÃ¤l
Ġ Ã¤g
Ġs itu
ĠallmÃ¤n na
da s
u ro
gif t
v it
Ġm yndig
Ġl i
Ġskatt e
or r
y m
Ġpl an
an n
un g
Ġmilj oner
Ġbl ivit
le des
Ġst Ã¥nd
Ġtalman nen
Ġd om
ĠfÃ¶rhÃ¥ll ande
ag en
Ġreserva tionen
bar t
en den
l unda
ĠbetrÃ¤ff ande
i er
Ġdel ar
ĠSt ats
Ġres ultat
Ġfram ti
e g
and ling
ĠAn g
r Ã¤n
Ġb or
Ġber Ã¶r
ĠRik sdagen
Ġf akti
het s
Ġsk ri
ĠstÃ¤ll ning
Ġk rÃ¤
k or
em ber
Ġnu varande
Ġarbets mark
ĠhÃ¤n syn
t rÃ¤
Ġmilj Ã¶
ft a
ti ga
ĠifrÃ¥ ga
b a
ar s
Ġfr Ã¤m
vis a
al t
slÃ¶ s
ĠlÃ¤ng re
Ġ19 5
Ġbety delse
Ġh opp
Ġytt ra
Ġ yrka
j er
Ġd ire
Ġrik t
ĠA tt
Ġsk riv
ĠE U
Ġjo bb
Ġsak en
Ġriksdag ens
Ġk am
Ġ >
f ull
ra kt
Ġstat ens
r ar
Ġm iss
Ġperson er
Ġvil ken
Ġp re
Ġregering ens
ĠAn der
ĠfÃ¶rut sÃ¤tt
Ġr Ã¤k
Ġutt ryck
ol is
Ġtal ar
Ġin s
ra ft
âĢ Ķ
Ġg er
el Ã¤g
Ġlag en
Ã¶ ver
ri st
Ġ2 5
ĠsjÃ¤l va
g s
ĠfÃ¶r ord
Ġl iv
dr ar
Ġrik tigt
Ġan tag
Ġom fatt
Ġmin st
Ġh ans
et er
Ġbi drag
Ã¤ d
Ġin dustri
ĠmÃ¶jlighet er
p it
ch ef
ĠvÃ¤r l
Ġj a
Ġsy ss
de partem
b Ã¶r
Ġfakti skt
em ot
ĠlÃ¥ng t
Ġpunkt en
ĠfÃ¶r l
er at
pr es
l em
ĠsÃ¥ ledes
sti tu
ksam heten
er as
o tering
sk ning
Ġeff e
Ġem ot
Ġung dom
g e
rÃ¶ st
Ġf y
ĠgÃ¤ll ande
ĠfÃ¶rb Ã¤tt
Ġkon stat
Ã¶ t
Ġl Ã¤tt
ĠP Ã¥
ĠÃ¤n dra
Ġsy stem
Ġ3 0
Ġbet yd
Ġsammanhan g
Ã ĸ
dr ingar
Ġpen gar
Ġl Ã¤mp
Ġan stÃ¤ll
I N
ve ster
ti t
al is
Ġvikti ga
Ġt orde
Ġfin nas
g ande
Ġp rÃ¶
Ã¤nn er
k el
ĠÃ¤n dring
kt en
ĠfÃ¶r en
ĠfÃ¶r ra
Ã¶ p
ĠnÃ¥gon ting
arbet e
Ġpro tokoll
Ġpri s
sk omm
Ġo l
ĠlÃ¶ s
Ã¥ s
Ã¤r a
Ġjordbru ks
Ġkom p
f ri
Ġeg ent
ende t
den s
Ġenskil da
Ġmoti ver
Ġ19 4
ĠfÃ¶rhÃ¥ll anden
ll a
Ġt rafik
ĠhÃ¶g re
ig heter
st ru
ti digt
ĠL in
Ġor ganisation
ĠanfÃ¶r ande
e v
Ġst Ã¥
Ġefter som
. ,
h a
Ġt Ã¤nk
Ġsven sk
Ġf ick
Ġen a
Ġbel opp
o f
Ġl ok
f p
Ġbif Ã¶ll
a ss
Ġg em
ĠU n
Ġblif vit
r an
Ġr isk
ĠDÃ¤r fÃ¶r
Ġf ru
Ġt Ã¤n
p ort
Ġinterp ellation
Ġ2 1
Ã¤r k
Ġun dan
ĠT ill
am ilj
Ġt ull
Ġs nar
tion ella
on e
ĠSverig es
j en
h l
Ġl Ã¥n
Ġd ra
a ste
Ġkr ig
Ġs ats
s onal
ik a
ĠfÃ¶r ed
Ġdisku ss
ĠA r
Ġmar s
Ġsk yd
S T
Ġm il
ĠsvÃ¥r t
Ġsl ag
Ġytt r
ĠS ven
Ġ $
i da
n ande
Ġdebatt en
Ġse tt
Ġb rott
v ens
Ġall var
posi tionen
vÃ¤r t
fÃ¶r ande
rÃ¥ n
ens am
Ġav s
Ġfin na
Ġtill g
min st
Ġkonk ur
far ande
h us
minst one
Ġf un
o ende
s in
ĠUtskottet s
Ġj Ã¤rn
s Ã¶k
Ġan tal
ĠâĢ Ŀ
Ġl Ã¤
Ġ19 9
gr Ã¤ns
Ã¤ v
Ġsi dan
l as
Ġf el
Ġpra kti
Ġsen are
Ġk var
Ġhopp as
Ġtag a
Ġ2 2
Ġsp e
as tig
e tt
Ġg rupp
ĠÃ¶ver ens
ĠsÃ¥ lunda
Ġn ytt
Ġd y
rÃ¥ k
gÃ¶r a
ĠhÃ¤n vis
sp l
Ġst ra
ĠN ej
ra l
st rÃ¤ck
f in
hÃ¥ll er
ĠfÃ¶rst Ã¥
Ġmotion erna
Ġin nan
t or
al m
Ġg am
Ġre pres
dig het
Ġall tid
Ġres ur
Ġunder st
Ġin terna
lÃ¤gg ningen
u ds
Ġyrk ande
s ent
ĠÃ¥t minstone
Ġprinci p
ĠP ro
ĠstÃ¤ll a
Ġ .
Ġk all
Ġinkom st
var e
Ã¤n d
Ġgem ensam
if f
m Ã¤
Ġmen ar
Ġdem okra
fÃ¶r slag
ĠI I
Ġkra v
ĠsamhÃ¤ll et
ri d
Ġ2 00
Ġv otering
e fter
ĠnÃ¤r varande
st Ã¥r
st ol
departem entet
Ġta ck
Ġin vester
na der
Ġa pril
bi drag
Ġkon s
Ġer in
Ġh andel
Ġvill e
ĠrÃ¶r ande
Ġa kt
ĠRe ger
Ġan sett
Ã¶r dagen
âĢ Ŀ
Ġst yr
na la
er ingen
Ġtill rÃ¤ck
Ġang elÃ¤g
u st
Ġvis ar
man s
ska ff
Ġgj orde
Ġtag it
r es
Ġd ri
sk on
Ġ Ã¤mn
ĠÃ¶ pp
Ġber Ã¤k
Ġintress e
Ġs na
el at
t ra
Ġtill Ã¤mp
Ġp olis
Ġmotion Ã¤r
ĠÃ¥ s
ĠL Ã¶rdagen
Ġe l
er ad
fÃ¶rs Ã¤k
Ġgod kÃ¤n
c is
Ġd u
Ġut rikes
ĠfÃ¶reslag it
Ġo fta
Ġ2 4
ult ur
Ġpro duk
Ġegent ligen
ĠvÃ¤ sent
Ġarbet slÃ¶s
t y
ĠifrÃ¥ n
Ġ2 3
Ġv an
red s
ĠsÃ¤rskil da
demokra terna
ĠDen na
g ram
ĠnÃ¤r ing
r et
ĠgÃ¥ tt
att en
Ġdire kt
Ġe le
Ġsyss el
Ġsna bb
Ġutbild ning
Ġb olag
Ġmin ska
ĠÃ¥r et
e x
frÃ¥ gan
kt or
em iss
Ġ2 6
Ġ20 1
arna s
ĠlÃ¤ng e
Ġtill ba
p unkter
dr ig
ĠjÃ¤rn vÃ¤g
Ġhon om
Ġtillba ka
Ġoff ent
ĠN orr
Ġer far
Ġbehand ling
se k
ĠB er
Ġfall et
Ġsyn es
Ġmaj oritet
Ġkonkur r
er ligen
ĠH ur
un i
ĠvÃ¤r de
Ġ2 8
y s
pit al
ĠomrÃ¥ den
rik t
ĠJo han
Ġo b
Ġb ank
s ut
ĠM o
Ã¤ der
ĠÃ¥ stad
k l
stÃ¤m m
Ġom rÃ¶st
ver ka
lÃ¤gg ning
gÃ¶r ande
ĠÃ¥r en
ĠS ocial
ĠP er
Ġred o
j ut
Ġh u
ĠhÃ¥ll a
u ari
am Ã¥l
ti k
at eri
fÃ¶r b
Ġupp mÃ¤r
en heter
re gl
Ġeg na
Ġh Ã¤l
frÃ¥ gor
an ken
Ġm Ã¤n
ĠfÃ¶r t
Ġbed Ã¶m
ĠvÃ¥r d
la ss
Ġg Ã¤r
ĠAnder sson
Ġsyn ner
Ġal drig
rÃ¥ d
an uari
stÃ¥ ende
s att
tro ll
Ġl in
ĠV ar
Ġkvin nor
r in
Ġtill Ã¤g
sti ti
Ġut strÃ¤ck
ĠT or
Ġr im
ĠfÃ¶rs Ã¶k
t ar
Ġh in
ĠUn der
Ġg o
Ġ2 7
f te
Ġyttr ande
ĠS am
ĠsÃ¤tt et
ĠlÃ¶ ne
ĠE uro
Ġhel st
Ġvi ce
i e
Ġbudget Ã¥r
Ã¶ g
ĠbÃ¶r a
en a
ĠA v
Ġframti den
ĠS om
Ġsen aste
Ġper sonal
Ġfort farande
Ã¤l j
vÃ¥r d
Ġs ti
sk ill
ĠbÃ¶rj an
ĠanvÃ¤n da
or da
Ġkommun erna
Ġav seende
ĠE tt
k Ã¤nn
komm it
komm er
lighet en
y t
ga d
u b
Ġn Ã¤st
em an
bru k
rÃ¤ d
Ġsam b
Ġan mÃ¤r
ĠtillfÃ¤ll e
Ġlagstift ning
Ġp os
Ġl yck
ĠlÃ¤g ga
Ġs v
val t
ĠhjÃ¤l p
r Ã¶r
Ġf em
st ag
un den
Ġf amilj
red je
v ist
ĠdÃ¤r med
Ġarbet et
ĠstÃ¶r sta
Ġen er
m en
Ã¶ te
e ck
t yg
uv ida
ĠÃĦ r
Ġarbet ar
Ġfin nes
Ġb ru
Ġt ek
Ġsitu ation
g iv
j ande
Ġsk er
Ġh us
Ġreser van
Ġland st
Ġb r
Ġbe sk
Ġriksdag s
em Ã¥l
Ġb ord
Ġstat liga
Ġpos iti
Ġt ank
e bru
Ġf unn
Ġmilj ar
ĠÃ¶vr igt
Ġutveck lingen
Ġv elat
p Ã¥
ĠE fter
ebru ari
h Ã¤n
Ġf Ã¤r
u g
Ġm est
Ġfull t
Ġm om
Ġkra ft
ĠfÃ¶l ja
Ġtal a
Ġ2 9
Ġp riv
l ade
h em
i o
Ġkommun er
Ġre gi
Ġ Ã¤l
ĠÃ¶ ka
Ġ rad
Ġde c
Ġsyn punkter
Ġtag et
Ġbl ev
k o
ĠfÃ¶red rag
i en
d at
Ġj anuari
Ġf j
ĠN il
Ġbor ger
Ġen s
ĠhÃ¤r med
Ġhur u
stÃ¤ll ning
ilj Ã¶
Ġn or
v itt
Ġoc k
Ġli te
tag a
posi tion
i r
Ġklar a
s an
Ġsam tidigt
Ġh itt
Ġupp drag
um ent
ĠLin d
Ġmil it
ĠFÃ¶r ed
Ġska pa
slag en
reds stÃ¤ll
ĠlÃ¶ n
Ġfun ger
Ġyrk ar
skol an
Ġhvil ka
Ġv a
ĠfÃ¶rs Ã¤k
ĠifrÃ¥ga varande
m e
Ġjordbru k
arbet et
ĠFÃ¶red ro
ĠsÃ¥ vÃ¤l
ĠbestÃ¤mm elser
Ġpoliti ska
Ġc ent
Ġk Ã¶
ĠnÃ¤r ma
Ġsk yl
ĠÃ¤nd amÃ¥l
ĠnÃ¶dvÃ¤n digt
k ning
vÃ¥r ds
ĠbÃ¥ da
politi k
rÃ¥ de
Ġin stÃ¤m
ĠrÃ¥ d
Ġk ultur
Ġhand ling
ĠO l
a pp
Ġg if
Ġ5 0
ĠlÃ¤m na
Ġhur uvida
ĠgÃ¤r na
Ġut om
e ss
ĠF red
pro positionen
Ġk Ã¤nner
els erna
er n
Ġha va
ĠfÃ¶rs Ã¶ka
ĠlÃ¥ ta
ĠbehÃ¶ vs
Ġbe g
ter ar
Ġj uni
ĠA ll
Ġpre cis
vis ning
Ġn ej
den t
Ġg rad
ĠRik sdag
Ġgenom fÃ¶r
chef en
g rupp
Ġt redje
Ġr um
Ġkon sek
j Ã¤m
ill s
Ġve der
Ġbak om
Ġf ol
Ġder fÃ¶r
oll e
Ġviss erligen
Ġskog s
Ġaf seende
Ġor det
Ġtro ts
gr en
Ġtek n
ef Ã¤r
ĠfÃ¶rst Ã¥r
ĠbetÃ¤nk andet
Ġsamb and
ĠVid are
a f
ĠAn dra
Ġupp gift
Ġ "
Ġl it
ĠfÃ¶r an
N D
Ġan talet
ik ation
Ġgen er
ĠT y
ut bild
ti v
Ġs par
o b
ce ss
ĠfÃ¶rsvar s
ĠâĢ ĵ
Ġbl ott
Ġlik som
Ã¥n ger
Ġupp gifter
ĠfÃ¶rh andling
an ter
Ġs Ã¶ka
Ġu ti
Ġmin a
ĠfÃ¶reslag na
Ġf astig
Ġbet ala
v ik
ĠfÃ¶r v
Ġrepres ent
ĠgÃ¶r as
Ġgam la
fÃ¶r et
ĠhemstÃ¤ll t
Ġpriv at
Ġall s
Ġbe grÃ¤ns
Ġmed lem
Ġbev ilj
Ġung efÃ¤r
rÃ¤tt en
Ġk ar
ĠEn ligt
g en
Ġf akt
Ġg Ã¥nger
Ġk yrk
Ġske tt
for ma
Ġav slag
Ġans es
s ak
Ġblif va
Ġsak er
Ġstra ff
k ar
ĠvÃ¤ck t
m era
stÃ¤n dig
Ġen kel
lik t
Ġresur ser
Ġv atten
kt a
Ġut e
ss ystem
Ġfin ner
Ġn Ã¥
ĠtjÃ¤n st
Ġdiskuss ion
ĠutstrÃ¤ck ning
Ã¶ v
ĠÃ¶k ad
ĠfÃ¶lj d
m et
ĠM Ã¥n
ĠfÃ¶relig ger
p ek
a tta
ning ens
Ġt og
Ġn Ã¤sta
ĠF in
Ġ19 3
re pp
Ġerin ra
Ġmo dera
Ġutred ningen
Ġkommu nala
f Ã¶l
ĠvÃ¤ck ta
Ġdra bb
Ġverk stÃ¤ll
Ġ4 0
Ġl Ã¤k
Ġh Ã¥r
Ġvet a
Ġan mÃ¤l
ĠfÃ¶r Ã¤l
Ġmed del
Ġvar fÃ¶r
Ã¤ t
Ġtillf redsstÃ¤ll
ĠbifÃ¶ll s
iv Ã¥
Ġvis st
ĠjÃ¤m fÃ¶r
Ġden samma
Ġdec ember
Ġka pital
Ġbe skatt
Ġny ss
Ġbes var
el n
Ġhitt ills
b y
ĠfÃ¶relig gande
Ġf o
Ġsvar et
ĠvÃ¤ x
Ġs iff
Ġbyg ga
Ġupp en
Ġsyn punkt
ĠÃ¥ l
iv il
Ġo ro
ĠhÃ¥ll er
ĠbudgetÃ¥r et
an ns
ĠnÃ¤ring sl
Ġin fl
E L
Ġan t
ĠrÃ¶st ar
ĠprÃ¶ v
2 0
Ġtal aren
Ġst u
Ġst ud
vÃ¥r den
Ġyttra de
Ġingen ting
ft en
R I
ĠfortsÃ¤tt a
Ġsk ill
Ġr Ã¤n
ig en
Ġmed borg
Ġgo da
terna s
Ġk raf
vÃ¤ x
Ġunder sÃ¶k
ĠfÃ¶re gÃ¥ende
Ġdess utom
1 9
Ġsi sta
Ġav ser
Ġl Ã¥g
Ġr emiss
ce p
Ġvill kor
Ġly delse
Ġkommu nal
politi ken
Ġn e
Ġpl ats
ĠÃ¤r ade
lÃ¤g ga
ĠÃ¥t skill
ĠJohan sson
ĠReger ingen
ĠÃ¶k ade
ol og
Ġp ass
Ġa kti
ĠÃĦ ven
em ligen
ister n
Ġber Ã¤tt
sa tta
Ġfl y
Ġuttal ande
Ġ Ã¶r
ĠnÃ¤r mare
Ġk val
Ġrik s
ĠlÃ¤n s
p k
Ġjordbru ket
or ter
ĠS var
ktiv t
Ġkonsek vens
Ġer sÃ¤ttning
ar ne
Ġ et
ing e
Ġju stiti
sk yd
k Ã¶p
ĠtÃ¤nk er
Ġi m
ĠtÃ¤n ka
Ġmiljar der
Ġsy fte
Ġutskott s
ĠfÃ¶re varande
ĠframstÃ¤ll ning
ĠTor sdagen
Ġkun skap
na pp
en ts
n ytt
Ġk ost
ord ningen
in t
g j
ering s
ande r
d ning
Ġallt fÃ¶r
itet en
Ġin d
b el
Ġtank e
sam mans
e sta
l in
Ġb Ã¤sta
Ġi d
U t
Ġvi sa
Ġde partem
Ġins atser
an sp
Ġom rÃ¥det
Ġh yr
Ġbet rakt
ĠDe ssa
Ġf ebruari
ĠJ u
Ġupp e
Ġsj Ã¶
Ġo er
Ġbev ill
sti ll
Ġkonstat era
n y
Ġspe ci
Ġvis at
l Ã¥
ĠsÃ¤tt a
Ġg ar
Ġ1 00
Ġbet al
Ġdemokra ti
kt ur
Ġhvil ken
sÃ¤tt ningen
Ġ3 1
Ġut gÃ¥
Ġi h
Ġg ivet
ss ss
Ġtal are
Ġav slut
Ġtyd ligt
Ġmyndig het
Ġa m
Ġut gÃ¥ng
Ġfol ket
sb yg
Ã¤ pp
Ġc ivil
or ganisation
Ġve ck
l at
i et
s h
ĠB o
- -
ĠC arl
in ner
. Â»
Ġborger liga
Ġh al
Ġoer hÃ¶r
ver ksamhet
Ġveder bÃ¶r
Ġtillg od
Ġ ....
Ġkon troll
ĠK arl
vÃ¤ s
spoliti k
Ġs ist
j Ã¶r
Ġfl yg
uds ak
ĠÃ¥tgÃ¤r d
en skap
Ġk napp
ĠstÃ¥nd punkt
ĠtillrÃ¤ck ligt
p ri
g at
ĠÃ¶vr iga
j ur
em in
gif terna
stitu tions
ĠpÃ¥ stÃ¥
sp e
ĠvÃ¤rl den
ĠÃ¶k at
Ġtill gÃ¥ng
Ġreger ings
ov ember
skatt en
ar ti
Ġtill sammans
land s
Ut skottet
ĠG u
Ġb rist
ga de
Ġex tra
b olag
Ã¶r j
Ġegen dom
ĠbehÃ¶ va
Ġakt u
Ġsamman trÃ¤
Ã¶ kt
m Ã¥l
Ã¶ ta
Ġn emligen
Ġf isk
s org
r Ã¤ng
h Ã¶ll
Ġord ning
ĠFred agen
Ġskol an
Ġtill hÃ¶r
ĠÃ¥stad komma
h and
ĠsÃ¤rskil d
ĠÃ¤mn et
Ġsp el
vÃ¤g ande
i ver
f ver
Ġlit en
Ġkostna der
verk an
Ġfy ra
Ġg av
ĠT is
ĠfÃ¶rutsÃ¤tt ningar
Ġf anns
lag da
Ġskriv else
Ġn ovember
Ġall ra
je kt
Ġn Ã¶j
ĠvÃ¤g en
ĠTis dagen
Ġun d
og s
Ġans Ã¥g
k all
Ġav tal
Ġarbet a
ĠFÃ¶redro gs
s o
Ġener gi
Ġproposition er
) ,
ĠNil sson
Ġkon t
Ġreg el
hÃ¥ll ande
Ġin sk
sk raft
l Ã¥t
ĠrÃ¤tt a
ĠStats rÃ¥det
ĠsÃ¤ker het
Ġin rÃ¤tt
c cep
ĠÃ¤r ende
tag it
spl an
ĠsÃ¥ vitt
ĠG Ã¶te
ĠallmÃ¤n het
Ġgr an
ĠfÃ¶rhÃ¥ll andet
Ġbef olk
ĠÃ¤l dre
ver ks
bl and
ĠFÃ¶r sta
un t
k raft
ĠstÃ¤ll er
Ġt ot
ĠÃĸ ver
Ġfor sk
Ġin v
sm Ã¥l
ĠnÃ¤st an
Ġin forma
Ġr el
ĠM in
Ġs Ã¤n
Ġh y
ĠV Ã¤n
Ġm is
Ġ19 2
p ande
sÃ¤tt a
Ġarbets gi
ĠL Ã¥t
Ġredo vis
Ġsnar t
ber ed
frÃ¥ n
Ġsocialdemokra tiska
ĠAr bet
Ġutan fÃ¶r
Ġut nytt
Ġtill Ã¥
Ã¥ ga
Ġb ist
ĠÃ¥l der
ĠlÃ¤g e
Ġing Ã¥
ord ning
Ġm a
fÃ¶r en
Ġn o
m edel
sb e
tt ag
Ġtr ansp
ĠfÃ¶rm Ã¥n
Ġ19 1
Ġundan tag
Ġuppfatt ningen
Ġdet samma
Ġm akt
s ik
Ġland sbyg
Ġdel en
ti va
Ġl ant
te ck
Ġfa ck
l Ã¤n
ag raf
Ġa b
Ġinterna tionella
ĠvederbÃ¶r ande
ĠfÃ¶rs Ã¤lj
Ġav gÃ¶rande
ad t
ĠkÃ¤n na
Ġenkel t
st ra
Ġele ver
ĠSocial demokraterna
Ġsitu ationen
Ġ ci
l am
Ġo p
Ġv Ã¥g
Ġk Ã¤rn
Ġarbetsmark naden
l Ã¤m
j unkt
Ġta x
Ġm ateri
del ning
ĠGÃ¶te borg
Ġal terna
v i
Ġre form
j Ã¶
Ġst eg
ĠRiksdag ens
ĠnÃ¤r a
Ġse x
f on
Ġ3 5
fall et
vÃ¤r r
Ġar g
Ġstar k
eman g
ĠdÃ¤r vid
Ġdom stol
Ġo s
ĠsvÃ¥r igheter
Ġd yr
fÃ¶ret ag
Ġin iti
ari e
Ġbak gr
klar t
Ġfram hÃ¥ll
Ġk olle
ĠnÃ¤mn da
Ġen g
Ġsynner ligen
Ġkam mare
ĠfÃ¶resl Ã¥r
Ġregl er
ĠanfÃ¶r t
Ġr oll
ĠsamhÃ¤ll e
Ġol yck
ĠfÃ¶rhÃ¥llande na
d de
Ġ Ã¤m
Ġkons um
r en
Ġsj el
Ã¶ der
Ġupp re
Ġut gÃ¶r
im at
l i
Ġpr es
Ġupp rÃ¤tt
Ġvar e
Ġa d
Ġled a
ĠfÃ¶rÃ¤n dring
Ġr ent
Ġbetyd ande
ĠM iljÃ¶
ĠfÃ¶ran led
bar a
Ġbeslut a
k er
Ġver ksamheten
dra s
ande ts
fÃ¶rsÃ¤k r
l ades
st al
Ġdisku tera
Ġb o
Ġkon f
Ġing a
h andling
ĠhÃ¶ ger
ĠinnebÃ¤r a
Ġkonkurr ens
ĠanvÃ¤n das
g t
Ġsk Ã¤r
Ġan slut
ĠsÃ¤ker t
Ġmyndig heter
Ġtr ygg
ĠgÃ¤ll a
spoliti ken
sm edel
Ġbetyd ligt
Ġbek lag
da de
Ġyrk es
ti onal
Ġav se
Ġdag ar
ĠbÃ¶r ja
ĠhÃ¶r a
ati v
Ġexempel vis
Ġb it
Ġh Ã¤v
ĠnÃ¤mn de
Ġstar kt
Ġb em
ĠpÃ¥ pek
ĠlÃ¤g re
Ġom k
ĠoerhÃ¶r t
Â» .
ty gad
Ġtv ing
for mer
or er
junkt ur
ti ds
Ġfl esta
v ande
ut red
Ġfinans ministern
Ġo n
politi ska
fall er
ĠGu sta
ĠlÃ¶s ning
dust rin
itt Ã©
Ġord fÃ¶rande
Ġs an
ĠfÃ¶r a
Ġlandst ing
ĠEuro pa
Ġb red
sa v
Ġsk ilj
Ġom Ã¶j
a ck
Ġa ccep
and ra
Ġbevill nings
bet al
Ġsocial a
ĠfÃ¶r valt
Ġh am
Ġutbild nings
sti t
Ġgivet vis
Ġo pp
ĠÃ¥tskill iga
sk riv
Ġint rÃ¤ff
Ġex port
Ġer for
Ġsam arbete
Ġgrund lag
Ġm Ã¤rk
Ġsamt liga
ĠM alm
ĠmÃ¶jlighet en
ĠfÃ¶retag en
lÃ¤gg ande
ĠbegÃ¤r de
Ġt jen
Ġbostad s
Ġle ver
s ol
bru ks
ĠVÃ¤n ster
Ġ =
Ġsk ick
Ġber oende
sk yl
Ġkr ing
Ã¤r ka
Ġstats utskottet
Ġer kÃ¤n
ĠlÃ¶ sa
Ġerfar enhet
er ande
Ġaf fÃ¤r
ĠK omm
s ats
Ġfinans i
Ġbes vÃ¤r
en skomm
Ġ ram
Ġpar agraf
Ġmin sk
ĠfrÃ¥gor na
ti sk
Ġoffent liga
Ġhvil ket
Ã¤l t
Ġforts att
Ġstats utskottets
Ġor ganis
Ġekonom isk
ĠÃ¶r e
ĠDe ss
ma j
Ġkommun ikation
Ġt rÃ¤ff
Ġra pp
ĠfÃ¶rbÃ¤tt ra
ĠlÃ¤r are
Ġs Ã¶k
ĠKammar ens
Ġparti er
un ds
lighet er
ĠPro t
in a
iver s
jÃ¤n st
Ġdet al
Ġbered d
ĠvÃ¤r n
Ġg ott
Ġd rag
s erna
Ġlig ga
ĠÃ¥ ber
d ar
maj oritet
ion er
ĠfrÃ¤m st
ĠL ag
Ġres on
ĠL ars
Ġd r
Ġp ost
ĠfÃ¶rh opp
o ber
stit ut
Ġk lass
s y
ag a
Ġdisku ter
Ã¤nn en
gif ten
Ġanslag et
Ġunderst ry
A L
Ġt as
Ġpro du
ĠÃ¶f r
r or
O R
an ser
gÃ¥ tt
Ã¤nk ning
vÃ¤rt om
v ad
is ering
ĠanstÃ¤ll da
itt Ã©n
Ġe ven
Ġv Ã¥l
Ġo fÃ¶r
kti va
ĠomrÃ¶st ning
Ġkon stitutions
Ġh ot
Ġintress en
ĠanfÃ¶r de
Ġsy ft
Ġpro gram
ĠU pp
v ill
els ens
ĠL und
Ġdag ens
le tt
em ori
b an
d ande
Ġ |
Ġintress ant
bygg nad
ent ar
ĠhÃ¶ ga
an ti
r ingar
Ġor sak
Ġti m
Ġg ick
Ġfram gÃ¥r
Ġ6 0
Ġber or
re g
t as
Ġom stÃ¤ndig
Ġgj orts
stÃ¤ll a
Ã¶ tt
n et
ĠfÃ¶rÃ¤n dringar
Ġkomp et
k ter
ĠE rik
Ġreservan terna
Ġun ivers
ĠrÃ¤tt igheter
Ġhyr es
ĠAn mÃ¤l
Ġt el
Ġskatt er
ĠF rÃ¥
Ġb ill
. ;
Ġ3 3
ĠM ar
Ġmots varande
komm ande
ĠfÃ¶r tro
Ġeven tu
de batt
ĠBer g
Ġfor skning
Ġut form
Ã¶ ma
k unn
Ġm et
sÃ¤tt nings
Ġtr yck
Ġh ist
ĠtjÃ¤n stem
Ġb an
ĠKon ung
r r
Ġeg et
ĠVar fÃ¶r
Ġkvin n
fri het
un det
Ġhu fv
Ġt ve
Ġf i
Ġg ym
Ġ Y
Ġpoliti ken
Ġpro f
Ġr Ã¤ck
man nen
ĠanmÃ¤r k
Ġs att
Ġing et
ĠfÃ¶r ste
ĠlÃ¤mp ligt
Ġmed an
Ġf red
Ġomfatt ande
Ġopp osi
ĠarbetslÃ¶s het
s el
Ġan se
Ġskri fv
fÃ¶l j
kt ober
Ġtal ade
Ġkostna derna
h Ã¶j
Ġin f
m o
Ġmed vet
Ġ3 2
ĠfÃ¶r f
ing arna
ĠC h
tion ell
Ġut fÃ¶r
ĠdÃ¤r emot
r on
ĠberÃ¶r da
ĠB et
Ġ igenom
Ã¶ det
Ġcent ral
ĠmÃ¤n sk
ĠbegÃ¤r t
v pk
m ande
b ott
a b
ĠvÃ¤g ar
Ġkl imat
Ġd is
Ġ- -
ĠÃ¤r enden
stÃ¤ll d
ĠvÃ¥g ar
Ã¤nd ska
Ġgj orda
Ġfa tta
re v
ru st
sk ostna
Ġutt ala
Ġ3 8
ĠmÃ¥ nad
ĠP unkt
Ġslut ad
Ġb y
ĠF olk
o den
Ġc enter
Ġland s
j uk
Ġomk ring
Ġbehov et
ĠnÃ¤rma st
tion ellt
ER G
Ġ3 4
I L
ĠOl sson
ĠutgÃ¥ng sp
Ã¤ s
ĠT h
ĠStockholm s
nÃ¤mn da
ĠnÃ¤r ings
frÃ¥ ga
Ġstats ministern
verket s
er s
u x
Ġupp n
ĠfÃ¶r fatt
Ġr ing
ĠpÃ¥ gÃ¥r
b yg
ĠfÃ¶r vÃ¤r
un dra
Ġledam ot
ĠÃ¶k ar
Ġbes par
Ġo ktober
sp r
ĠL ar
st Ã¥n
ĠhÃ¶g st
vÃ¤r d
Ġstats bidrag
S A
y ft
Ã¤g g
Ġ3 6
Ġs Ã¤m
mÃ¤ kti
Ġkonk ret
ktor n
Ġsnabb t
i va
al er
Ġbe fatt
Ġl andets
Ġer hÃ¥lla
Ġpl atser
vÃ¤s endet
p or
ĠrÃ¤tt s
ĠF N
ĠÃ¶ver vÃ¤gande
Ġbety der
ar d
ĠD an
parti ets
Ġrim ligt
Ġst Ã¤n
ĠvÃ¤l fÃ¤r
Ġiniti ativ
Ġres pe
p as
f Ã¤ll
Ġut s
ĠPer sson
l und
ĠrÃ¶ sta
rÃ¤ da
Ġskyd d
Ġin rikt
Ġuppl Ã¤st
Ġuppl ys
ĠlÃ¤g et
ĠFÃ¶r s
ry m
ĠfÃ¶r emÃ¥l
e der
ĠDess utom
stÃ¤n digt
ĠB jÃ¶r
ĠhÃ¶g sta
Ġb ri
ĠF rÃ¥n
ĠfÃ¶re faller
Ġsk il
ĠmÃ¶j ligen
om rÃ¥det
Ġproblem et
Ġp unkter
ĠlÃ¶ ner
ĠlÃ¥ng sik
ĠrÃ¤k na
Ġregi onal
sp rÃ¥k
es er
at or
ĠB en
slÃ¶ sa
Ġtill stÃ¥nd
ĠSt at
Ġmotiver ing
lag t
ĠC enter
ĠA pril
ĠbetrÃ¤ff ar
Ġska ff
Ġti o
Ġinne hÃ¥ll
ĠangelÃ¤g et
Ġtill vÃ¤x
ĠfÃ¶re skri
ĠK an
Ġr Ã¤d
Ġupp f
Ġarbetsmark nads
Ġ3 7
Ġomfatt ning
Ġl em
u ter
yt ande
Ġf m
ver ksamheten
Ġva pen
Ġj em
Ġbi be
Ã¶r er
Ġknapp ast
Ġna m
tig het
unk terna
Ġkri tik
O L
der n
h andel
Ġsyssel sÃ¤ttning
ĠrÃ¥ der
ĠM ars
Ġgenom fÃ¶ra
Ġt e
ru m
Ġungdom ar
skol or
lÃ¤gg ningar
Ġd jur
ĠnÃ¤m na
ĠgÃ¥ng en
t at
ĠN ord
Ġt u
ĠMalm Ã¶
r and
Ġk red
Ġbygg nads
ĠhÃ¶r t
Ġinkom ster
ĠnÃ¶dvÃ¤n dig
Ġen lighet
Ġkomm ande
slag et
ĠhemstÃ¤ll a
ns am
i ans
Ġn ord
q vist
Ġut gifter
Ġre vis
Ġ4 5
Ġs um
Ġo be
ill a
ĠÃ¤n dringar
ĠbegÃ¤r an
Ġn ivÃ¥
ĠfÃ¶rsÃ¶k er
Ġmilit Ã¤r
Ġal ko
Ġmed fÃ¶ra
Ġt olk
yd ande
sl Ã¥
ĠÃ¤ndra d
Ġhuv udsak
Ġsystem et
Ġgl Ã¤d
Ġinforma tion
ĠgÃ¤ll de
k n
ĠkrÃ¤ ver
Ġgr Ã¤n
Ġsl Ã¥
l en
ĠfÃ¶rh in
Ġj ern
Ġfunn it
ĠfÃ¶rÃ¤n dra
Ġlagstift ningen
Ġle der
Ġlag utskottets
Ġaf slag
ĠutlÃ¥t andet
Ġeng ag
ĠkrÃ¤ vs
Ġhus hÃ¥ll
ĠmÃ¥ nader
ĠstÃ¤ll t
Ġprivat a
tion erna
ĠMo dera
Ġekonom iskt
rÃ¥ den
ĠÃ¤r endet
Ġekonom i
Ġmed fÃ¶r
Ġk or
Ġbe st
Ġbesk ed
ĠJ O
Ġgym nas
Ġfar tyg
ĠbehÃ¶ v
Ġ igen
Ġ19 0
Ġstats rÃ¥d
Ã¤ ster
Ġpri ori
n Ã¤r
ĠfÃ¶rklar ade
Ġunderst Ã¶d
m ak
Ġs ol
sti d
Ġver ket
t in
Ġbe akt
ic in
Ġfram hÃ¥lla
ĠlÃ¤ sa
Ġfly kt
Ġgemensam ma
r ig
nings vis
Ã¤ng d
ĠutlÃ¥t anden
ĠmÃ¶jlighet erna
ĠfÃ¶r ny
Ġind iv
pa ss
Ġprincip i
Ġ7 0
ka st
b o
Ġs u
Ġbe vis
Ġ %
ĠÃ¶ver tygad
2 1
Ġsvar a
Ġsocialdemokra terna
ĠVÃ¤nster partiet
st Ã¶d
spro position
Ġarbet are
Ġl u
Ġ8 0
ĠN Ã¥g
Ġord in
min ist
Ġf on
o na
ĠH ans
ĠN or
Ġp ress
ĠN y
Ġun ga
sl ed
iss ionen
ĠsjÃ¤lv klart
ĠlÃ¤g ger
Ġproduk tion
rÃ¤ k
ĠtÃ¤n kt
Ã¥t gÃ¤r
Ġm Ã¥ng
ĠhÃ¤n der
Ġut gÃ¥r
Ġrik sb
Ġk at
Ġgrupp er
Ġan vis
Ġ3 9
Ġupp tag
Ġst an
g on
Ġskatt es
Ġver ka
ĠA l
Ġrikt ning
pl an
ĠLar sson
Ġnor m
ĠinfÃ¶r a
ĠFrÃ¥ gan
veck ling
stru ktur
Ã¤m pa
ĠbegÃ¤r a
ĠuppmÃ¤r ksamhet
Ġs Ã¤g
ans ch
Ġ Ã¥n
ĠfÃ¶lj er
ĠÃ¶k ning
Ġa ger
Ġi bland
s n
Ġvi tt
ĠÃĸver lÃ¤ggningen
riv ill
ĠN i
Ġb rÃ¤n
ĠvÃ¤n ta
nÃ¤mn den
la c
m ul
form en
Ġutveck la
p ension
Ġd i
Ġstar ka
kÃ¤nn ande
Ġbehand las
full t
ĠhÃ¶j ning
Ġansvar et
Ġfram tid
y o
Ġen bart
ti skt
Ġkompet ens
a bl
ĠnÃ¤ringsl ivet
skon tor
Ġty vÃ¤rr
Ġtyd ligen
dent ligt
ĠtillfredsstÃ¤ll ande
Ġunivers itet
Ġly ss
ĠfÃ¶rord ning
E T
Ġupp stÃ¥
ĠfÃ¶resl Ã¥s
Ġih op
ĠA ND
Ġgr under
Ġsj u
v o
g in
ĠSven sson
ĠH el
pro duk
Ġresultat et
Ġred og
ĠhjÃ¤l pa
Ġbl ef
Ġ chefen
ĠG enom
minister ns
Ġarbet skraft
utbild ning
ĠlÃ¤r ar
Ġdiskuss ionen
Ġh eter
Ġliv smedel
ĠrÃ¶ ster
Ġorganisation er
Ã¶ ts
ĠgodkÃ¤n des
Ġordin arie
ĠlÃ¤r o
ĠhÃ¶j a
Ġp ek
Ġvin na
ĠH ar
Ãĸ R
de ll
Ġunderstry ka
sp ek
ĠÃ¥n yo
Ġb ry
kÃ¤nn ag
Ġin vÃ¤n
Ġskill nad
Ġhel het
Ġ9 0
Ġvar i
Ã¤ kt
ĠNorr land
B ERG
ĠvÃ¤sent ligt
de ts
Ġlag t
ra t
s i
ĠfÃ¶rtro ende
at ur
Ġfri a
Ã¤g are
ĠÃ¶ver enskomm
Ġr unt
Ġarbetsgi var
ĠtillÃ¤g g
Ġinne varande
ĠGusta f
ĠÃĸ ster
Ġor Ã¤tt
ĠDÃ¤r emot
ER SSON
ra de
ĠfÃ¶rs am
Ġmilit Ã¤ra
Ġlik nande
Ġfj ol
ĠmÃ¶j liga
g arna
k e
ĠfÃ¶re kommer
Ġhvar je
Ġvor o
ĠberÃ¤tt ig
Ġarg ument
Ġb al
Ġ 0
Ġframti da
vis ningen
skol a
ST R
Ġpar lam
Ã¤tt a
Ġun drar
Ġk Ã¶p
Ġvin st
Ġvar andra
Ġsammanhan get
Ġg yn
ĠvÃ¤l ja
Ġtill kÃ¤nnag
sy k
ĠM om
sÃ¤tt as
Ã¶ ds
Ġf rivill
sol ut
Ġskrifv else
Ġvid ta
b ju
l y
Ġlin je
Ġs n
Ġn er
le k
Ġut vid
ĠfÃ¶rsÃ¤lj ning
ĠfÃ¶rl or
Ġs ann
ter ingen
j Ã¤r
ri pa
Ġin lÃ¤gg
ĠfÃ¶rut sÃ¤ttning
pe iska
gr Ã¤n
r Ã¤m
Ġreservation er
Ġan sprÃ¥k
Ġdepartem ents
Ġg es
skap et
i a
ĠÃ¶ gon
Ġmen ingen
Ġfatt ig
Ġtal at
Ġ4 1
ri c
ĠfÃ¶rs Ã¤m
Ġst ati
Ġbek ym
ĠfÃ¶rord ningen
Ġupp h
ĠdÃ¤r igenom
Ġviktiga ste
ĠÃ¶ver syn
Ġab solut
rÃ¶ v
spoliti ska
Ġindiv i
Ġjern vÃ¤g
ju p
Ġlik al
ĠH vad
ĠfrÃ¥ gat
ĠallmÃ¤n t
ri m
Ġprof ess
Ġfri het
S D
h er
Ġalko hol
ĠvÃ¤rn plik
Ġs ock
Ġuttal at
ĠtillfÃ¤ll en
Ġ4 2
al en
ar t
Ġr en
ĠMiljÃ¶ partiet
Ġ.... ....
k an
Ã Ħ
em edel
Ġ197 8
ĠH ag
Ġ197 5
ak tigt
Ġtill styr
emori al
ĠsÃ¤rskil dt
Ġd riv
ĠÃ¶n ska
spe ktiv
Ġuti frÃ¥n
Ġo av
Ġstats verks
sb ygg
Ġt Ã¤ck
Ġb esl
Ġ198 5
k lag
Ġt vÃ¤rtom
sl Ã¤pp
ss Ã¤tt
h ur
Ġinfl ytande
ĠÃ¥ber op
Ġan ord
Ġarbetsmark nad
Ġ18 7
Ġbed ri
vÃ¤r de
Ġverk ar
Ġo t
Ġpositi vt
unn it
ation er
Ġv ux
y ll
r it
Ġnu mera
Ġgr Ã¤ns
st ans
Ġbeslut et
ĠbÃ¶rj ar
ett er
Ġkval itet
ĠhÃ¤n seende
ĠIn terp
Ġuppen bart
f er
in kom
fÃ¶rs Ã¶rj
Ġav st
Ġunder l
fÃ¶rslag et
Ġstati sti
Ġvid tag
Ġti ds
Ġs ub
Ġut Ã¶
Ġut eslut
ĠlÃ¥ ter
1 0
Ġpres enter
Ġ ch
Ġtill verk
Ġom edel
ĠfÃ¶rhandling ar
j Ã¶l
Ġle va
nings ha
Ġpension s
ĠIn g
en heten
Ġmin istern
Ġdetal j
ĠjÃ¤m te
Ġg ivit
Ġalterna tiv
ĠA lla
majoritet en
Ġti der
Ġsv Ã¥ra
ĠT ro
ĠrÃ¤tt en
ed om
Ġ4 3
U ND
Ġ198 6
Ġfull stÃ¤ndigt
sk jut
Ġupp le
ade n
stag ande
var a
del ningen
ĠfÃ¶rdel ning
Â» ,
Ġbyg ger
Ġk Ã¤nn
Ġan st
ss am
skyd d
om sorg
var s
Ġred a
Ġsti mul
iss ion
Ġinvester ingar
Ġbarn en
N N
ĠmÃ¤nsk liga
Ġskyl dig
ĠSam tidigt
Ġst rÃ¤
Ġa k
ĠfÃ¶ret rÃ¤d
Ġt on
Ġ197 9
ĠÃĦ n
sp arti
Ġde raf
ĠÃ¶nsk emÃ¥l
ĠsÃ¤ker ligen
Ġar ti
5 0
ĠsÃ¤m re
Ġsk ad
Ġi de
8 0
ĠV il
Ġavslut ad
ĠRik s
Ġhandel s
e ster
Ã¤ derna
Ġsiff ror
Ġdri va
Ġbehand lingen
Ġutom or
ti ser
Ġin led
Ġuppn Ã¥
ĠutgÃ¥ngsp unkt
ĠbestÃ¤m ma
8 6
ĠmÃ¶j lig
Ġsk ul
Ġb as
Ġbesvar ad
Ġskaff a
mÃ¤kti ge
Ãĸ M
ĠfÃ¶rsÃ¤k ring
sam t
Ġar m
Ġs ikt
ĠE l
ĠhÃ¥ll et
Ġfler talet
Ġlandsbyg den
ĠfÃ¶resl Ã¥
) .
ag n
l ad
Ġbakgr und
ĠH ol
on de
ĠG Ã¶r
Ġfunger ar
bet s
Ġskol or
ing ens
sl Ã¤g
ed da
Ġ4 4
Ġk ur
Ġ '
ssystem et
Ġinv and
8 7
Ġform ul
ĠMÃ¥n ga
a hl
r ycket
Ġim port
fÃ¶rsÃ¤k ring
nar s
h jÃ¤l
Ġf Ã¤sta
Ġantag a
rÃ¶r elsen
stÃ¤mm else
pe ka
Ġbank o
Ġmed icin
Ġ198 8
ĠS T
Ġav skaff
tem ot
Ġb Ã¤st
ĠomÃ¶j ligt
ĠhÃ¶g t
Ġmedborg are
Ġgen mÃ¤l
Ġbru kar
er ats
ĠSven ska
Ġk ol
ĠundersÃ¶k ning
Ġslag s
or des
Ġf inge
Ġakti e
ĠrÃ¤tt ighet
styr elsens
ss an
ĠFin ans
Ġkomp lett
Ġst ri
Ġre k
Ġa nal
Ġproblem en
rÃ¤ff ande
Ġhin der
ĠMÃ¥n dagen
Ġutred ningar
sam het
ĠfÃ¶redrag ning
Ġ198 7
Ġskyl dighet
Ġparti erna
al d
ĠprÃ¶v ning
ĠpÃ¥ peka
ĠÃ¶nsk ar
Ġfram gÃ¥ng
an da
Ġbered skap
Ġverk ligheten
ĠV inner
Ġkommunikation s
bl ick
Ġanslut ning
A S
Ġ :
Ġfakt um
Ġpro jekt
hur u
Ġut gÃ¶ra
ster ades
Ġint et
Ġvar or
re f
g ivit
stru k
ĠmotionÃ¤r en
Ġf unk
ĠfrÃ¥ gar
Ġc a
Ġm at
Ġska da
ĠJO H
Ġo rim
k as
Ġv on
ktiv itet
veck lingen
Ã¶ s
ĠV Ã¥r
Ġbed riv
Ġk o
Ġuttal anden
se konom
ati vt
Ġbord lades
giv na
Ġd it
fl ytt
t on
Ġmark naden
ĠÃ¶pp na
Ġe uro
Ġtillg Ã¤ng
Ġtrygg het
Ġav drag
n r
ystem et
ĠomstÃ¤ndig heter
Ġgrund lÃ¤ggande
Ġlik het
ar a
ĠinstÃ¤m ma
Ġtill s
lag en
sti den
Ã¶r smÃ¥l
b rott
ĠsjÃ¤lv fallet
Ġrapp ort
upp le
ĠgenmÃ¤l e
ĠfÃ¶r vÃ¤n
Ġst Ã¤rka
ĠAn gÃ¥ende
minist ra
ĠhÃ¶ st
ĠN org
ĠlÃ¥n ga
Ġkred it
j as
Ġp o
rafik en
Ġbil d
san slag
ĠfÃ¶r el
ds am
ĠnÃ¤rma ste
ĠS Ã¶der
Ġunder hÃ¥ll
8 8
Ġo lÃ¤g
stÃ¤ll da
Ġm emorial
Ġdag en
ĠÃ¥ter komma
3 0
Ġlik vÃ¤l
Ġfj Ã¤r
ĠBen gt
ĠE r
s f
Ġ198 0
ĠarbetslÃ¶s heten
ĠfÃ¶ranled a
ĠfÃ¶rhin dra
Ġin stitu
Ġne ga
STR ÃĸM
Ġjustiti emin
frÃ¥gor na
Ġs ed
Ġsak kunn
Ġbeg ag
Ã¤r er
Ġst Ã¤m
ĠP eter
Ġans Ã¶k
alis ering
ĠtillvÃ¤x t
is m
Ġty p
ĠdÃ¤r efter
i drag
Ġkri min
Ġbed Ã¶ma
Ġ4 6
ĠPunkt en
Ġkonsekvens er
Ġinsk r
ĠfÃ¶rf og
Ġbek ant
ĠjÃ¤m stÃ¤lld
hÃ¥ll anden
del ser
Ġlok ala
Ġkostna ds
ĠsammantrÃ¤ de
Ġmedlem mar
for s
ak ter
ĠpÃ¥ verk
b ef
1 5
ĠBet rÃ¤ffande
ĠbedÃ¶m ning
ĠfÃ¶rb ud
8 9
g ra
v all
ĠJ an
or p
liga ste
Ġinne fatt
Ġnam n
Ġfull kom
u ss
Ġb Ã¤r
Ġsann ol
Ġregl ering
Ġdel vis
Ġkraf tigt
b ud
ĠanfÃ¶r da
7 9
Ġfram Ã¥t
Ġde klar
Ġfunn its
ĠModera terna
sl a
Ġrepresent anter
Ġinne hÃ¥ller
Ġ6 5
Ġerfor der
s atser
Ġny ligen
AN SSON
g ri
ĠE m
Ġskatt en
Ġarbet slÃ¶sa
Ġdy lika
i tta
Ġsag ts
Ġd ist
al unda
lÃ¥ ta
Ġtack a
Ġska par
Ġ4 8
ĠfÃ¶rm Ã¶g
ĠhÃ¥r t
Ġkomm ittÃ©
Ġp syk
Ġhem ma
Ġgar anti
Ġunder visning
ĠfortsÃ¤tt ningen
o te
ĠT al
Ġrikt lin
ĠÃ¤ ga
d Ã¶m
Ã¥tgÃ¤r der
der ing
al s
Ġk Ã¶r
Ġgemensam t
Ġ5 00
ĠsamhÃ¤ll ets
Ġfastig het
ĠnÃ¤ringsl iv
ĠlÃ¤n derna
Ġd vs
Ġallvar ligt
Ġst ru
rÃ¤ kning
Ġuppen bar
j el
k la
vi ce
Ġan visa
.. .
Ġbe skaff
Ġs Ã¤l
Ġ198 9
Ġjustiti e
ĠkÃ¶ pa
ent en
e h
ĠfÃ¶re kommit
Ġpen ning
Ġm Ã¤ngd
Ġon Ã¶
9 0
Ġan del
ĠtjÃ¤n ster
ĠfÃ¶rm od
Ġmateri al
y ss
Ġ4 7
ĠtillfÃ¤ll iga
Ã¤ker het
Ġfl ytt
ĠHol m
ĠSk ulle
stÃ¤n dighet
Ġdu bb
Ġ9 6
Ġkon junktur
gi ck
Ġor gan
A G
Ġlag utskottet
Ã¶ f
Ġrik tig
Ġing alunda
ĠS J
Ġb ok
ra struktur
d ri
Ã¶ ks
full a
Ġav lÃ¶
Ġsjuk dom
Ġoav sett
Ġkon ta
Ġprakti ska
Ġsp Ã¶rsmÃ¥l
var et
Ġid rott
ĠdÃ¤r om
ar at
ĠÃ¥r ets
g Ã¤l
Ġsven skt
ĠtillÃ¤mp as
u re
Ġhuvud tit
Ġh undra
t es
Ġin stÃ¤llning
ĠNorg e
Ġvi da
ĠIn te
ĠErik sson
Ġins ats
k ostna
ĠverkstÃ¤ll des
Ġstatsverks propositionen
Ġny tta
Ġgran skning
if rÃ¥n
Ġgr unden
Ġfor mer
Ġprakti skt
Ġt ol
ĠpÃ¥ verka
Ġder om
ĠNorr bott
Ġtv Ã¥ng
i pp
Ã¥ d
Ġfolk partiet
Ġd jup
ar in
Ġo van
RI K
mark naden
k r
sk ra
tag ande
fin ans
Ġhist ori
Ġytter st
Ġpen garna
ed t
Ġkon st
ĠR eser
ĠfÃ¶rsvar et
ĠS l
o der
Ġde fin
Ġs upple
v Ã¤ga
Ġ198 2
ĠvÃ¤rl d
ĠA f
Ġan hÃ¥lla
ĠdÃ¤r i
ĠfÃ¶rklar ades
M AN
1 6
gif ts
Ġbef inner
Ġad ministra
Ġl o
iv na
Ġan sl
ĠO hl
ĠtillÃ¥ ter
Ġgen temot
Ġk ro
Ġbist Ã¥n
is tiska
Ã¶t es
Ġut fÃ¤r
e gl
Ġkomm e
Ġ198 3
ĠstÃ¶d ja
ĠdÃ¤r av
1 7
ver ken
Ġslut ligen
ri min
ist an
Ġpoliti sk
ar k
Ġo d
Ġtekn iska
Ġsocialdemokra ter
Ġeff ek
Ġst opp
ĠtillÃ¤mp ning
Ġsats a
st Ã¤l
Ġmyndighet erna
ĠnÃ¶dvÃ¤n diga
Ġutred nings
l ats
Ġring a
b in
ĠbestÃ¤mm elserna
ĠfÃ¶rÃ¤l drar
ĠdÃ¤r till
Ġrepres enter
Ġp lac
Ġst a
ĠO r
1 2
Ġkommun en
ĠAn slag
ĠanvÃ¤n der
Ġut rym
ĠfortsÃ¤tt er
ĠgÃ¶r s
ĠhÃ¤n da
Ġ7 5
ma kt
ĠKonung en
skol e
ĠfÃ¶rfog ande
Ġtransp ort
h u
ĠF ri
ĠmotionÃ¤r erna
t an
ord on
ĠfÃ¶rv Ã¥
ĠhÃ¤l so
Ġredog Ã¶r
Ġupp hÃ¶r
ĠallmÃ¤n heten
u bb
ĠSt en
Ġem ellan
i erna
bru ket
Ġtyck s
. âĢĿ
o ff
ĠV Ã¤ster
Ġpro cess
kÃ¶p ing
Ġa s
Ġp app
ĠJ ord
Ġju li
Ġunder lag
Ġutl Ã¤ndska
Ġdy lik
Ġrel ativt
Ã¤nk ande
es i
Ġspeci ellt
Ġsk jut
ĠÃ¥t n
le x
Ġkost nad
Ġbet eck
rik a
ti m
Ġtillgod o
re ger
Ġs Ã¤ll
Ġfru kt
g ning
A T
gÃ¥ng en
Ã¶ sa
hÃ¤n da
ĠuppmÃ¤r ksam
Ġin drag
utred ningen
ĠerkÃ¤n na
rust ning
ĠhÃ¤l ften
ĠbestÃ¤m t
Ġbifall er
Ġgj ordes
ĠK am
Ġn ar
ĠE G
Ġex per
ĠfÃ¶rh and
Ġmed verka
Ġ5 5
ĠAnmÃ¤l des
Ġval et
Ġn orr
Ġop in
Ġsitt er
Ġdis p
ĠsÃ¥ g
ĠfÃ¶rsam ling
ak tig
Ġex p
Ġpolis en
Ġ4 9
ĠmÃ¤nniskor na
Ġlok al
rÃ¤tt s
Ġo till
ĠÃ¥s igt
Ġaf s
Ġvet enskap
on op
in dustri
Ġmiss fÃ¶r
Ġsjel f
m or
spro gram
Ġenskil de
Ġbost Ã¤der
Ġer bju
Ġ198 4
Ġprotokoll et
fÃ¶rsÃ¤kr ingen
Ġbrott s
h Ã¶g
ĠÃ¶fr igt
fÃ¶r m
ĠfÃ¶retrÃ¤d are
e i
Ã¤nk ningar
p an
Ġvis ade
Ġtekn ik
ĠM ot
en terna
Ġfram hÃ¶ll
Ġav givna
Ġuttal ade
om rÃ¥de
Ġslut et
sk ar
ĠframhÃ¥ll it
Ġstat lig
utbild ningen
ĠfÃ¶r d
Ġst yck
p eri
j ud
Ġvi kt
Ġci r
uv ud
1 3
Ġsk ed
yndig het
Ġst Ã¤der
ĠS ch
ra la
re st
Ġskri ver
Ġaktu ella
ĠFÃ¶r st
Ġdy likt
Ġreson emang
Ġ18 6
ef on
Ġfullkom ligt
O T
Ġ q
Ġs id
akt Ã¤r
Ġbifall it
Ġutomor dentligt
Ġaf gif
Ġaf lÃ¶
b u
Ġeffe kt
ĠrÃ¤ck er
Ġe huru
Utskottet s
Ġ18 9
Ġbehand la
Ġkonstitutions utskottet
ĠfÃ¶rs v
Ġs Ã¤k
Ġstats mak
lÃ¤g gas
Ġp ati
ĠmÃ¥l et
Ġtim mar
ĠderfÃ¶r e
ĠfÃ¶rutsÃ¤tt er
Ġgl Ã¶m
Ġlikal ydande
ĠlÃ¤k are
ber oende
ika pp
sk in
rÃ¶ ken
Ġut Ã¶ver
k ort
ĠfÃ¶rs Ã¶kt
ĠAnder s
Ġmis st
ti den
gÃ¶r ing
Ġenskil d
ire kt
Ġmajoritet en
Ġut arbet
Ġom sorg
t et
Ġtving as
Ġparlam entar
ĠsÃ¶k er
Ġbe hÃ¥lla
Ġtid punkt
na ts
Ġvan liga
Ġbifall a
Ġt ur
Ġen sam
j Ã¤
Ġoffent lig
Ġbeskatt ning
Ġb en
sl Ã¥n
akti ga
Ġvi a
el t
Ġbef ri
ĠV Ã¤r
Ġre lig
ck er
or ganis
Ġna tionella
Ġsam ling
Ġgam m
iv el
re vis
Ġkonta kt
ĠframstÃ¤ll a
i um
Ġam bi
Ġ5 2
vill kor
Ġl Ã¥t
sp eri
Ġgod t
komm en
M P
Ġtyd lig
int ress
ĠInterp ellation
ĠhÃ¤nvis ades
ent a
ig heten
olog iska
Ġan nor
Ġ5 3
ter as
Ġge tt
Ġbri ster
m p
ĠkÃ¤rn kraft
bel opp
stÃ¤ll ningen
Ġsam arbet
Ġfatt ade
Ġan hÃ¥ller
Ġfar a
dr ingen
ĠfÃ¶reslag its
Ġkrig s
8 5
ĠfÃ¶rm Ã¥ga
Ġm Ã¶ta
ĠE ric
Ġsv ag
Ġupp t
ĠfÃ¶rbÃ¤tt ring
ĠDan mark
Ġyrk anden
b ro
ĠinstÃ¤m de
be skatt
Ġh it
ion s
sl Ã¤n
Ġhufv ud
Ġdisku terar
Ġa t
ĠhÃ¤r vid
rÃ¤ de
Ġyrk andet
Ġmedel st
yn g
1 4
tro ller
Ġin tag
Ġm ass
Ġsub ven
ĠMed del
Ġt anken
ter ade
ĠEfter som
og raf
ĠJu sterades
Ġmed gif
ĠL AR
l it
Ġdr Ã¶j
ĠpÃ¥ min
Ġvid taga
Ġmot stÃ¥nd
Ġsnar are
Ġkun gl
Ġskri ft
Ġfo gade
Ġspe cial
pro position
Ġall ians
ĠsamhÃ¤ll s
Ġforsk nings
sk land
at er
Ġf il
Ġbest ri
Ġgr ann
ĠlÃ¤g gas
ĠSl ut
Ġ5 4
Ġh itta
Ġs ant
Ġo bet
Ġn Ã¶
Ġmotiver ingen
mÃ¤ ss
Ġvara v
ĠG un
ĠsÃ¤g s
I K
Ġpositi va
ĠfÃ¶r r
Ġkonkret a
Ġ197 7
Ġ3 00
Ġet abl
N G
spro blem
b uds
Ġka p
Ġforts atta
Ġbr ansch
fÃ¶rb undet
som rÃ¥de
fv ande
sson s
ĠB r
Ġh en
Ġlyck ats
ĠsjÃ¶ far
al k
ĠtjÃ¤nstem Ã¤n
E D
ut skott
Ġman dat
Ġsi ste
8 4
Ġv em
ella tionen
e ga
ering ar
sb eslut
Ġser vice
Ġkall a
Ġtro dde
ĠlÃ¶n tag
Ġdrabb as
Ġram en
Ġf og
berg s
ĠFolk partiet
Ġt ra
ĠvÃ¤l jer
s et
Ġut vÃ¤r
ĠM AR
ĠfÃ¶re komma
Ġskyd da
Ġas yl
ff e
hÃ¥ll it
al mar
ĠsÃ¤ga s
del sen
ĠhÃ¤n delse
Ġsak nar
Ġse der
ss yn
ĠstÃ¤ll de
be stÃ¤mm
Ġval ut
ĠjÃ¤mfÃ¶r else
Ġbi dra
Ġjordbruket s
stat en
ĠGÃ¶r an
ĠH ed
Ġt ing
Ġslut sats
ĠbÃ¶rj ade
Ġ198 1
sk an
ĠbestÃ¤m da
Ġan pass
Ġre al
Ġver ksam
Ġfastig hets
Ġinf rastruktur
Ġav va
Ġan dre
Ġbli va
Ġ197 0
Ġsjel fva
Ġomedel bart
Ġsom mar
ĠfjÃ¤r de
Ġre st
Ġm or
Ġlag ar
vÃ¤r da
Ġti tta
Ġing Ã¥r
ĠOl of
ĠFÃ¶rs vars
b rik
ĠhÃ¤r om
ĠE k
Ġre former
AN D
ĠS V
Ġt rÃ¤
ĠK rist
v ika
Ġbist Ã¥nd
ter at
lÃ¶ s
ĠrÃ¤tt vis
ĠfÃ¶rst Ã¤rk
ĠsÃ¤tt er
ĠvÃ¤sent liga
Ġinvester ing
Ġ197 3
Ġska p
ĠCenter partiet
ĠstÃ¤n digt
Ġvotering sproposition
Ġarbet sl
ĠtillÃ¤g ga
Ġra tional
Ġbered a
Ã¤ ss
Ġungdom s
g os
Ġan nars
Ġst rid
Ġutveck las
h Ã¤l
Ġsta bil
or a
her re
ĠH am
Ġg ru
rÃ¥de ts
s rÃ¤tt
ĠfÃ¶r rÃ¤n
hÃ¥ll as
Ġfatt at
gas att
Ġkar aktÃ¤r
Ã¶ dra
Ġt eck
Ġseder mera
8 3
Ġ5 6
Ġ Z
sk if
Ġtill satt
ĠrÃ¤k nar
Ġbefolk ningen
onop ol
Ġmark nad
AR L
ĠÂ «
fÃ¶r as
Ġnord iska
Ġv ig
ĠprÃ¶ va
Ġverk liga
or n
Ġi lla
Ġfamilj e
Ġkons ument
h n
man na
ma kten
skontor et
ĠfÃ¶rmÃ¶g enhet
ĠB ir
bygg ande
Ġdepartements chefen
ans en
7 6
Ġut slÃ¤pp
f amilj
Ã¤mn ar
Ġsp rÃ¥k
ĠU SA
st jÃ¤n
Ġfast stÃ¤ll
Ġ &
Ġkomp ens
Ġupp trÃ¤
Ġeventu ellt
ĠbetÃ¤nk anden
p tem
Ġst und
o nala
Ġ Ã¤ger
tion ens
Ġpolitik er
ptem ber
Ġyttra t
ĠfÃ¶rm en
Ġpoliti skt
ĠS jÃ¶
Ġavs ikt
Ġl if
ĠH all
st edt
el i
Ġhvar fÃ¶r
ĠlÃ¤tt are
Ġsjuk vÃ¥rd
Ġbill ig
ĠskÃ¤r p
Ġutred a
b udget
Ġl illa
ĠfrÃ¤m mande
Ġarbet spl
m Ã¤nnen
ĠK ri
Ġde ri
Ġkonstat erar
stitut et
ats en
Ġbekym mer
Ġled ning
Ġland t
Ġutskotts majoriteten
fÃ¶r valt
N E
Ġsyft ar
Ġuppenbar ligen
ĠvÃ¥l d
Ġg ra
Ġunder s
ĠanfÃ¶r ts
raf ts
ĠfÃ¶rb in
ĠupplÃ¤st es
Ġkl o
Ġgl ad
d ningen
ĠÃĸster s
ĠÃ¥ter r
ĠfÃ¶rs ik
Ġmots var
Ġjustitiemin istern
Ġprodu c
ĠsÃ¤n ka
del ar
Ã ī
ĠrÃ¶ stat
Ġm ill
m Ã¤st
ĠhÃ¶r de
-- --
Ġbeslut at
Ġt om
Ġav givit
ĠÃ¶ver lÃ¤ggningen
ss e
Ġhand ikapp
2 2
ĠvÃ¤sent lig
ĠS jÃ¤l
Ġutrikes ministern
Ġli ber
Ġprinci per
fall it
Ġnar ko
Ġf Ã¤ng
Ã¶k ning
Ġut byggnad
ĠfÃ¶rs Ã¶ks
ĠKomm un
Ġin ter
Ġar t
Ġ6 3
Ġant ingen
Ġutbild ningen
Ġgif va
Ġsyssel sÃ¤ttningen
Ġspeci ella
Ġbered da
ĠstÃ¤llning stagande
Ġf ann
Ġstra te
Ġfa brik
ĠfÃ¶retag et
ĠhemstÃ¤ll ts
Ġor ter
ĠfÃ¶rhÃ¥ll er
Ġi ak
ĠfÃ¶rutsÃ¤tt ningarna
ĠanvÃ¤n dning
k Ã¤nner
st yrk
Ġmilj on
Ġ5 9
ĠkÃ¤nn edom
Ġhin dra
iv Ã¥n
and ard
ĠfÃ¶rklar a
stift ningen
Ġs ent
ĠhÃ¤n t
Ġav stÃ¥
Ġd at
ĠJ on
ent ets
gÃ¶r else
Ġstru ktur
Ġstud ie
na derna
Ã¤m t
an ta
s ala
Ġm ott
ĠfÃ¶relig ga
Ġder emot
Ġk opp
Ġkall ade
Ġs Ã¶kt
Ġregi onala
ĠUt skott
ĠrÃ¶st erna
Ġp e
Ġgr unda
Ġl ov
ĠM ag
Ġperson liga
Ġsk ull
Ġl ivet
Ġny kter
ĠF l
Ġder igenom
Ġ5 7
h ov
arbet are
Ġt err
b r
r ingen
Ġti tt
Ġbudget en
Ġid Ã©
Ġallvar liga
Ġbru k
Ġerfar enheter
ning om
ĠrÃ¤tt visa
Ġutnytt ja
vÃ¤r l
Ġbeskaff enhet
stol en
Ġst od
ĠanmÃ¤r kning
Ġdire ktiv
Ġsats ningar
Ġst rÃ¤ck
ĠsmÃ¥ ningom
ĠlÃ¤r a
Ġcent rala
d are
Ġfl ott
Ġkost ar
ĠlÃ¤m nat
stÃ¤ll ningar
Ġgod kÃ¤nnande
Ġty pen
Ġs a
Ġregl erna
fÃ¶rsÃ¤kr ings
f atta
pro blem
v as
Ġk il
sk Ã¤r
8 2
ĠfÃ¶rslag en
Ġkra vet
Ġse ptember
b ring
Ġkon ven
Ġen kla
je st
Ġprakti ken
Ġf Ã¶
Ã¤ des
ank ens
Ġgymnas ie
ed ag
drag et
rad i
Ġbygg nad
Ġin tagit
ut ral
Ġherr arna
ĠF or
ĠG U
y ra
Ġstyr else
ĠanfÃ¶r a
Ġen ighet
Ġv akt
Ġhu man
Ġsjuk vÃ¥rden
Ġkri s
ĠdÃ¥ ligt
Ġle v
Ġarbet en
Ġpositi v
Ġbevillnings utskottets
Ġmedvet en
ĠMeddel ande
ĠvÃ¥r den
Ġsked de
Ġvar s
Ġrik tiga
Ġbeslut ade
Ġst Ã¤derna
skol orna
and s
Ġper spektiv
ĠEm ellertid
ĠhÃ¤r efter
Ġsocial t
organis ationen
Ġm jÃ¶l
Ġanled ningen
om Ã¥l
ĠB ar
ation s
ĠtillrÃ¤ck lig
ĠÃ¤m ne
ĠhÃ¶ sten
V I
Ġutrym me
Ġuppre p
Ġtillgod os
Ġkri st
Ġkri tiser
Ġno ga
k lass
Ġtyck te
Ã¶r d
Ġkra fter
Ġan skaff
Ġder till
j et
Ġreser v
Ġfatt iga
ĠvÃ¤lfÃ¤r d
Ġt and
ĠSlut ligen
Ġin rikes
Ġminsk ar
Ġopposi tionen
ĠpÃ¥ kall
Ġt er
Ġ ,
sl i
ligt vis
Ġl ug
Ġsynner het
ĠfÃ¶retag are
ĠTal mannen
Ġbeg repp
iv t
r arna
Ġ6 7
O M
Ã ħ
Ġut mÃ¤r
ĠArbet s
regl ering
ĠsÃ¤l ja
ning ss
io te
ĠbestÃ¤mm else
Ġsam verkan
ĠfÃ¶rdel ar
ĠuppmÃ¤r ksamheten
un skap
p rÃ¶v
Ġk v
Ġfunger a
Ġr o
Ġsannol ikt
m t
Ġanslag en
Ġeffe ktivt
Ġav slÃ¥
Ġstan na
enter a
Ġtill Ã¥t
f ning
i el
Ġvar t
Ġveck or
ĠIn om
Ġsen ast
ĠhemstÃ¤ll er
Ġg i
ĠJu stiti
r ings
Ġa utom
or gan
Ġbevillnings utskottet
Ġs es
sÃ¤tt ningar
ĠTro ts
stÃ¤ll er
bl iote
Ġem edan
Ġavs Ã¥g
Ġs Ã¶n
hjÃ¤l p
Ġfa sta
if ic
Ġproduk ter
ĠDÃ¤r med
n Ã¤m
ĠÃ¶ver gÃ¥ng
ĠP etter
Ġannor lunda
Ã¤n ken
ĠfÃ¶rs Ã¶rj
politi sk
han da
Ġb oende
id ar
Ġlant bruks
ĠS und
Ġbeh of
Ġse ktorn
ĠF r
Ġkonkurr en
ĠKarl sson
Ġbefatt ningsha
sl e
Ġhand la
Ġdri ft
Ġ5 1
sled am
Ġriktlin jer
h av
stÃ¥n det
arbet en
Ġreser ver
ste gr
Ġfatt as
ĠlÃ¤mp liga
am n
iv ande
E C
ĠHan sson
S ON
g ress
Ġut man
ĠgenomfÃ¶r as
stift ning
Ġb Ã¤ra
Ġe ga
Ġpe ka
ĠÃ¤ndra de
x is
Ġekonom in
ĠÃ¤n da
Ġbord lagda
ref ve
Ġpro te
Ġbolag et
Ġ> Â»
ĠJOH ANSSON
ĠSk all
ĠÃ¶ver lÃ¤m
spro positionen
ĠhÃ¤v da
ĠinfÃ¶r ande
lÃ¤n der
Ġobet yd
Ġ197 2
Ġrek ry
Ġin kÃ¶p
ic er
h uvud
Ġreservation erna
Ã¶r en
Ġbakgr unden
na m
g es
ĠfÃ¶rh Ã¶j
ĠTy skland
Ġarbetsgi vare
Ġsp rit
Ġsk ade
Ġinsk rÃ¤n
Ġeffe ktiv
ĠrÃ¤n te
Ġst Ã¶det
ĠdÃ¤r est
ĠgodkÃ¤n na
na des
Ġo f
ĠD er
Ġel jest
Ġmin skning
Ġk lag
j erna
Ġunderl Ã¤tta
hus et
Ġrespe kt
kom na
ĠÃ¥ tta
Ġ6 2
ĠrÃ¶r else
m Ã¶j
an stal
Ġen t
Ġ196 0
ĠtillfredsstÃ¤ll else
j us
Ġh Ã¤
Ġen hÃ¤ll
e gor
Ġutl andet
Ġl Ã¤mnar
Ġp rÃ¤
Ġskil da
ĠskÃ¤l et
skatt e
Ġverk ligt
spro tokoll
en ti
ĠfÃ¶rvalt ning
Ġfri tt
ag t
ĠberÃ¤k nas
Ġstat ligt
Ġin hem
ĠAND ERSSON
Ġhan tera
ĠSk Ã¥n
Ġfolk pension
Ġmiss bruk
gj ort
Ġfram lÃ¤gga
ĠSÃ¥ som
ĠtillfÃ¤ll et
Ġflykt ing
Ġih Ã¥g
in dustrin
Ã¤n dring
Ġlag fÃ¶rslag
Ġ5 8
Ġkon troller
Ġfram lagda
Ġob lig
j o
Ġskyd ds
ĠSjÃ¤l v
grupp er
Ġdemokra tiska
g n
l ande
Ġt or
Ġaccep tera
app arat
Ġupp skatt
Ġhuvudtit eln
Ġsum ma
ĠfÃ¤r dig
Ġnog gr
ĠfrÃ¤m ja
ĠÃ¶gon blick
Ġorganis ationen
ĠhÃ¤nvis ning
ĠR edan
n ivÃ¥
Ġmen ings
Ġo beroende
ĠD ahl
Ġmo dern
Ġtill syn
Ġgl es
ĠsvÃ¥r ighet
bild ning
Ġhandling arna
Ġg ro
ĠIn gen
Ġut gifterna
Ġsl Ã¥r
ti ka
Ġarbets fÃ¶r
Ġsam arbetet
Ġsocial ministern
Ġang Ã¥r
ĠfÃ¶reskri fter
Ġar r
Ġsock er
Ġb in
Ġs o
Ġeuro peiska
Ġt Ã¥g
Ġeffe kti
ĠvÃ¤n da
Ġbeskatt ningen
org on
Ġbes Ã¶k
ĠlÃ¤m nas
ĠAll t
ĠÃ¶pp en
l et
ĠhÃ¤n visa
ĠN atur
sfÃ¶r b
Ġtyd liga
Ġbef og
ĠlÃ¥ ga
hÃ¥llande na
Ġtot al
Ã¤r enden
Ġre f
en ast
pa c
Ġparti et
spr ung
Ġrepresent ant
Ġ197 6
Ġar ren
ĠberÃ¶r a
ĠnÃ¥gon sin
Ġl ott
b es
Ã¥r en
Ã¤r are
Ġav lÃ¤m
ĠlÃ¤mp lig
ĠÃ¶nsk an
ĠA NN
ĠtjÃ¤n ste
ĠfÃ¶rs vin
Ġsti ft
Ġ197 4
ĠpÃ¥ gÃ¥ende
s ra
ĠÃ¥ter igen
ĠÃ¥tn jut
ĠlÃ¶s ningar
y ser
ar es
Ġord na
v el
Ġ15 0
Ġstu den
cent ral
ĠfÃ¶rhopp ning
ĠframstÃ¤ll ningar
Ġmar gin
Ã¤r erna
Ġav vÃ¤g
Ġbarn omsorg
Ġener g
ĠÃħ r
ĠFÃ¶redro gos
Ġvi kten
ĠSk att
A M
va tion
ĠbestÃ¤m d
Ġuteslut ande
or den
Ġkrig et
Ġti digt
Ġen het
ĠvÃ¤n ster
Ġyrk at
Ġf ordon
ĠA B
ĠstÃ¤ll as
ĠmÃ¥ hÃ¤nda
m iljÃ¶
dr arna
Ġfram Ã¶ver
Ġinrikt ning
H L
Ġjordbruk are
IN G
Ġarm Ã©
p et
var or
Ġspel ar
ĠsvÃ¥r are
Ġavse enden
Ġrik et
Ġom stÃ¤ndighet
Ġkon tra
ĠsÃ¤ker hets
Ã¶ st
8 1
Ġval t
Ġav gÃ¶r
Ġs s
Ġfly tta
nings fÃ¶r
Ġf rÃ¶ken
Ġsnar ast
Ã¤n dra
Ġupp stÃ¥r
ist r
ĠÃ¶verenskomm else
Ġang ivna
Ġminsk at
b ok
ĠLind h
ti f
Ġor t
Ġbetrakt as
k d
T A
Ġrisk erar
ĠhÃ¤nvis ar
Ġl ast
Ġbesk riv
sp ension
Ġtag as
Ġfi dem
Ġt rakt
Ã¤nk er
Ġ6 4
ĠlÃ¤ns styr
IN D
Ġriksb anken
ĠV is
Ġer hÃ¶ll
kom st
ĠAnmÃ¤l an
Ġmen ingar
j Ã¶n
Ġtack ar
ry t
Ġupp res
Ġtal as
Ġmark nads
Ġ6 6
ĠÃ¶fr iga
Ġsig nal
Ġinterna tionellt
ĠSverige demokraterna
Ġpris et
Ġbespar ingar
am en
ost nad
ĠFin land
u se
j an
dr yck
r are
Ġvid t
Ġst am
ran sp
ĠlÃ¤ ser
ol f
Ġjobb a
Ġos v
fv et
Ġse k
Ġtv ivel
Ġsi tta
vÃ¤g ar
ĠhÃ¶ ll
Ġ199 0
ĠrÃ¤tt e
Ġur sprung
Ġmot or
em itt
Ġkom pl
Ġden ne
Ã¤g arna
Ġinterna tionell
Ġle tt
ĠEn gl
ĠL and
Ġsl Ã¤pp
Ġhufv udsak
Ġlu ft
Ġen se
Ġbesl Ã¶t
Ġre alis
var en
Ġt radi
ĠR yss
Ġom fÃ¶r
Ġproduk tionen
ĠundersÃ¶k ningar
Ġstyr elsen
Ġslut a
sut drag
Ġin dustrin
ĠmÃ¤nniskor s
ĠÃ¥s ik
ĠW all
Ġf ok
Ġol Ã¤mp
Ġunder visningen
ĠfÃ¶rl ust
t ade
Ġtot ala
ti vt
Ġsol idar
Ġpro vis
ĠjÃ¤rnvÃ¤g ar
Ġkonstitutions utskottets
Ġt rÃ¤d
Ġupp taga
Ġhal v
Ġinne ha
Ġkostna den
ĠT V
Ġoblig ator
Ġprinci pen
Ġund vika
ut in
ĠVi ssa
Ġsk yn
sÃ¤tt er
Ġav vis
ĠfÃ¶r orda
ĠfÃ¶red ro
Ġmeddel a
Ġom dÃ¶m
vÃ¤s ende
sk Ã¤l
u tit
ade m
Ġmin oritet
ĠlÃ¶ nsam
ck l
esi as
Ġd ig
Ġele kt
Ġle g
Ġbeh o
gÃ¥r d
Ġut satta
Ġju ster
ĠsÃ¤tt as
ast ro
Ġfamilj er
ef en
st o
st od
va pen
Ġprotokoll sutdrag
finans i
Ġres a
ĠfÃ¶rhandling arna
Ġstark are
ens in
Ġorim ligt
Ġbet yg
ĠPetter sson
Ġm orgon
ĠfÃ¶redrag na
ĠanmÃ¤rk ningar
Ġkommun ernas
Ġkon cent
ta x
EL L
ed d
Ġbehand lar
ag e
ĠrÃ¥ da
ĠfÃ¶r bered
Ġtrafik en
ĠglÃ¤d jande
ĠR R
ĠH on
Ġtillgodo se
ban an
on s
ĠRik sb
Ġiak ttag
ĠVil ka
1 8
ckl esias
Ã¤nk andet
gri pande
Ġf Ã¤st
ist erna
Ġs Ã¤nkning
ĠsamhÃ¤ll sekonom
Ġantag ande
ĠÃ¥t skil
Ġbetal ar
h e
grÃ¤n sa
r ygg
Ġfinans ier
Ġtjen st
ĠfÃ¶re fin
Ġeffek ter
Ġor den
Ġl Ã¤st
Ġr r
Ġ8 5
Ġo g
Ġkrimin al
m as
Ġ6 9
ĠM ari
ĠkrÃ¤ va
Ġ197 1
ĠOhl in
ĠÃ¤mn en
2 5
ĠGun nar
upp gifter
ĠfÃ¶r far
Ġa ktivt
ĠofÃ¶r Ã¤ndra
Ġpro por
et a
Ġfun dera
Ġham nar
Ġkunskap er
Ã¶ terna
giv ande
l id
st Ã¤des
Ġbevilj a
Ġmodera ta
Ġengag emang
Ġstatsmak terna
sb olag
Ġmoti v
Ġbef unn
Ġpapp er
is era
regl er
ĠÃ¤m bets
ĠlÃ¤g enheter
Ġut b
ĠT ack
Ġh e
kti ve
Ġi ll
ĠP alm
gi va
Ġinterpellation er
debatt en
Ġcivil a
gÃ¤l d
skyl dig
ĠÃ¥s yft
lÃ¤n derna
ĠÃ¶fver ens
fon den
Ġsk Ã¶ta
ĠH er
Ġne utral
Ġkonsekvens erna
ĠJ Ã¶n
Ġut fallit
Ġbefolk ning
sut lÃ¥t
Ġlyck as
Ġju rid
h Ã¤ng
Ġsp ri
ĠCh efen
Ġm Ã¶
Ġfy ll
c c
g repp
Ġut bil
y sa
skostna derna
Ġdel ta
Ã¶l d
Ġjobb ar
Ġmodera terna
n are
skomm ittÃ©n
ens en
Ġgl ob
stra ff
Ġbe far
ĠingÃ¥ ende
ĠUt rikes
yndig heten
s Ã¥
r ande
Ġinterp ellationen
Ġk Ã¤r
Ġkonf lik
Ġ6 1
ĠAll mÃ¤n
Ġ chef
Ġbelopp et
Ġrespe ktive
ĠD ag
l yck
n ens
Ġpra xis
Ġf Ã¥ng
âĢĿ .
ĠfÃ¶rb ju
Ġvar ken
rÃ¥n g
ĠifrÃ¥ gasatt
ĠsÃ¤k ra
Ġstad s
Ã¤r skil
Ġdr yg
Ġprincipi ella
Ġd Ã¶m
Ġ4 00
ĠL en
Ġkomm ittÃ©n
Ġs Ã¶dra
Ġb ott
Ġg iva
jÃ¤m te
pr om
Ġp ol
ska ssan
m ateri
Ġuttryck a
fÃ¶r ing
Ġskill naden
yg ga
c ell
Ġanst rÃ¤ng
Ġskriv it
Ġbillig are
Ġstat er
ak et
Ġverk lig
Ġinvester ings
ĠK l
Ġvil kor
ĠrÃ¤n ta
ĠU l
ti l
Ġbe grÃ¤nsa
Ġnor ra
Ġunder lÃ¥ta
ĠL i
ĠjÃ¤rnvÃ¤g s
ĠfÃ¶r ne
Ġsak nas
Ġdirekt a
ĠÃ¤g ande
Ġuppl Ã¥t
sn itt
Ġinte gr
Ġvar sel
Ġv Ã¤ga
Ġut bygg
Ġarti kel
pro gram
Ġgles byg
Ġd rar
Ġpro p
d al
Ġr ig
Ġav gifter
der ande
ĠÃ¶nsk vÃ¤rt
Ġk n
Ġdrag a
Ġsvar ar
Ġbeklag ar
va k
7 8
Ġin se
Ġbef int
i ci
b Ã¤r
ĠÃ¶verens stÃ¤mmelse
s fall
Ġreservan ter
Ġ7 2
Ġhist or
ĠbehÃ¶ f
Ġan hÃ¥ll
ĠinrÃ¤tt ande
Ġtjen stem
l Ã¤k
Ġex akt
i ter
Ġarg um
ĠB l
Ġupp man
Ġtill var
Ġsats ning
ĠrÃ¤tt ss
vÃ¤r det
ĠE x
Ġint ens
ĠSk ol
der ar
som rÃ¥det
Ġdisk rimin
Ġkall as
Ġma skin
Ġ7 4
ik en
ĠmÃ¥ng f
ĠÃ¥tskil des
Ġhandling ar
jÃ¤m t
Ġb ro
ĠtillÃ¥ ta
red ningen
Ġreservan ternas
ĠvÃ¥r en
kt ligen
Ġrisk en
sp er
st Ã¶det
ĠfÃ¶rÃ¤l dra
Ġb ensin
Ġarbet still
Ġstor lek
Ġg il
ĠG ot
Ġmodera ter
ĠKrist demokraterna
Ġant yd
Ġbedri va
ĠF ebruari
Ġsam tal
ĠlÃ¶s as
Ġcir ka
v ilj
d riv
ven t
st alt
us ent
o ss
skostna der
ĠVi ll
ĠUpp sala
ĠlÃ¤m nade
ĠGustaf sson
Ġtag er
ĠfÃ¶rbÃ¤tt ringar
Ġ6 8
it a
da hl
Ġmis stag
Ġdefin iti
ĠbehÃ¶ fver
ĠfÃ¶rsvar a
Ġmots att
m Ã¤nn
sk og
Ġsk Ã¤
ĠfÃ¶r verk
ĠpÃ¥ bÃ¶r
Ġder med
Ġmin ister
Ġ20 20
Ġuppres ning
j ar
Ġv pk
Ġklar ar
k at
ĠÃ¥r ligen
Ġsag dt
om rÃ¶st
ĠstatsrÃ¥d sprotokoll
Ġunder rÃ¤tt
c p
Ġp u
b al
Ġstud ier
ĠL e
mer ik
Ġupp s
ati skt
ar ens
Ġpr Ã¤g
Ġ7 3
Ġall enast
Ġsy m
Ġvan ligt
R EN
Ġupp m
Ġrim lig
ĠlÃ¤k emedel
Ġ8 8
Ġj Ã¤tt
st jÃ¤nst
pl ats
Ġplan ering
et ag
Ġstud i
Ġs tig
j ung
ro na
ĠÃ¤ kten
ĠJon sson
Ġd Ã¶
ĠSÃ¥ dan
Ġkort a
ĠfÃ¶rstÃ¥ else
d or
Ġgamm al
an g
ĠgrÃ¤n sen
Ġsl ipp
ov jet
Ġmiss lyck
p ote
Ġpri ser
ing o
satt es
Ġgran sk
sb idrag
Ġh Ã¤st
ĠstÃ¤ll en
ssyn punkt
L UND
nar t
Ġpersonal en
ĠhÃ¤rvid lag
Ġfy lla
Ġ7 6
Ġkolle ktiva
ort en
ĠStat ens
u ti
Ġutskott sutlÃ¥t
ĠrÃ¥d ande
Ġbefattningsha vare
ĠpÃ¥ stÃ¥ende
Ġverk lighet
M AR
h in
er ades
Ġav sl
Ġmom ent
ĠjÃ¤mstÃ¤lld het
st u
ĠinstÃ¤m mer
Ġpar ter
Ã¶t et
k ra
ĠbÃ¶rj at
Ġol je
ĠhÃ¤r till
st rÃ¤
Ġallt jÃ¤mt
Ġse ktor
ĠstÃ¥ tt
tt er
nings apparat
Ġan teck
ĠdÃ¥ lig
Ġgi ven
budget en
ĠfÃ¶ret rÃ¤
Ġan stal
ĠfÃ¶rmen ande
Ġav gÃ¶ra
re k
Ġtot alt
d ist
ĠL Ã¶
Ġpek ar
Ġe cklesias
vÃ¤g en
hÃ¥ll ning
ĠSt or
fri heten
ĠNÃ¥g on
Ġrest rik
ĠbegrÃ¤ns ning
ĠCarl sson
ĠhÃ¶ger n
ĠTy vÃ¤rr
Ġsk ar
spr inci
Ġbostad sbygg
Ġaktie bolag
Ġj akt
pres ent
Ġupp sk
Ġfunger ande
ĠRyss land
er ner
Ġ196 8
Ġstu dera
kl am
Ġf Ã¤ll
Ġerfor dras
Ġblef ve
o pa
al og
Ġut fÃ¶ra
Ġh Ã¤m
slÃ¤g et
ĠanvÃ¤n ds
I A
ĠolÃ¤g enheter
ĠrÃ¶st rÃ¤tt
ĠvÃ¤rl ds
Ġtve kan
emin ari
Ġst Ã¤mp
Ġskri va
ĠNil s
Ġlem na
ĠEngl and
spe kt
en n
Ġbil da
Ġgr anska
Ġfem te
ol u
Ġparagraf en
Ġavgivit s
Ġsy nas
ĠÃ¶pp et
Ġmin im
Ġveck an
Ã¥r et
ĠÃ¥terr emiss
Ġ$ $
Ġmen ade
or erna
Ġdel taga
Ġvin ter
ĠÃ¶ver vÃ¤ga
om rÃ¥den
Ġbet ona
Ġmin sta
Ġv igt
Ġmateri el
Ġst yrka
Ġskatt ef
ste g
ĠfÃ¶rklar ing
Ġkyrk an
Ġallvar lig
ĠSV EN
u c
em ent
ĠbehÃ¶ fva
ĠintrÃ¤ff at
Ġredovis as
ĠO s
hÃ¶j ning
Ġbal ans
Ġsakkunn iga
ur it
Ã¤r kt
nÃ¤mn d
Ġbef in
ag er
Ġuppre pa
ĠfÃ¶rmod ar
Ã¤r en
Ġbry ta
5 00
Ġjordbruks ministern
Ġdri ver
Ġkat egor
Ġfin an
Ġtillstyr ka
Ġdryg t
ĠB e
R A
j em
ĠS and
Ġma x
ĠfÃ¶rslag sanslag
ĠÃ¤ vens
ĠlÃ¶ner egl
ĠS y
Ġgener al
Ġfall er
Ġsnabb are
ĠdÃ¤r pÃ¥
Ġr ub
Ġmandat peri
Ġinv Ã¥n
Ġjordbruks utskottet
ri s
ĠNorrbott en
Ġnarko tika
ĠfÃ¶rklar at
Ġlandst ingen
ĠtÃ¤nk te
i den
ĠMag nu
Ġdom Ã¤n
j ell
Ġder pÃ¥
stru m
lag d
ans var
ĠtillÃ¤g gs
Ġh anden
Ġut f
fv as
Ġst e
ner ligen
ĠmÃ¤nn iska
Ġveck a
Ġa ktiv
e e
Ġkraf tig
skan sl
Ġsist nÃ¤mnda
Ġstatisti k
Ġtull en
ĠÃ¤vens om
Ġmill ioner
Ġredo visa
Ġavseende t
ĠJord bruks
ĠfÃ¶resl og
Ġb rÃ¶
Ġly fta
ĠglÃ¤d je
K D
Ġbrist ande
Ġegna hem
I C
Ã¤m ligen
ĠomrÃ¶st ningsapparat
ĠmÃ¤rk ligt
Ġsam ord
kon junktur
ut veckling
Ġrisk er
Ġled ningen
Ġt enden
ĠfÃ¶r or
ĠjÃ¤mfÃ¶r t
fÃ¤ll en
Ġ195 0
Ġdel a
R E
Ġf p
4 0
Ġbifall as
un ga
Ġfl ick
bered ningen
dr an
Ġunders Ã¶ka
l an
v and
Ġreg ion
ĠHag berg
ĠP unkterna
Ġager a
Ġl ade
Ġt Ã¤mligen
EN A
u ster
ed lar
sb il
ĠSkÃ¥n e
s ch
Ġkommunikations ministern
v il
Ãī N
Ġtve ksam
ĠS Ã¤rskil
ĠfÃ¶rsvars ministern
Ġupplys ningar
ling ar
Ġelever na
ĠupprÃ¤tt hÃ¥lla
ra tion
Ġre ag
ĠLen nart
ost ad
Ġfack liga
ĠhemstÃ¤ll de
ĠkÃ¤n sla
ĠrÃ¥ det
jÃ¤ na
ĠV al
cell ens
L A
Ġfinansi ering
styr else
Ġ8 3
ĠLAR S
r orna
Ġmo dell
Ġfall a
ut vecklingen
Ġkom bin
ĠfÃ¶ren ing
ĠfÃ¤r re
ĠBjÃ¶r n
Ġ196 7
Ġut betal
ĠintrÃ¤ff a
Ġka pit
ĠfrÃ¤m sta
Ġin h
Ġbe for
ĠB or
u la
grupp en
Ã¤tt ning
ĠfrÃ¥ga de
Ġgen era
Ġtillstyr kt
Ġ2 000
gÃ¥ng ar
ĠKonung ens
bild nings
Ġko sta
Ġom fatta
Ġr et
Ġsju ka
ĠpÃ¥min na
Ġ8 7
Ġerforder liga
Ġm onopol
Ġing ri
Ġgenom snitt
departem entets
ĠanmÃ¤rk nings
spro cess
ĠfÃ¶lj t
ĠrÃ¤k nat
c en
sra el
Ġde sto
Ġfolk omrÃ¶st
k vist
Ġskog en
ĠgrÃ¤n ser
Ġen or
ĠpÃ¥verk ar
ĠlÃ¥ngsik tigt
Ġallt mer
skol ans
Ġbegag na
ĠÃħ t
Ġer kÃ¤nner
Ġav veck
reger ingen
om buds
Ġfull mÃ¤ktige
ĠnÃ¤mn t
ĠdÃ¥ liga
Ġst en
Ã¤t et
Ġherrar ne
ĠvÃ¤ d
Ġord ningen
Ġa g
is men
ĠvÃ¤r det
Ġs em
edag og
dra de
ĠDÃ¤r vid
ĠframfÃ¶r a
ĠFr ank
us ik
ĠhÃ¤l sa
re tt
Ġopposi tion
t rafik
Ã¤v le
skriv ning
Ġhistori a
Ġpar terna
ĠfÃ¶rl Ã¤ng
ĠrÃ¤d da
u det
ik ten
opp et
skon troll
s ttag
Ġst aden
Ġrevis ion
Ġfakt a
Ġarr ende
jÃ¤m ning
ĠMagnu sson
Ġo ft
ĠR os
k unskap
Ġta kt
Ġr y
ĠfÃ¶retag s
ĠgÃ¤ll t
Ġin re
ĠfÃ¶rv iss
Ġtill Ã¤mpa
x el
ro g
i od
fatt ning
Ġspar a
mark nads
ĠframstÃ¤ll ts
Ġbe stÃ¥r
Ġrik ta
Ġnega tiva
ĠrÃ¤k ning
Ġefter frÃ¥gan
Ġf ot
ĠframstÃ¤ll da
Ã¶r n
Ġlok alisering
Ġma ssa
Ġbel Ã¤g
Ġinne bar
Ġtag its
ĠsÃ¤ll an
Ġbi drar
ĠÃ¶fver vÃ¤gande
ĠÃ¥tgÃ¤r derna
full mÃ¤ktige
ska de
Ġkall ar
o o
Ġa merik
ul e
Ġutveckling s
Ġskatt erna
Ġfram lagt
skyl dighet
olle gi
Ġarren dat
Ġ7 9
ĠAn n
ĠÃĸ st
A B
ĠomstÃ¤ndig heten
Ġvux en
bl ad
Ġrik ets
Ġm ak
Ġfack fÃ¶ren
in Ã¤r
Ġlag ens
Ġbek rÃ¤
Ġmilj Ã¶n
Ġm alm
Ġbesvar a
r iga
Ġper iod
till Ã¤gg
itu ationen
ĠW i
vis nings
stÃ¤n diga
Ġstimul era
Ġpris erna
ĠÃ¤g na
ĠvÃ¤r der
ĠG Ã¤vle
Ġutl Ã¤nd
Ġbeh Ã¶r
ĠanhÃ¥ll an
ber Ã¤tt
Ġkvinn orna
ĠfÃ¶rv Ã¥n
skyd ds
Ġst andard
Ġecklesias tik
Ġex ister
ĠEn g
rÃ¤m jande
sk Ã¶ter
Ġrad io
Ġkron o
ĠvÃ¤l j
Ġska pas
stÃ¥n ds
ĠbrÃ¤n vin
Ġe k
b or
Ġgar an
sk ed
ĠbistÃ¥n ds
Ġklo kt
ss juk
Ġmot verka
ĠvÃ¤rl dens
ĠjÃ¤m vÃ¤l
Ġtax ering
Ġkont in
Ġsynpunkt en
Ġst ol
Ġav talet
ĠlÃ¥ngsik tiga
Ġjordbruks utskottets
Ġbit rÃ¤da
ĠK arin
Ġna tional
G REN
u sti
fÃ¶rs var
1 1
Ġa ck
Ġmott ag
fÃ¶rsÃ¶rj ning
Ġsjuk hus
dsam t
Ġstats rÃ¥dets
Ġan n
ĠGusta v
Ġdrabb ar
Ġbygg nader
Ġbanko utskottets
Ġdemokra tin
Ġred uc
Ġbarn familj
Ġtrafik s
Ġut satt
Ġmotsvar ar
ĠhÃ¤r fÃ¶r
Ġsam lade
ka pital
Ġkron an
ĠanstÃ¤ll ning
Ġmedborg arna
Ġ196 5
kr ets
Ġmet oder
Ġanslut a
f ts
Ġ8 4
ĠfÃ¶r ts
Ġfull stÃ¤ndig
Ġf Ã¤lt
Ġtax erings
sk rona
ĠsmÃ¥ fÃ¶retag
ra tions
ĠhÃ¥ll bar
I R
ĠFri herre
Ġim p
rÃ¶r else
Ġpress en
Ġsupple anter
astig het
ĠomrÃ¶st ningen
ĠVi ss
Ġegen skap
fri a
Ġbem yndig
Ġfri heten
vÃ¤rl den
un e
Ġ8 2
AL L
ĠV Ã¤st
Ġskilj er
fÃ¶rs Ã¤lj
Ġfar h
Ġ6 00
Ġindivi du
Ġtyck a
Ġbety da
ĠkÃ¤n t
organisation er
an slag
ur en
Ġtitt ar
ĠfÃ¶r es
ĠÃ¶nsk vÃ¤rd
Ġ194 7
Ġresur serna
Ġutform ning
ĠrÃ¶st rÃ¤kning
in spek
ur ser
Ġsyssel sÃ¤ttnings
ĠÃ¥s ikt
ĠL IND
ĠÃĸ re
Ġd ok
Ġfon d
b Ã¤ck
Ġarbet arna
ab rik
Ġan gif
ĠbetÃ¤nk ligheter
Ġpra tar
ĠfÃ¤ng else
Ġjordbruk arna
ĠstÃ¤ll e
Ġt o
Ġomfatt ar
pac itet
Ġb ud
ol in
ĠvÃ¤rnplik tiga
Ġopin ion
omm a
Ġintress erade
Ġkomm entar
ĠangelÃ¤g en
Ġt rÃ¤da
tyg else
astro f
ĠJ ust
Ġfull fÃ¶l
ĠÃ¥ter stÃ¥r
rÃ¥ ds
Ġfram kommit
Ġ ig
ĠtjÃ¤nst gÃ¶ring
if vel
Ġdiskussion er
Ġfram hÃ¥ller
ĠredogÃ¶r else
rik e
ĠangelÃ¤g na
sparti et
Ġ12 0
der s
l Ã¤ndska
Ġpo Ã¤ng
ĠinskrÃ¤n ka
Ġsp ek
ĠlÃ¤ro verk
Ġsan nerligen
Ġ9 5
s r
Ġ196 6
ĠrÃ¶r a
Ġ7 1
ĠfÃ¶rel Ã¥g
be hov
Ġinfl ation
ĠvÃ¤r re
Ġ7 8
ĠdÃ¥ varande
Ġreg istr
Ġuppf y
el e
en te
Ġyttr anden
b ank
Ġkon tor
.... ....
ĠtillÃ¤mp ningen
ĠG refve
Ġ8 9
Ġtill m
Ġp ot
ĠR yd
Ġna tt
kon tor
ĠÃ¤ndamÃ¥l et
ĠenhÃ¤ll igt
Ġl app
ĠhÃ¥ll as
U S
p ligt
Ġsyft et
Ġkon stru
Ã¶r ja
ĠF Ã¶l
Ġlok aler
ĠpÃ¥ stÃ¥r
Ġ196 3
usent als
Ġupplys ning
Ġj orden
Ġst Ã¤rk
t og
Ġer sÃ¤ttnings
Ġviktig are
ĠÃ¥ter kommer
Ã¤ ste
ul d
Ġupp giften
Ġkval ific
c cess
ĠfÃ¶redro gs
var na
ĠpÃ¥pek at
ĠhÃ¤r ad
Ġut gifts
Ġav stÃ¥nd
ĠW erner
te x
Ġin fÃ¶rs
ĠVÃ¤r m
Ġgrupp en
Ġrub rik
Ġtill fÃ¶r
Ġkra ven
ĠG e
ĠL ik
- ,
Ġkort are
Ġuppe hÃ¥lla
Ġ8 6
Ġk ust
flytt ning
Ġb onde
Ġhy ser
Ġgj ord
Ã¤n ga
Ġbef Ã¤l
Ġmeddel ade
Ġgenom fÃ¶rande
spro duk
Ġ195 1
n ed
bolag et
ĠÃ¶ m
em entet
Ġin del
hÃ¶j ningar
ĠÃ¤g t
Ġprakti sk
i dan
ĠÃ¶k as
ĠvÃ¤x er
Ġkonf likt
k rafts
sfÃ¶r med
ĠfrÃ¥n varande
bel t
Ġl ek
ĠlÃ¥n e
Ġsk Ã¶r
Ġi fall
gj orde
VI ST
Ġfler tal
Ġindustri en
ĠhÃ¤r av
ka ss
Ġ8 1
Ġna tionell
rÃ¥k ra
ĠStat en
ĠmjÃ¶l k
f isk
Ġm yck
Ġa u
al erna
ST A
sl in
led ningen
ĠvÃ¤x ande
t ryck
Ġt ex
Ġkonkurrens en
Ġd Ã¶r
ĠK jell
under lag
Ġtel eg
pl atser
ĠrÃ¤d d
ĠK almar
I I
Ã¤ker heten
Ġredo visning
ĠB Ã¶r
ĠframfÃ¶r ts
Ġdomstol en
gÃ¶r elsen
Ġpu bl
ĠÃĸre bro
Ġd o
ĠhÃ¥r da
ĠvÃ¤lfÃ¤r den
ĠinnehÃ¥ll et
Ġst ycket
Ġlin jen
ĠhÃ¤v dar
n Ã¶j
hand lingen
ed i
i Ã¶sa
u sten
produk tion
Ġsem ester
ĠnÃ¶j d
sk or
Ġverk an
ĠtillrÃ¤ck liga
Ġfolket s
Ġtid ningar
ĠfÃ¶lj den
Ġbolag s
inkom st
ĠLindh agen
Ġin ser
pro pri
Ġ196 9
Ġk em
ĠfÃ¶lja ktligen
st Ã¤lt
Ġre kommen
Ġbek Ã¤mp
ĠframfÃ¶r t
fv ens
h man
Ġint ryck
Ġkan sli
Ġuppt Ã¤ck
Ġspel a
yndighet erna
Ġbestri da
Ġarbet stag
Ġgrundlag en
ĠtillgÃ¥ng ar
Ġl id
Ġutskotts bet
Ġdag s
ant en
ĠFrank rike
ra k
Ġsk rev
u p
Ġut Ã¶k
ĠnÃ¶dvÃ¤ndig heten
ĠfÃ¶re stÃ¤ller
Ġgrund val
Ġsu ccess
b eslut
Ġbe skri
ĠfÃ¶rÃ¤l drarna
nÃ¤r ingen
da d
Ġfrivill iga
Ġkomm entera
Ġbek Ã¤mpa
Ġkomm issionen
ĠvÃ¤n tar
Ġsjuk vÃ¥rds
r em
Ġer hÃ¥llit
ri sk
Ġav sett
Ġan lit
ĠlÃ¤mna des
Ġupp gÃ¥r
Ġskriv ning
Ġreform en
Ġupple ver
st orp
Ġproduk tions
l are
s och
Ã¤n dringar
Ġfram stÃ¤l
Ġm Ã¶ter
ĠKomm er
Ġex cellens
n g
Ġa ss
ĠpÃ¥ tag
Ġbehand lat
handling arna
Ġmet od
Ġanal yser
Ġtv ung
Ġper man
ĠL O
ĠPeter sson
ĠstatsrÃ¥dsprotokoll et
Ġkomm ission
Ġdetal jer
ĠH Ã¶g
Ġskol orna
Ġak adem
Ġtel e
ant as
dom ar
Ġsats ar
Ġ7 7
Ġupph Ã¤
Ġ196 2
Ġvan lig
Ġt yng
Ġb org
Ġvar u
tig e
Ġr ust
ĠÃ¶ver huvud
ĠFred rik
Ġder vid
ck a
Ġ ;
mo tion
Ġarbet at
Ġprofess or
ĠhÃ¶j da
fÃ¶ret agen
Ġterr or
Ġner e
Ġavst od
m Ã¥
Ġ195 6
byg ga
ĠpÃ¥ tal
ber Ã¤k
verk ar
f i
Ġfatt ades
b om
Ġfor dras
s stat
Ġtel efon
i p
ĠfÃ¶rmÃ¥n er
hÃ¥ll et
ningss Ã¤ll
Ġh eder
se x
ĠH en
Ġinvand rar
ll e
ĠReger ingens
ĠAn na
ĠhÃ¤l s
Ġbetrakt a
speri od
ĠB Ã¥
Ġor ik
Ġinterp ellan
organisation erna
Ġmakt en
Ġtill styrk
ĠAll ians
Ã¶j a
Ġst rÃ¤ng
ĠsÃ¤ker stÃ¤lla
ĠB idrag
lig gande
g il
ĠframhÃ¥ll its
Ġbibe hÃ¥lla
Ġkon stitu
Ġb orts
Ġarbetstill fÃ¤llen
Ã¶r erna
kti ven
ann mÃ¥l
Ġkor re
Ġbor ttag
ĠR es
ĠP ET
ĠberÃ¤k ning
ĠlÃ¤ns styrelsen
Ġtill kommit
Ġrational isering
gÃ¥r ds
Ġg agn
m at
is tisk
Ġbehand lade
Ġmor al
ĠprÃ¶v as
ĠlÃ¤n et
ĠI T
dom s
sk oll
ĠMo tion
olog isk
ĠarbetslÃ¶s hets
Ġlag fÃ¶rslaget
ĠonÃ¶ digt
ati ska
Ġfatt ar
ĠN IL
Ġhen nes
te kn
ĠkÃ¤n sl
sk rig
Ġt ung
d in
skomm ittÃ©
ĠI NG
ĠSkatt e
ĠGot land
Ġp unkterna
ĠD om
Ġdepartem entet
skyd det
bet et
Ġbehand lats
av drag
giv ning
Ġbetal as
Ġdi alog
Ġ194 8
Ġcenter n
ĠfrÃ¥ ge
Ġbefint liga
Ġd Ã¶ma
Ġeng el
ĠT vÃ¤rtom
op era
Ġtillverk ning
n t
ĠL jung
re pr
Ġex propri
ĠsÃ¤r deles
Ġyrk ats
ĠberÃ¤ttig ade
Ã¥l dern
Ġg ag
ĠÃ¤ndra s
2 4
regl eringen
Ġbi bliote
Ġbr Ã¤nn
ĠÃ¥t ag
Ġakti er
skansl iet
iff er
ĠÃ¥ter upp
Ġkom prom
fÃ¶rvalt ningen
Ġdel ade
Ġtid ning
ĠlÃ¤ s
ĠfrÃ¥gan s
Ġor ts
kostna der
ĠberÃ¤k ningar
Ġgener ellt
Ġkompl ic
Ġen iga
v at
en ner
ĠV otering
Ġgyn nsam
Ġf antas
ĠH ade
Ġl og
Ġtr Ã¤ng
j k
Ġut slag
ĠÃ¤kten skap
Ġet c
Ġforsk ningen
tal s
splan en
Ġkl Ã¤m
Ġd Ã¶ds
Ġbygg ande
ĠS e
Ġ194 6
ba ks
lag ts
g Ã¤ng
Ġl ades
Ġavse vÃ¤rt
lÃ¤gg nings
n o
b Ã¥t
Ġp osi
ĠE ller
Ġunder teck
Ġlyss na
Ġvotering spropositionen
Ġv unnit
ga v
ĠfÃ¶ren ingar
ĠlÃ¥ tit
Ġp at
Ġplan er
Ġdel tagande
ĠR o
Ġpen ningar
Ġbyg gas
ĠifrÃ¥ga satta
gi ven
Ġa ktivitet
ĠinfÃ¶r des
ĠvÃ¤x a
av gifter
Ġs ank
em ente
Ġo akt
Ã¤n kt
OL M
ĠD al
nÃ¤mn derna
ant z
gr und
ĠViss erligen
fÃ¶rsÃ¶rj ningen
Ġ201 5
Ġsj unk
kt ar
r eter
ĠJo hn
fÃ¶r anden
f Ã¤lt
ĠÃ¥stad komm
Ġob ser
Ġen Ã¤r
Ġorsak en
Ġer kÃ¤nnande
ĠfÃ¶rsÃ¤k ra
plik t
by te
under sÃ¶k
eri er
Ġin kl
ĠfÃ¶rt jÃ¤n
bygg nads
Ġber o
ĠHerr ar
Ġd Ã¶d
Ġ196 4
Ġmo bil
ĠfÃ¶rb und
Ġst yra
Ġang ivit
Ġpr em
ĠHÃ¤r med
ĠuppstÃ¥ tt
pro p
gar anti
Ġ9 3
ĠutmÃ¤r kt
Ã¶r a
Ġreservation sanslag
ĠB il
nings rÃ¤tt
Ġkolle ktivt
q u
handling ar
Ġh jÃ¤r
Ġgener ella
Ġdubb el
h amn
Ġk alk
ĠÃħ ker
g o
Ġmed ger
Ġbel ast
Ġkar t
Ġflykt ingar
Ġre fer
fon d
regl erna
Ġrapp orter
ĠS ta
ĠinfÃ¶r as
Ġbety delsen
posi tioner
Ġkonsum enterna
Ġfo ster
Ġskatte betal
Ġ195 8
ĠFÃ¶r slag
Ġk ult
ress en
lÃ¶ sa
ev ill
S K
dr ings
ĠnÃ¶j a
Ġdiskuter as
pro du
ĠSt rÃ¶m
ĠÃ¶ver vÃ¤g
ans on
d ire
Ġsk if
Ġslutsats en
Ġbe stÃ¥
Ġarbet sk
or et
ĠtillgÃ¤ng liga
o w
skif tet
Ġkont akter
Ġbefunn os
Ġe ger
ĠbedÃ¶m ningen
ĠansÃ¶k an
ti s
ĠhÃ¶j as
ĠmÃ¥l en
mÃ¶j ligheter
ĠsjÃ¤lv klar
I T
Ġsakkunn ig
Ġmiljar d
ĠstÃ¤ll des
Ġav veckling
2 3
Ġaktu alis
Ġskatt el
ĠArbets marknads
ĠA R
Ġens i
Ġdjup t
ĠÃ¶ver skott
ion ens
Ġsex u
ĠvÃ¤r na
Ġb os
res ultat
per sonal
Ġutvid gning
Ġe lem
Ġb rev
Ġned sÃ¤ttning
ĠsÃ¤n kt
d ningar
ĠF ram
Ġarbets miljÃ¶
ti vet
an c
Ġupp fÃ¶r
Ġpro c
ĠG re
strum ent
in vester
Ġp edagog
ĠfÃ¶rsÃ¶k te
de x
ĠG ran
Ġgen ast
under visningen
Ġp a
Ġfar ligt
Ġper io
sm ateri
pp lÃ¥
ĠPro blem
Ġund vik
Ġansett s
Ġv o
Ġtr ygga
ĠskÃ¤l en
t o
Ġstu derande
l andet
Ġsam ordning
Ġoff ici
Ġsupple ant
Ġin slag
Ġst Ã¶der
Ġm use
ĠF R
Ġverksam heter
gn os
Ġb Ã¥t
fall a
Ġdiskuter at
ĠTh or
Ġtal es
gi tta
skap en
Ġpr om
st Ã¶r
ĠbekrÃ¤ ft
Ġm usik
ĠB O
Ġbarn et
ĠinvÃ¥n are
Ġtillm Ã¶tes
Ġgr unds
ĠÃ¤ fvens
ĠlÃ¤g enhet
ĠhushÃ¥ll ningssÃ¤ll
va kning
Ġm p
yrk ande
Ġinstitu tioner
ĠfÃ¶rstÃ¤rk ning
Ġfunk tions
ell re
skatt er
Ġ195 2
Ġutnytt jas
ĠI srael
Ġbidrag a
ĠBÃ¶r je
ĠW ik
Ġverk ningar
Ġfolk parti
ĠIng var
Ġbe vara
Ġminska de
Ġanal ys
Ġspek ul
sp el
Ġintress et
handel n
ĠbistÃ¥n det
Ġre klam
Ġfastig heter
st anser
Ġhvar till
Ġmargin al
Ġtransp orter
ĠkÃ¤n ns
ha bil
eman get
ĠanstÃ¤ll a
Ġig Ã¥ng
fall s
ĠT rafik
ra pp
Ġeventu ella
gÃ¤ld skontoret
Ġtom t
ĠfÃ¶ret ogs
Ġmed len
e des
Ġmax im
ĠNorrbott ens
Ġpubl ic
Ġprovis or
vilj a
Ġq var
ĠvÃ¤x t
ĠlÃ¶ nen
ĠvÃ¤rde fullt
ĠtillhÃ¶r a
ĠÃ¤fvens om
Ġ11 0
Ġpolis er
der nas
Ġgo ds
Ġuppdrag et
struk tion
Ġfri tids
it Ã©
Ġtill trÃ¤
Ġminska s
ĠNÃ¤r ings
ĠfÃ¶rvalt nings
Ġsym pa
Ġindustri ministern
Ġrum met
ĠVis st
Ġfolk partiets
sk ilj
Ġakt Ã¶rer
Ġkon sti
ĠÃ¥tskill igt
ĠÃ¥ klag
Ġhem man
Ġer sÃ¤tta
Ġbet ing
Ġin till
ĠfÃ¶rmod ligen
ĠstÃ¤ll s
ĠrÃ¤tte gÃ¥ng
lar na
ĠKam mare
repr en
eli us
Ġkv Ã¤ll
Ġskol ans
Ġbanko utskottet
ĠL ule
ĠbegrÃ¤ns ad
ĠfÃ¶r ber
ĠNor den
Ġstyck en
Ġprincipi ellt
ĠÃ¶fver tygad
ank e
Ġfr ig
Ġriksdags ordningen
Ġdyr tids
Ġeffe ktiva
Ġfakt orer
ĠK a
ut a
Ġfy s
fl Ã¶
Ġegent liga
in ne
ĠolÃ¤g enhet
Ġvidtag as
ug usti
Ġstats verket
s um
gÃ¥r den
Ġriksdag sbeslut
ĠM ig
ĠfÃ¶ren ade
ĠfÃ¶ ga
J ÃĸR
ĠupphÃ¶r a
Ġerbju da
Ġbar ns
Ġde samma
ĠbehÃ¶v as
Ġsp annmÃ¥l
slÃ¶ st
Ġ9 2
Ġno terar
Ġbeklag a
ĠS ovjet
ĠbegÃ¤r des
ĠfÃ¶r as
Ġb arna
ĠfÃ¶re kom
Ġriksdag sledam
Ġr emitt
Ġby rÃ¥kra
Ġotill rÃ¤ck
fÃ¶rb Ã¤tt
Ġutom lands
Ã¶ mer
Ġstor le
Ġs Ã¤lj
ĠU L
Ġ9 4
Ġmed verkan
il e
ĠhÃ¤nvis ade
grÃ¤n sen
Ġsp rid
Ġre ak
EN N
prÃ¶v ning
Ġbott en
Ġci tera
Ġres or
ĠO ck
ik er
Ġhandel n
g rad
Ġsocialdemokra tisk
Ġutl Ã¤n
om as
tit et
Ġhvar s
Ġkont rakt
Ġupp gÃ¥
ĠfÃ¶rmÃ¶genhet s
Ġpar t
h ag
Ġvar ande
ra ter
s ystem
Ġkri sen
ĠE d
Ġ10 7
ĠstÃ¤m mer
Ġbevilj as
Ġh ellre
Ġegendom ligt
ĠhÃ¤n ger
ĠdÃ¤rvid lag
Ġb ring
bild ningen
Ġkraf tiga
ĠC ARL
D A
Ġupp skjut
Ġt rupp
ĠfÃ¶re byggande
Ġtack sam
Ġskul d
Ġch ans
Ġham n
ĠaffÃ¤r s
ĠpÃ¥pek ade
komm un
Ġs la
Ġvi st
al itet
Ġupp rÃ¶r
Ġnatur liga
is erade
ĠG en
Ġskol Ã¶ver
Ġstrate gi
Ġf as
Ġ195 5
Ġstri der
Ġst ry
sb Ã¤nken
Ġbeklag ligt
under visning
Ġ195 7
ĠF ran
ĠvÃ¤ st
Ġremiss in
sÃ¤tt s
Ġstad gande
Ġhvar om
Ġfarh Ã¥g
or terna
ro t
Ġunder visnings
ĠbestÃ¤m mer
Ġlev nads
i at
Ġpre ster
Ġutt ag
ĠhÃ¶j d
itu ation
ĠJ Ã¤m
Ġbolag en
Ġmiss nÃ¶j
ĠS ka
ĠUt an
Ġl jus
Ġr ubb
ĠanmÃ¤l de
ĠfÃ¶rsv Ã¥ra
ĠH e
Ġbeslut en
ĠP arti
Ġsiff ra
ĠNatur ligtvis
Ġex t
Ġ9 9
skra v
ĠÃ¥ ker
o de
ĠstÃ¤mp el
Ġfast Ã¤n
Ġsp Ã¥r
u sk
ĠH ammar
skomm un
y st
Ġl ydande
ĠtÃ¤nk as
v ida
kt yg
ĠfÃ¶rvÃ¥ nad
Ġing ripa
sti an
Ġbri sten
ĠfÃ¶r nu
som rÃ¥den
sp olis
ĠframgÃ¥ng s
Ġupph Ã¤v
st am
Ġfisk e
un derna
Ġur s
ĠverkstÃ¤ll a
Ġintress erad
Ġkat astrof
bidrag et
Ġres pek
ĠMar gar
Ġrepresenter ar
ĠomdÃ¶m e
sb org
Ġstad g
Ġv Ã¥ga
ĠH j
fÃ¶r e
lighet erna
ĠUtskott s
Ġof ant
Ġtill sÃ¤tta
Ġm Ã¶r
ĠfÃ¶rsÃ¤k rings
del en
far tyg
ĠanmÃ¤l an
ri ster
b jud
O F
ĠKon stitutions
Ġorganisation erna
fÃ¶r hÃ¥llanden
ĠsjÃ¤lv t
ĠfÃ¶rvÃ¤r v
Ġskap at
ĠframstÃ¤ll t
ti ken
ĠB land
Ġ201 6
C K
ĠU me
ex i
Ġtol ka
ĠangelÃ¤g enhet
eh r
Ġbil den
Ġre habil
Ġh unnit
ĠJustiti e
ĠtillfÃ¤ll igt
ling s
Ġneutral itet
Ġ9 8
ex port
Ġte oret
Ġgil tighet
ĠS K
ĠSam man
Ġut af
Ġfler e
ĠOck sÃ¥
fl yg
fÃ¶ren ingen
Ġs ch
Ġtalar stolen
Ġutt rycket
Ġarbetsl ivet
Ġupp off
Ġvin d
Ġtu sen
a ch
sta ur
under stÃ¶d
Ġstopp a
Ġprop ag
Ġrim liga
Ġarbet stid
ĠhÃ¶g skolan
al et
gl und
Ġund gÃ¥
Ġupp sattes
ĠfÃ¶rstÃ¥ tt
ĠUt bildnings
ock a
sÃ¤tt ande
Ġfri stÃ¥ende
ĠRiks revis
ĠanvÃ¤n d
Ġbe stÃ¥ende
j ord
Ġfunk tion
Ġtal et
styr kt
Ġf reds
Ġto baks
ĠmedfÃ¶r t
Ġdyr are
pplÃ¥ der
Ġpri mÃ¤r
sbe stÃ¤mm
e ve
Ġav l
Ġledam Ã¶terna
bruk are
majoritet ens
Ġmyck en
ĠK ultur
ek an
Ġsin ne
ĠsvÃ¥righet erna
ĠE va
sprinci pen
E rik
Ġsol dat
ĠvÃ¤n der
Ã¤r t
ĠfÃ¶rst Ã¥s
Ġskrift liga
Ġbespar ing
Ġlik as
arbet slÃ¶s
ub lik
ĠbegrÃ¤ns ade
ĠhjÃ¤l per
Ġkam pen
ĠfÃ¶rny ad
Ġuppfatt ningar
ĠberÃ¤ttig ad
ĠtjÃ¤nstem an
E S
ĠbestÃ¤mm ande
u tt
Ġsek ret
hÃ¤ll et
ĠutvÃ¤r dering
Ġlag utskott
ĠO L
sp ar
v tal
ĠÃ¤ldre omsorg
Ġmedvet na
beskatt ningen
med len
Ġlandst ings
Ġbel ys
isk or
ĠrÃ¤tt vist
Ġvet er
st rand
ur k
Ġreg ioner
sti ds
Ġm Ã¤
Ġ194 5
Ġst re
olog i
Ġ196 1
Ġ201 4
ĠÃ¤ndamÃ¥l sen
ĠnÃ¶d gas
Ġ10 5
Ġ y
ĠGÃ¶teborg s
ĠtrÃ¤ff a
Ġarbetsmarknads ministern
Ġoft ast
lÃ¤g ger
Ġfinansi era
Ġvux na
Ġpl Ã¶ts
ĠF orts
Ġredovis at
Ġlik vÃ¤r
D et
Ġdel ega
sp ri
2 6
ĠLule Ã¥
sÃ¶k ande
Ġa ugusti
Ġdefiniti vt
d jur
Ġintress anta
res er
ĠW ester
produk tionen
Ġregerings formen
da f
ĠR une
Ġkonf er
ĠFÃ¶r slaget
utin nan
Ġdebatt er
Ġbil ar
Ġbedri ver
ĠhÃ¤n delser
Ġav vik
Ġkoncent r
Ġo tro
yn t
fv an
mÃ¤st are
Ġstat stjÃ¤n
ĠlÃ¶n erna
ĠHel a
ck ande
ĠBir gitta
Ġuttal ar
Ġnorm al
Ġinte ck
s ystemet
Ġkompens ation
Ġty per
ĠEk man
ĠvÃ¤r t
ĠaflÃ¶ ning
Ġ9 7
ĠÃ¥ter stÃ¥ende
ĠlÃ¶s ningen
in satser
Ġvid hÃ¥ller
Ġslut satser
b bl
EN S
Ġmotiver at
Ġ195 4
Ġinte gra
Ġhuvudsak ligen
j on
ĠlÃ¤ ste
ĠfÃ¶rhopp ningen
in stitut
Ġ193 9
Ġf rakt
Ġkommer si
Ġ8 00
Ġf under
Ġ194 0
A pplÃ¥der
k am
ĠR O
Ġriks staten
Ġgaran tera
Ġkomprom iss
ĠlÃ¶ st
Ġbeho fvet
at en
ĠÃ¥berop ade
Ã¥r iga
Ġrevis orer
Ġkult ure
i dent
Ġhin drar
Ġgav s
dag s
Ġfram trÃ¤
ĠReger ing
3 5
all t
ĠfÃ¶retag ens
Ġsm Ã¶r
Ġtro tt
Ġavva kta
ĠH Ã¥
Ġled ande
ĠkÃ¤rnkraft en
Ġefter ly
ĠnÃ¥ tt
ĠlÃ¤r er
Ġk d
Ġupp fÃ¶rande
Ġ200 6
Ġinterpellation ss
Ġfolk hÃ¶g
Ġt unga
Ġi den
ĠkÃ¤rn vapen
ĠV atten
Ġmyndig heten
IN A
ĠReser vation
Ġb Ã¶n
ĠfÃ¶rsÃ¶rj ning
ĠHÃ¤r efter
Ġdom in
Ġfinans minister
st in
Ġ195 9
Ġl ef
IK A
Ġre par
Ġan ordning
ori um
Ġka ss
Ġtyd ligare
ĠhÃ¥r d
mÃ¤ t
Ġnorm ala
Ġbe gÃ¥
ĠbrÃ¤n sle
Ġav gift
Ġhyres g
ĠA d
Ġjem fÃ¶r
Ġt jÃ¤na
ĠfÃ¶rb e
Ġskatt et
Ġun ionen
sp en
ĠvÃ¤g arna
ĠNÃ¥g ra
Ġpension Ã¤rer
ĠP ER
ĠUme Ã¥
Ġstat erna
ĠfÃ¶ren a
Ġver ktyg
ĠÃ¤g are
Ġnykter hets
7 7
Ã¶v d
Ġ9 1
Ġnor ska
bef olk
Ġkvin na
Ġfel aktig
Ġhand lÃ¤ggning
Ġr ena
ĠT H
ĠBer til
rÃ¥ ket
ĠhÃ¤r af
Ġord nande
Ġfel aktigt
still stÃ¥nd
Ġor dentligt
Ġhuman it
ĠS I
Ġ12 5
ĠsÃ¤g es
ER S
Ġ ning
ĠnÃ¥ diga
Ġan ty
ĠSÃ¥ vitt
ĠEuro peiska
sm Ã¤ss
Ġberedskap s
Ġbidrag it
Ã¶ cker
Ġrikt ningen
ĠE RIK
ĠfÃ¶rÃ¤n dras
ĠbestÃ¤mm elsen
gj ord
ĠFÃ¶r enta
ĠÃ¥sik ter
ĠrÃ¤ttighet erna
ĠNÃ¥g ot
ĠrÃ¤ck a
utred ning
Ġse del
fv es
mÃ¤ss igt
ĠomfÃ¶r mÃ¤l
Ġ194 9
ĠL ena
Ġval frihet
ĠutÃ¶ va
Ġsl op
sk ande
z on
Ġs Ã¤nk
Ġty der
Ġbe fall
Ġuppf yll
ĠEric sson
ĠfÃ¶r ank
ĠrÃ¤n tan
ĠM ats
ĠmÃ¶jlig gÃ¶ra
ĠÃĸ v
Ġpek at
Ġmo d
Ġefter strÃ¤
ĠS p
ut Ã¶ver
Ġ14 0
Ã¤k ring
Ġteleg raf
Ġmots Ã¤tt
stÃ¤ll t
Ġmodera t
Ġt ju
ĠA hl
borg s
ĠAnder son
p s
Ġvillkor en
n itt
ĠpÃ¥ sk
Ġmotiver a
a sson
stÃ¤ll as
Ġavs edda
Ġtolk ning
ĠavlÃ¶ nings
Ġhen ne
sb el
ati k
ĠE L
Ġlagstift nings
Ġled ighet
Ġkort het
Ã¥r ig
Ġinneb urit
Ġuttryck t
Ġjem vÃ¤l
on t
Ġbefatt ning
Ġslipp a
Ġfull gÃ¶ra
stad s
Ġb ju
ĠutskottsutlÃ¥t andet
d io
f el
ssss ssss
Ġdel tagit
vÃ¤sende ts
komm ende
/ ,
dryck er
ĠlÃ¤g gs
Ġstar ta
sk ick
ĠnÃ¤mn den
Ġgaranti er
ĠlÃ¤g sta
Ġr us
ĠfÃ¶rs um
2 9
b ra
sin dustri
Ġenskil t
Ġkonkurren skraft
Ġ195 3
Ġakti va
Ġteck en
Ġref lex
ĠlÃ¶neregl ering
ĠprÃ¶ fning
Ġr ym
Ġsocialdemokra tin
Ġ10 3
Ġolyck ligt
jÃ¤n sten
ven tionen
Ġ201 7
Ġinskr Ã¤nkning
re present
ĠRiksb anken
f abrik
Ġbet o
ĠvÃ¤ck a
ĠBor Ã¥s
ĠP ehr
Ġg ill
kl are
Ġna ck
ull en
Ġtidpunkt en
Ġoff icer
Ġhy sa
ĠsÃ¶n der
ĠfÃ¶re bygga
Ã¤g aren
Ġmo derna
Ġbed Ã¶mer
ĠkÃ¶ tt
Ġr igt
Ġhandikapp ade
ur s
Ġaf se
sk lass
l itt
ĠvÃ¤r den
Ġbrotts lighet
lik het
la tionen
Ġty ska
ĠP re
Ã¶ tta
ĠK ron
Ġvid tagit
Ġent repren
Ġ ..
Ġhvar af
ot en
un dets
Ġyrkande na
' '
Ġk ast
ĠSk Ã¤l
ĠfÃ¶rfatt ning
pro jekt
Ġsvar ade
Ġned skÃ¤r
Ġh ov
Ġlok alis
av giften
Ġm Ã¶tt
Ġtv ifvel
Ġi sol
stat ens
Ġslut ar
ĠtillfÃ¤ll ig
ningsha fvande
Ġsvensk ar
Ġsubven tioner
ĠomrÃ¶stning sproposition
Ġval krets
Ġmed ge
Ġc y
ĠfÃ¶r rÃ¤tt
lÃ¶ st
av tal
ĠdÃ¤r ifrÃ¥n
Ġmin e
id dagen
ĠV er
Ġ10 6
Ġuppl Ã¥
Ġle vande
ĠM a
Ġbetrakt ar
ĠArbet sfÃ¶rmed
Ġhufvud tit
ĠinrÃ¤tt a
Ġen klare
ig ter
Ġantag as
dom en
Ġgru v
Ġbudget propositionen
g el
Ġbeh ag
Ġf rik
ne k
ĠÃħ ter
RI ST
m ilj
ĠA T
t ligen
Ġ10 1
ju ter
al ken
Ġpro v
fl y
ĠS te
ĠHed lund
Ġkons ul
ak tighet
Ġty st
Ġ199 1
Ġvid tas
ĠDan iel
ri bu
ĠT i
ĠS D
ĠH ell
Ġkval iteten
Ġtredje del
pa ssa
Ġsnabb a
ĠÃ¤nd ock
ĠB evill
Ġ ras
fÃ¶r klar
ĠfÃ¶rb is
Ġbygg t
skomm issionen
hÃ¤ll e
Ġliv s
ĠBengt sson
Ġmandatperi oden
ĠJan sson
ĠavlÃ¤m nade
Ġf Ã¶d
Ġmed giva
ĠfÃ¶r elÃ¤g
an terna
sl iv
og ram
Ġvis ste
Ġolyck sfall
ĠmÃ¥ st
Ġg erna
Ġsituation er
ĠvÃ¤rder ingar
Ġmitt en
Ġaf gÃ¶rande
Ġg Ã¤l
Ã¤m par
Ġallt ing
el a
ĠN at
Ġriksb ankens
ĠrÃ¤k nas
Ġfrivill ig
Ġbor det
Ġeffe ktivitet
Ġor dent
Ġle gat
Ġskattes Ã¤nkningar
Ġfor dra
Ġbeslut ar
ĠanmÃ¤rknings vÃ¤rt
ĠB JÃĸR
hÃ¥ll andet
l of
Ġskick a
Ġ10 4
ĠtjÃ¤n ar
6 0
Ġ' '
Ġbefolk nings
del ningar
Ġinstitu tion
ĠVar je
far ts
k are
Ġpro vin
Ġvig tiga
ĠK D
Ġsocial styrelsen
i era
v Ã¤m
Ġinneb Ã¶rd
ĠfÃ¶r bl
---- ----
3 4
ĠansÃ¥g s
ĠfÃ¶rklar ats
led ning
Ġgymnasie skolan
sin t
Ġin strument
sk om
Ġs Ã¤
MAN N
ĠnÃ¤mn er
Ġupptag na
Ġre kommende
ĠplÃ¶ts ligt
Ġkri sten
ĠNord iska
Ġre staur
ĠorÃ¤tt visa
ĠfÃ¶rsvar ets
Ġfakti ska
Ġf re
Ġsan ning
ĠE R
yft et
ĠSt rÃ¤ng
fÃ¶r ordningen
Ġuppre par
ĠvÃ¤r d
ik al
smateri el
Ġpro gnos
om an
Ġman nen
2 00
" .
Ġstats minister
Ġinhem ska
Ġfull a
ĠA L
Ġtill ika
Ġansvar ig
re formen
Ġban an
Ġin stitut
ĠvÃ¤l vill
ĠVÃ¥r t
fÃ¶rs varet
Ġkro pp
Ġtill kommer
ĠG Ã¶
stad gan
ĠberÃ¶r t
Ġfinans departementet
fÃ¶rm Ã¥n
ĠL Ãĸ
Ġhvar igenom
Ġdist rikt
ĠmotionÃ¤r er
. "
ĠbestÃ¤m dt
fÃ¶rm Ã¥ga
Ġupp fÃ¶lj
Ġexp ans
ĠnÃ¥gon stans
t v
Ġatt it
Ġ13 0
Ġskad or
dist rikt
Ġavskaff a
Ġavva kt
ĠbegÃ¤r da
ollegi um
ĠA xel
ĠKan ske
ĠlÃ¤nsstyr elserna
ĠhÃ¥ll ning
Ġkon ser
ĠG r
Ġrekommen da
Ġn edan
Ġerin rar
ĠutgÃ¥ tt
Ġstyck e
p unkterna
Ġmedlem skap
ĠÃĸsters jÃ¶n
Ġupp gÃ¶relse
Ġbr and
ansch en
Ġskjut a
strÃ¶m s
Ġtank ar
ĠL ed
st rafiken
Ġundan r
dag ens
Ġkonsum tion
Ġben Ã¤g
ĠJa c
Ġkontroller a
Ġan lÃ¤ggning
ĠVÃ¤ster bott
Ġmotion s
ĠinvÃ¤n dningar
b anken
Ġbank erna
ĠfÃ¶rbÃ¤tt ras
Ġregel verk
Ġk van
r arnas
Ġsp an
Ġsommar en
pri set
k ul
ĠfÃ¶rdel ningen
Ġskriv elser
ation erna
inspek tionen
Ġkam rarna
bestÃ¤mm elser
Ġfall en
Ġkvinn liga
Ġdepartem ent
Ġmots ats
Ġsam lad
vÃ¥r dens
ju pa
ĠmÃ¥ngf ald
vÃ¤ ckande
hÃ¤n der
Ġerfar enheten
gj orda
arbet arna
Ġcenter partiet
im ension
bef Ã¤l
ss ek
Ġkontroll en
art ade
Ġjobb en
Ġtill handa
ĠkrÃ¤ v
ĠnÃ¥g or
Ġom sÃ¤ttnings
Ġansvar iga
Ġ10 2
Ġunderl Ã¤tt
Ġv Ã¥ll
Ġar k
ĠÃ¶ver ty
ĠarbetsfÃ¶r med
ter ingar
C H
ĠfÃ¶r med
Ġt unn
Ġorsak er
ĠidÃ© er
ĠfÃ¶rm Ã¥
er t
ĠGU STA
Ġfok us
Ġ11 4
Ġvalut a
Ġvin ner
ĠSam ma
Ġin kommit
p ning
sk rÃ¤ck
Ġvi r
ĠfullfÃ¶l ja
Ġsam rÃ¥d
Ġborger lig
ĠfÃ¶rÃ¤n dringen
Ġdire ktiven
Ġm Ã¶tes
Ġkontin u
ĠProblem et
Ġpass ar
I E
Ġyrk e
ĠmotstÃ¥nd are
ĠD u
Ġager ande
ĠBevill nings
le v
Ġ10 9
Ġvar om
ĠÃ¶fver lÃ¤ggningen
skri fter
ĠfrÃ¤m jande
Ġregional politiska
Ġdisp ens
ĠorÃ¤tt vis
ĠK U
ĠhÃ¶g skolor
Ġadministra tiva
Ġext rem
Ġfl exi
Ġamerik anska
ĠR Ã¤tt
Ġmedborg ar
Ġsid or
sin dustrin
Ġdiskrimin ering
Ġsm ula
i us
Ã¤ f
Ã¥ ende
ĠfÃ¶rut om
rar ne
Ġformul ering
Ġ199 2
ĠLind man
pri s
av gift
Ġeffekti vare
G T
am m
ĠhÃ¶st as
ĠMargar eta
ĠvÃ¤l kom
ĠÃ¶fverens stÃ¤mmelse
un de
Ã¶ den
Ġperson ligen
ĠsammantrÃ¤ dde
qu ist
ĠJac ob
ĠnÃ¥gor lunda
ĠfÃ¶rvalt ningen
ĠfÃ¶r tid
Ġarm Ã©n
Ġbek ostnad
Ġop tim
berÃ¤tt ig
Ġob liga
ĠS yd
Ġkonflik ter
Ġ10 8
pen d
ska ss
ĠM P
ĠanvÃ¤n dningen
ĠstrÃ¤ van
ĠU lla
ĠMari a
ĠmÃ¥l sÃ¤ttning
4 5
ĠB Ã¤ck
Ġan lÃ¤ggningar
Ġbarn ens
Ġin verkan
teck ning
Ġdem on
ĠM Ã¥
Ġsu tt
Ġkvinnor s
ri sten
Ġverksamhet somrÃ¥de
al est
Ġlit a
ĠÃ¶nsk at
Ġarbetspl ats
Ġno tera
ĠÃ¶ver gripande
ĠhÃ¶g skole
Ġbered as
Ġsiff ran
Ġtekn isk
Ġreger ingar
ĠUt lÃ¥t
sk Ã¥
am ent
Ġele v
Ġansvar s
fÃ¶rb ud
ĠFrÃ¥n varande
Ġleg iti
ĠBo hman
Ġ yr
Ġinh Ã¤m
sp rÃ¶v
Ġord fÃ¶randen
Ġ11 3
skon fer
ĠParti vis
ĠfÃ¶rhÃ¶j ning
Ġkl ok
Ġkron ans
Ġafgif na
Ġr u
Ġkro na
Ã¶n ster
ĠAl f
ĠHer man
ĠH AN
Ġ18 0
V A
dire ktiv
k ammar
ĠfÃ¶rhopp ningar
nad t
Ġ199 4
E I
em ed
ĠfÃ¶re kommande
Ġvin ster
va ka
Ġutskotts majoritetens
ĠdrÃ¶j smÃ¥l
Ġavs nitt
Ġregl eringen
Ġbeakt a
Ġgrundlag s
ĠN OR
ĠÃ¥r ens
b it
ĠT urk
var o
Ġ7 00
ĠIn nan
b Ã¥
ĠÃ¥ lig
Ġmedelst ora
Ġomfatt as
Ġva ck
Ġinterpellan ten
ĠfÃ¶ret e
ĠR ad
ĠfÃ¶r re
sk am
Ġutform as
2 7
Ġg re
ĠAn ledningen
slag stiftningen
Ġaktu ell
in stitutet
Ġfamilj en
sbe skatt
Ġm ag
ĠV Ã¤g
jo ur
Ġotro ligt
ĠnÃ¤ringsliv ets
Ġop era
Ġuppsk ov
t yr
Ġs till
Ġunder skott
ĠS a
Ġbedriv s
Ġrikt ade
Ġtalar ens
Ġdrag it
ĠfÃ¶rl uster
ĠDag ens
Ġslag it
Ġdok ument
ĠÃ¶ver lÃ¤ggningar
ut na
Ġ11 5
ĠglÃ¶m ma
Ġv ak
beskatt ning
ĠbedÃ¶m ningar
Ġkyrk o
x id
ĠgÃ¥ng na
slag stiftning
Ġpris stegr
Ġbl ock
ĠsÃ¶k ande
Q VIST
Ġvil kas
Ġstuden ter
vet enskap
Ġargum enter
ĠfÃ¶r bruk
an stalt
ĠÃ¥t al
n ivÃ¥n
ĠB ank
Ã¶t as
Ġde p
Ġkommun isterna
Ġin k
ĠfÃ¶rb i
dom stol
ĠanvÃ¤n t
Ġlast bil
is eringen
Ġeffekti vis
ĠgÃ¶r es
in s
del ega
Ġdu g
tag na
ĠutgÃ¥ngsp unkter
av talet
ĠmÃ¥ naden
ĠL UND
kraft en
Ġupp gifterna
ĠhÃ¥ll it
ĠSÃ¥ ledes
ĠlÃ¥g t
Ġsk rÃ¤m
Ġrik a
sb o
Ġkorre kt
Ġ- âĢĶ
ĠÃ¥ter fin
sl and
Ġsolidar itet
Ġval de
ĠpÃ¥bÃ¶r j
Ġ20 21
Ġunder ligt
Ġ200 1
ĠÃ¥tnjut ande
p rÃ¥k
ĠOr det
ĠNIL SSON
al i
Ġdel arna
Ġutredning ens
t rafiken
demokra ter
Ġfil m
lig ande
ĠP a
va kt
Ġlin jer
Ġengel ska
fÃ¶rb und
ĠSÃ¥dan a
st rid
yg ger
Ġsamman lagt
Ġuttryck te
Ġfinansi ella
Ġ19 20
Ã¶r da
Ġsp litt
Ġan klag
f und
u ra
Ġkollektiva vtal
Ġni o
Ġsiff rorna
Ġupprep ade
Ġg uld
ĠlÃ¥ na
ĠFinans ministern
ĠgodkÃ¤n da
ĠfÃ¶r vÃ¤g
Ġsubven tion
Ġ <
lid ne
Ġlag ts
Ġvar efter
Ġar v
gÃ¶r as
Ġot v
Ġ25 0
Ġtid nings
ĠjÃ¤rnvÃ¤g en
Ġbevilj ades
Ġin syn
ĠomÃ¶j lig
Ġide ella
ĠAllmÃ¤n politisk
Ġbefri else
anstal ter
Ġbeakt as
ĠB EN
sb an
sk Ã¥d
bring a
ĠlÃ¤k ar
p ost
Ġspe c
ĠfÃ¶rsvin ner
om eter
Ġ201 0
Ġbl eve
Ġbegrepp et
ĠfarhÃ¥g or
tag et
E F
Ġbet Ã¤n
Ġungdom en
Ġeffek terna
Ġan hÃ¶r
Ġt opp
Ġin dust
ĠS A
bar n
o tta
Ġint rycket
Ġunder ka
van terna
sta tion
Ġem bets
Ġkalk yl
still Ã¤gg
ĠhÃ¥r dare
ĠSy daf
ĠÃ¤g de
Ġn Ã¥r
ot al
Ġkon gl
Ġpra ta
speri oden
Ġtryck frihet
Ġbeskatt nings
kast ning
Ã¶r den
e konom
Ġbeslut s
Ġ Ã¥ng
ĠinfÃ¶r t
Ġelem ent
9 3
ĠlÃ¶ ser
ĠfÃ¶rst Ã¤rka
Ġban a
Ġnorm alt
Ġskar p
Ġskog ar
Ġprote ster
1 00
ĠfÃ¶rbÃ¤tt rad
o bil
b ryt
Ġgrund skolan
Ġfram kall
Ġperman ent
am er
Ġf ingo
ĠP R
gr unden
Ġdec enn
Ġkonstat erade
ĠPalm e
Ġreserver at
ĠmotionÃ¤r ens
Ġmin ns
Ġut drag
sfÃ¶r etag
Ġuppe hÃ¥ll
Ġ11 7
Ġinkom sten
ĠtillgÃ¥ng en
d Ã¥
Ġ201 9
Ġom nÃ¤mn
yck e
Ġform ella
Ġlyss nar
Ġkvar stÃ¥r
ĠfÃ¶rsÃ¶ks verksamhet
Ġsamling spartiet
Ġland sh
Ġstad ga
l er
Ġsak kunskap
Ġytter sta
O lof
Ġhand lade
Ġa re
Ġtill kom
Ġtro vÃ¤r
ĠBEN GT
ĠgenomfÃ¶r t
ĠhÃ¶r ande
Ġdemokrati sk
Ġinf lationen
Ġkam p
Ġdriv it
belopp et
ĠtÃ¤ck a
ĠBer n
ĠbehÃ¶v de
Ġre v
ĠfÃ¶r se
Ġutbildnings ministern
Ġkil ogram
Ġ11 1
ĠangelÃ¤g enheter
Ġhal vÃ¥r
ol yck
Ġriksdags man
ĠfÃ¶rfatt nings
ĠkÃ¤n da
ĠolÃ¤mp ligt
ĠR olf
Ġm i
Ġ194 2
fÃ¶r hÃ¥llandena
ĠU r
Ġsuccess ivt
Ġklar het
ĠvÃ¤n tat
omÃ¥l en
Ġtillvar at
Ġdisp on
Ġs ades
ĠBjÃ¶r k
ĠtillÃ¤ggs stat
ĠB R
ĠÃ¤mn ar
ts on
Ġidrott s
vÃ¤x t
Ġan passa
Ġform en
Ġkr ets
Ġutman ingar
ĠP olis
Ġgr Ã¶
Ġsed lar
ĠifrÃ¥ga sÃ¤tta
ĠHj almar
Ġmar in
verk ning
pen ning
bygg nader
ĠpÃ¥ vis
Ġtillgodos es
Ġom organisation
ĠÃ¤g nat
Ġ18 5
Ġbel ysa
Ġjustitie departementet
Ġres ul
Ġfull fÃ¶lj
Ġ11 6
materi al
ĠÃ¤ndra t
Ġkonkurr era
Ġknapp t
Ġinkomst erna
Ġkonst nÃ¤r
Ġmedgif va
Ġ +
skatt erna
ska tta
Ġ199 7
b la
Ġsm itt
ĠB eslut
slut ning
Ġd iffer
Ġka pacitet
Ġinvand rare
ĠskolÃ¶ver styrelsen
h ar
Ġredog j
ĠlÃ¤mna ts
Ġan kn
Ġperio den
Ġb u
Ġbered ande
ĠKarl skrona
ĠdÃ¤r under
Ġuttryck ligen
sav tal
Ġstats finansi
Ġut gjorde
ĠÃ¥berop ande
Ġin stitutet
mÃ¤n g
ĠF Ã¥r
Ġde central
Ġbred a
Ġinsats erna
in d
al ag
Ġoakt adt
Ġtal ats
an sk
rÃ¤tt er
ĠomrÃ¥de na
en um
Ġlyck ligt
Ġob je
Ġ191 8
ĠI cke
Ġs eminari
ed Ã¶m
Ġ11 2
Ġinne hÃ¥lla
Ġn ett
Ã¤k ter
ĠfÃ¶rne ka
o ga
Ġind irekt
ĠLund gren
Ġskilj aktiga
Ġj Ã¤mn
Ġpension er
st Ã¤der
Ġord nas
Ġkar akter
ĠvÃ¥l ds
Ġmedicin ska
Ã¤ll a
ĠKri stian
Ġgod o
ĠmotionÃ¤r ernas
if ikation
ĠÃ¶k ningen
Ġ194 3
Ġin no
sl istan
mark nad
Ġsjuk fÃ¶rsÃ¤kringen
stra te
ĠAND ERS
Ġvidtag its
un ionen
Ġdom are
ĠlÃ¤n en
eri et
ati ken
Ã¥g an
Ġskilj a
Ġ194 4
ĠsjÃ¶far ts
Ġexpropri ation
Ġdag arna
ĠtillkÃ¤nnag ivande
Ġs mÃ¤r
Ġkontra proposition
Ġefter frÃ¥
ĠfÃ¶ran lett
Ġhvar ken
ĠFÃ¶rsvars makten
l Ã¤st
ĠfÃ¶rs ig
Ġvi ts
u ser
Ġupp handling
ug o
il ton
Ġdiskuter ade
OR G
ĠE ner
ĠH a
stÃ¤mm ande
Ġutskottsbet Ã¤nkandet
Ġm Ã¤ng
ĠanstrÃ¤ng ningar
p rÃ¶
re form
komm issionen
Ġprocess en
ff ek
ĠinfÃ¶r andet
ar nes
Ġtull tax
t rakt
da st
Ġperson lig
ĠRiksdag s
ri tt
ĠM ika
Ġbetydelse fulla
Ġstig it
Ġvin nas
ĠansÃ¶k ningar
Ġbefin na
Ġbort a
ĠCenter n
sk raf
Ġkommun ens
ĠAr ne
f olk
ĠK ARL
Ġna tionellt
Ġang repp
t jÃ¤nst
Ġ11 9
ĠÃ¤rende na
Ġurs Ã¤kt
ĠT o
ĠkÃ¤n de
Ġparlamentar isk
Ġtjenstem Ã¤n
est ad
ĠfÃ¶rord at
ĠÃ¶ver ra
ĠSjÃ¤lv fallet
ĠanvÃ¤n des
Ġobser ver
Ġfy ller
Ġan da
ĠÃ¥r liga
ĠP ar
Ġfast stÃ¤lla
ĠfÃ¶rvÃ¤r vs
ti sti
ĠsjÃ¤l f
st aden
Ġlok alt
p i
ĠUl f
Ġb uss
h al
Ġriks gÃ¤ldskontoret
ĠK n
Ġskogs vÃ¥rds
Ġrepresent ation
er e
ĠprÃ¤ ster
reg ionen
f redsstÃ¤ll
f var
Ġobetyd lig
m on
Ġd anska
Ġrehabil i
Ġhufvudsak ligen
Ġbetrakt ande
slÃ¤g e
it h
Ġre jÃ¤l
Ġkonsti gt
Ġdrabb a
Ġsk oll
AND ER
Ġl a
ĠÃ¶ l
Ġsutt it
Ġ193 8
Ġenskil des
ĠslÃ¤pp a
ĠfÃ¶r kort
Ġnykter het
politi skt
Ġta pp
Ġo fvan
v ets
ĠM AT
Ġindustri er
ĠupptrÃ¤ da
dr ande
Ġpa ssa
jÃ¤n ster
ĠvÃ¤rld skrig
Ġre sten
Ã¤nd amÃ¥l
Ġd rog
Ġantag it
_ _
ra ts
Ġmedicin al
ĠvÃ¥ra s
Ġspar ande
g are
ĠberÃ¶r de
ĠE skil
ĠfÃ¶rÃ¤ndra de
Ġimport en
Ġval rÃ¶relsen
Ġgif vet
Ġdeklar ation
Ġingri pande
9 4
Ġutform ningen
Ġdiskuter ats
ĠV em
Ġarbets uppgifter
ĠRegering skansliet
ĠS ig
le der
ĠÃ¶ver sti
gi vare
ĠframstÃ¤ll de
Ġavs es
Ġt Ã¤
ĠlÃ¥ngsik tig
mÃ¤ ter
Ġtand lÃ¤k
m mer
Ġo und
ĠÃ¶nska de
Ġfram deles
Ġod ling
Ġmin uter
ĠSÃ¤rskil t
Ġbehand lades
Ġin spek
nek ligen
Ġh jel
Ã¶j d
ĠW est
ĠS er
Ġfram stÃ¥r
C O
gl as
ĠÃ¥ber opa
Ġnoggr ann
ĠÃ¶ver dri
Ġfon den
sfÃ¶r ordningen
l Ã¥n
b ord
Ġ12 1
ĠE li
RI C
MANN EN
Ġcentral t
ĠlÃ¤ro verken
an vÃ¤n
Ġc it
Ġut vÃ¤g
or tering
ĠanmÃ¤l t
ĠHam ilton
ss il
Ġupp gif
dio xid
Ġvar igenom
Ġo a
AL MANNEN
verig e
Ġutveck lat
Ġ11 8
Ġtving a
Ġut gift
Ġmo der
Ġsjuk skÃ¶ter
ĠÃ¥ter vÃ¤n
ĠstÃ¤ll da
ĠÃ¤n tligen
ĠBjÃ¶r ck
ĠÃ¥tgÃ¤r den
ĠutgÃ¥ngspunkt en
industri en
Ġbe vÃ¤r
Ġunder d
Ġv att
ĠF al
ĠFÃ¶rs Ã¤kring
Ġfolk skol
Ġant og
Ġobligator isk
Ġlag er
ĠtvÃ¥ng s
Ġkri tiken
Ġbedriv as
Ġproposition ens
ĠDÃ¤r till
Ġfo ssil
Ġdubb elt
e ffe
ĠskÃ¤r pa
k ur
Ġsocialdemokra tiskt
ĠkÃ¶ per
ĠfÃ¶rbered ande
Ġb anken
Ġst Ã¤ng
ĠAn dre
cc in
Ġdyrtids tillÃ¤gg
Ġall mÃ¤nn
Ġd ikt
gra den
Ġos Ã¤kerhet
ĠM Ã¶j
Ġbem Ã¶ta
s edlar
jo bb
Ġ13 5
sk al
ĠArbetsfÃ¶rmed lingen
ĠT ALMANNEN
Ġv Ã¥
kÃ¤n nas
ĠfÃ¶rt yd
Ġgr underna
ĠÃ¶fver lem
ĠG ÃĸR
ĠfÃ¶rdel as
all a
Ġtid ningarna
ĠS R
Ġbet e
ĠTurk iet
ĠrÃ¶st ade
ĠEuro par
produk ter
Ġ199 5
Ġkonsek vent
yndig heter
ĠvÃ¥rd nads
ĠUt redningen
Ġintag na
bet e
sttag are
m yndigheten
in rikt
ĠMika el
ĠIn dustri
Ã¤ker hets
ĠIn d
Ġ199 9
k tion
Ġspeci ell
Ġs ik
Ġtog s
Ġ191 4
Ġva cker
ĠDÃ¤r efter
ĠÃ¥tnjut a
kostna derna
Ġtill del
ĠfÃ¶rklar ar
ss s
ĠfÃ¶r du
ĠBÃ¥ de
ĠÃ¶ver klag
Ġeventu ell
ĠÃħt gÃ¤r
ĠÃħ ke
Ġbarn bidrag
Ġ yng
styr ka
st rafik
ĠkÃ¤rn krafts
ri per
ĠfÃ¶r var
Ġfolk hÃ¤l
Ġofant ligt
Ġa pp
Ġbrotts ligheten
Ġk re
Ġkur s
Ġutnytt j
ĠM AG
Ġmar ken
ĠjÃ¤m likt
Ġaktu ellt
ĠintrÃ¤ff ar
ĠpÃ¥ fÃ¶lj
Ã¶k ningar
Ġfri herre
sm Ã¶j
ĠÃ¥ ka
Ġalls i
Ġg repp
ĠlÃ¶ pande
ta belt
Ġ199 3
k rig
punkt en
ĠfÃ¶rbin delser
ĠanfÃ¶r des
Ã¶ fver
Ġan ta
sparti erna
far t
ĠvÃ¤ck ts
Ġex pl
Ġl itt
Ġo klar
ĠstÃ¤llning stag
ĠutlÃ¤nd sk
ĠÃ¥stadkomm as
ĠutfÃ¤r da
Ġhem met
ĠfÃ¶rlor a
Ġack lam
h ammar
st erna
Ġ201 8
ĠSven sk
ĠberÃ¤k nade
Ġo nekligen
Ġacklam ation
7 0
ĠA M
Ã¥ det
Ġg la
ĠStats minister
an stÃ¤llda
ĠM Ã¤nn
ĠB ak
3 3
bygg naden
Ġparlamentar iska
Ġskill nader
Ġvill ig
Ġoffent ligt
ĠfÃ¶rsvin na
ĠkÃ¶r a
Ġ200 2
Ġintegr itet
Ġut Ã¶v
ĠlÃ¶ntag ar
Ġste get
Ġbefog enhet
ĠAn talet
Ġeffe kten
Ġutrikes minister
ĠsjÃ¤l fva
Ġtol v
Ġav delning
Ġsak ens
Ġgem enskap
Ġotill fredsstÃ¤ll
ĠSkÃ¤l et
Ġtr ans
Ġar vo
Ġ16 0
Ġambi tion
Ġ12 2
Ã© ns
Ġby rÃ¥
ot h
ust r
or e
Ġdel tar
Ġforsk are
Ġsamman sÃ¤ttning
ĠÃ¥lder s
Ġrikt ar
Ġvetenskap liga
ĠfÃ¶r farande
Ġelekt ri
Ġtill er
Ġbered ning
Ġbo stÃ¤ll
ĠP ERSSON
Ġytt re
ĠintrÃ¤ff ade
Ġjem te
komm et
Ġutbygg naden
spl atser
Ġbill igt
9 6
ĠÃ¶ver lÃ¤ggning
ĠuppnÃ¥ tt
Ġbered nings
ck en
Ġbibe hÃ¥llas
ĠavsÃ¥g e
Ġ........ ....
Ġbarnomsorg en
u ella
ĠfÃ¶rb ig
Ġpar all
ĠK om
Ġjurid iska
c ar
ĠVÃ¤rm land
9 5
sta ka
Ġm esta
Ġst Ã¥l
Ġst ation
Ġminska d
Ġst rÃ¶m
Ġ w
Ã¤ sa
Ġunderd Ã¥n
Ġsan ningen
olog iskt
Ġpati enter
or s
ĠK er
nings an
Ġinterpellation s
Ġjo ur
Ġ193 0
pri serna
ĠÃ¶ver grepp
Ġbit rÃ¤d
d isk
Ġs org
ĠnÃ¤r ingar
ĠV in
Ġstatisti ken
Ġupp b
Ġ12 4
red ning
ĠfÃ¶rsik tig
B eslut
Ġautom obil
Ġs orts
ĠA N
Ġuppf ost
ut slÃ¤pp
o ts
red it
Ġkvinn o
Ġan d
Ġvar dag
Ġ12 3
Ġkyrk om
fon derna
Ġm Ã¤rka
rÃ¤tts liga
ĠÃ¥ tt
Ġ13 8
Ġhuru som
rÃ¶ n
ĠanstÃ¤ll nings
Ġrapport en
Ġsk Ã¶n
ĠâĢĶ -
Ã¤mn ande
Ġlandsbyg dens
Ġbygg andet
ĠB org
ĠbrÃ¤n sl
Ġasyl sÃ¶kande
ĠJÃ¶n sson
ens er
Ġsvar t
ĠlÃ¤ng den
Ġm Ã¶te
ĠBar n
ĠjÃ¤m fÃ¶ra
Ġbidrag s
de klar
ol ket
od ling
Ġbe gÃ¥tt
Ġ19 19
Ġar vs
Ġp ast
Ġhvar andra
hÃ¥ll nings
ĠfÃ¶rtid spension
O K
sb ek
Ġreg ionen
Ã¶t ande
uro pa
Ġfok user
Ġen igt
Ġinneb Ã¶rden
ĠfÃ¶r dr
ĠS eder
Ġing repp
Ã¶r s
is erings
ĠS van
sl ivet
ĠlÃ¶ fte
Ġtra kter
ĠnÃ¤mn ts
Ġd imension
els ing
Ġom tal
ag nar
ĠH Ã¶
Ġbes itt
Ġerin ran
te Ã¥
ĠÃ¥ dag
ission ens
Ġhe ktar
olu tion
Ġbes vik
Ġvis et
Ġalterna tiva
9 1
Ġf yr
Ġkri tiska
Ġmis stÃ¤n
Ġpot ati
Ġut se
spoliti sk
rÃ¤n ga
ĠhÃ¤n de
ĠEuro pas
Ġlid ande
Ġbesvar as
ĠtillvÃ¤x ten
. :
Ġin stans
Ã¶k ande
Ġanslag s
ĠlÃ¤r arna
Ġ12 8
ĠSydaf rika
por tera
Ġ199 8
Ġuppfy lla
Ġsyss la
Ġhal vt
st v
Ġsocial fÃ¶rsÃ¤krings
ĠrÃ¶r elsen
ĠPre cis
is erat
Ġo o
Ġkol dioxid
Ġsekret ess
Ġ12 7
at in
Ã¤nn ens
Ġredovis ade
Ġregl era
Ã¤ sk
ĠbegrÃ¤ns as
o par
v its
ĠFin ns
Ġut sk
Ġav gifts
ĠvÃ¤lkom nar
Ġaf ser
Ġsympa ti
Ġsk Ã¶ts
ska d
Ġinforma tions
Ġh as
sm Ã¤nnen
el in
Ġol ja
yrk an
ĠPro positioner
Ġgif vit
Ġom prÃ¶vning
i tion
Ġnatur lig
Ġing Ã¥ng
h el
Ġham na
Ġsv aga
Ġka sta
fri tt
ist ens
Ġkam rarnas
Ġny an
ĠgodkÃ¤n t
ĠC la
h r
Ã¤r o
Ġan tar
kt oritet
ĠW enner
Ġli der
Ġsam vet
sfÃ¶r en
Ġt vÃ¤r
Ġen staka
ĠavvÃ¤g ning
ĠHur u
ok aler
ĠfÃ¶redragning slistan
Ġt emp
h undra
Ġfar t
Ġdiffer enti
Ġpriori tera
Ġra kt
ĠÃ¥s igter
Ġinled ningsvis
ĠFl era
kti ga
ĠLi ber
Ġlyck ades
Ġerforder lig
Ġly ft
ĠfÃ¶r da
ĠÃĸv riga
ĠomrÃ¶st ningens
Ġbil aga
ĠanmÃ¤l a
Ġd ram
far andet
v ic
Ġankn yt
g han
vÃ¤r den
ra v
Ġdemokrati skt
ĠfÃ¶ren k
Ġmyndig hets
br anschen
Ġinvester ingarna
ĠAn ser
Ġbe visa
b ell
Ġlandsbyg d
ĠEn dast
3 6
Ġungdom arna
Ġdepartements chef
Ġhan t
ĠfÃ¶r skolan
Ġdom s
Ġtu rist
Ġ193 7
med vet
Ġstad ium
ĠB IR
Ġa spek
ĠM att
Ġr Ã¶d
Ġarbetskraft en
ĠmissfÃ¶r hÃ¥llanden
utred ningens
ĠM itt
ĠLAR SSON
ett e
ĠberÃ¶r s
verk at
Ġreson era
ĠÃ¶verenskomm elser
Ġavskaff ande
Ġansl uter
ĠotillfredsstÃ¤ll ande
del serna
Ġrim ligen
Ġom hÃ¤nder
ĠDe batt
Ġsam la
for skning
ĠsÃ¶k te
Ġl ock
Ġovan ligt
Ã¤l s
Ġvack ra
Ġtill se
ningar ne
Ġantag er
Ġkonstat erat
ĠjÃ¤mstÃ¤lld hets
ĠfÃ¶rorda de
rr rr
ĠutslÃ¤pp en
ĠU ti
ĠfÃ¶refin nes
Ġstraff lagen
nÃ¤mn dens
ska dor
Ġ12 6
Ã¥r s
ĠfÃ¶rt jen
Ġut jÃ¤mning
ĠkrÃ¤ vt
Ġb rett
ske det
ĠH elsing
ĠfÃ¶retrÃ¤ der
ka ssan
ĠK AR
bu det
ĠM Ã¶
ĠSocial styrelsen
Ġskyl diga
U L
Ġfram steg
ĠG od
Ġkomplett ering
lÃ¤g s
ĠfÃ¶r nÃ¤m
ĠKn ut
Ġly der
ĠI bland
Ġin verka
ĠdrÃ¶j a
Ġna tion
Ġa pote
Ġlandsting et
sk ul
ĠS ve
ĠMAR G
Ġhyresg Ã¤st
ĠHAN S
ĠfÃ¶rut satt
Ġtvung en
Ġom bud
b Ã¤nken
Ġ12 9
Ġ199 6
Ġbibe hÃ¥llande
med lem
Ġnorr lÃ¤ndska
Ġarbet stiden
Ġutarbet a
pl om
Ġkolle ktiv
Ġbit rÃ¤
Ġanst alt
ik at
ĠfÃ¶r plikt
ĠanstÃ¤ll d
ĠOs car
per son
ĠutgÃ¥ng en
Ġb on
Ġdrabb ats
Ġ.... ..
Ġb ot
Ġuppn Ã¥s
Ġau ktoritet
ĠfÃ¶retag ande
ĠfÃ¶r fÃ¤r
ĠFinans minister
dag ar
Ġnoggr ant
Ġde rest
Ġansl utit
Ġtillgod og
Ġ194 1
Ġsam fÃ¶r
Ġled are
ĠÃ¶vervÃ¤g anden
Ġo v
sb rott
Ġskatt ek
ĠRes ultat
und na
Ġutskott en
Ġdig it
ĠSk ara
Ġbeakt ande
Ġk Ã¤ns
inkom ster
Ã¥l unda
ĠIn terna
Ġupp bÃ¶r
Ġbord lÃ¤ggning
Ġanpass ning
Ġprom emori
Ġ14 5
Ġdebatt era
ĠpÃ¥ gÃ¥tt
Ġtill skott
Ġsum mor
ĠPa ul
Ã¶d ande
Ġform ellt
ĠnÃ¶j da
Ġut gÃ¥ende
splan er
ĠÃ¥r tion
Ġuppl ysa
Ġut fÃ¶rs
Ġ% .
skap s
Ġs tiga
Ġk land
ĠNorr kÃ¶ping
ĠfÃ¶rt ryck
stÃ¤m mer
Ġrelig iÃ¶sa
Ġkl ock
l ys
an ne
Ġ192 8
be handling
ĠlÃ¤mp ligen
Ġt ings
ĠAllians en
Ġde re
5 5
fÃ¶rs vars
ĠberÃ¤tt a
f vare
et nam
ĠstÃ¥ndpunkt en
Ġindrag ning
Ġin dex
Ġbransch en
Ġslut liga
Ġer sÃ¤ttningen
ĠHerman sson
Ġanvis ningar
Ġv all
um p
ari er
st ud
Ġprincip erna
fÃ¶rb in
ĠB ara
an a
ser sÃ¤ttning
Ġriktlin jerna
Ã¶v ning
Ġkom itÃ©
Ġprotokoll en
Ġre ktor
Ġfri handel
Ġve tt
ĠmÃ¤rk vÃ¤r
Ġinnefatt as
an na
ss el
Ġer hÃ¥ller
c it
Ġredovis ar
Ġ13 3
driv ande
Ġuppfatt ar
ĠhÃ¶ger ns
ĠBen g
ald irekt
er al
ĠReser vanterna
Ġring aste
a ff
ĠanvÃ¤n dande
Ġres p
uk tion
ĠLag fÃ¶rslag
Ġsamman satta
Ġg at
Ġindivi der
Ġvi k
Ġ13 2
ĠJustiti emin
rar nes
Ġensam stÃ¥ende
ste kn
sb alken
ĠJ anuari
Ġarbetsmarknaden s
ĠAT P
4 6
Ġfinansier ingen
par lam
ĠkÃ¶ ns
ĠT a
Ġlag a
ĠaffÃ¤r er
f s
bar het
ĠanvÃ¤n de
Ġstu dent
g ent
ĠNorr lands
Ġkommunal t
Ġhand lat
Ã¶ver enskomm
Ġb a
ĠL a
Ġtolk as
Ġin land
Ġden nes
9 8
Ġled de
al terna
ĠsjÃ¶far t
t liga
h olk
ĠmissfÃ¶r stÃ¥nd
Ġstri ds
Ġti sdagen
is tiskt
ĠpÃ¥verk as
ĠK ina
Ġut vis
Ġo full
Ġ13 1
Ġavs edd
ĠST EN
ju ka
ĠJ ON
ĠfÃ¶rlor at
Ġr yck
Ġkonsum tionen
Ġl opp
E ST
Ġbevilj ade
ĠfÃ¶rvÃ¤n ta
ĠP ost
Ġuts ikt
in rÃ¤tt
Ġnytt igt
Ġutrikes politik
nings och
ĠpÃ¥stÃ¥ endet
OL L
ĠW in
Ġli ter
ĠTh omas
ombuds man
4 7
ĠUn g
Ġoff er
sut redningen
v Ã¥
Ġspri da
in spekt
rÃ¶ na
ĠR U
ist or
ĠM ycket
ĠÃĸ res
Ġly fter
Ġtim me
g Ã¶t
Ġut rustning
ĠB ef
ograf iska
Ġavse vÃ¤rd
le ver
ĠfÃ¶rviss o
Ġmots Ã¤tta
Ġtid ningen
Ã¶ pen
va p
ĠfÃ¶rhandling s
Ġexport en
Ġbill iga
Ġall i
Ġn ivÃ¥n
ĠÃ¶k ande
ĠvÃ¤r sta
sta tioner
Ġcent rum
ade t
ĠfÃ¤r diga
Ġmeddel as
reg eln
ĠV Ã¥ra
ĠhÃ¤r pÃ¥
ĠÃ¤ldreomsorg en
Ġm Ã¤t
Ġval en
ati va
Ġanstal ter
L ING
ĠfÃ¶rlor ar
Ġproc ents
Ġvid strÃ¤ck
skra fter
om o
Ġantag ligen
Ġspar samhet
r er
Ġarbet ande
Ġsum man
j un
Ġin kall
ssek reter
Ġdere fter
for sk
ka pit
Ġhand lande
Ġnega tiv
od de
Ġsp rÃ¥ket
kl und
Ġant ogs
sb udget
Ġom lÃ¤ggning
sb y
ĠR E
ĠnÃ¤mn d
Ġprodu kt
sprocess en
Ġarbetsk rafts
Ġfinans ministerns
ga vs
Ġber Ã¶m
Ġ13 6
ile gi
ĠP ol
Ġfi x
ĠLind blad
Ġdist ribu
Ġbeskriv ning
Ġhem stÃ¤lt
komm ittÃ©n
ĠÃ¶ver s
ĠB ostad
hÃ¤ng ande
Ġat om
Ġstatsmak ternas
is eras
Ġfram kom
ĠfÃ¶rl Ã¤nga
Ġarti ller
ĠFram fÃ¶r
Ġprincipi ell
Ġupp komma
ĠfolkomrÃ¶st ning
hu sen
Ġmisst ro
Ġreak tion
s vis
Ġfall it
hl in
ĠMÃ¶ ller
st ar
ĠfÃ¶r de
ĠL ades
Ġskyn dsam
ĠSocialdemokraterna s
Ġ ...
Ġmiss upp
jem te
AR T
sk l
ĠÃ¶fver tygelse
ĠrÃ¶st rÃ¤tten
Ġd ryck
ti ma
Ġobe hag
Ġstorle ks
ĠAn nars
ĠJ Ã¤mt
verk ningar
Ġeuro pe
ĠGustav sson
Ġ192 5
an dade
Ġv Ã¤nner
ĠS Ã¥lunda
ĠI var
ĠfÃ¶r fl
Ġerbju der
ĠfÃ¶rst Ã¶r
Ġkrist demokrater
Ġplats en
Ġprofess ur
ss idan
ĠgenomfÃ¶r ts
p o
ĠfÃ¶rord ar
ĠfÃ¶rber edel
Ġf ak
Ġframti ds
Ġav b
kon troll
Ġhvar pÃ¥
ĠinvÃ¤n da
ĠH OLM
sprogram met
Ġimp orter
es e
Ġfunktions hin
ti ver
Ġoro lig
sav gift
Ġju l
Ġbetydelse full
Ġ era
ti der
Ġuppm unt
Ġsyn d
Ġbl yg
ĠofÃ¶rÃ¤ndra d
K AB
Ġav styrkt
ĠfÃ¶rsÃ¤m ring
Ġmots atsen
Ġpropag anda
Ġuttal andet
v iv
ĠÃĦn dÃ¥
Ġplan erade
9 2
ol ym
Ġdat a
D en
Ã¤g ge
upp drag
ĠallmÃ¤nhet ens
kr eter
ĠsjÃ¶far ten
Ġkontinu er
ĠJ AN
ĠhÃ¶g konjunktur
Ġsannol ik
Ġ13 4
ar m
ĠvÃ¤sent ligen
del s
Ġjustitiemin ister
Ġbostadsbygg andet
Ġarbetsgivar na
sam heten
lÃ¤st es
or at
Ġo villkor
Ġgamm alt
ist ori
Ġen samma
m Ã¤g
Ġtal an
Ġutred as
ĠhÃ¥ll bart
op ul
Ġsak na
ĠpÃ¥pek ar
be grÃ¤ns
Ġrad ik
9 7
Ġm on
âĢĿ ,
dera de
ter ings
Ġmeddel ande
ransp orter
Ġut gif
ĠR ing
ĠlÃ¥ng tids
skyl diga
Ġskogs bruket
Ġk orr
eg en
Ġbank er
in stitu
Ã¤tt e
Ġantag es
ĠUpp lÃ¤stes
Ġproposition erna
Ġk rÃ¥ng
ĠSte f
Ġflyg plats
Ġdi plom
Ġkur ser
st Ã¤derna
av gifterna
invester ingar
ĠtillÃ¥ tit
Ġmilj Ã¶m
Ġutbil da
fon der
hÃ¥ll ningen
Ġkl yft
Ġfinans utskottet
Ġdri ften
Ġbolag ets
Ġj orde
Ġlug n
ĠlÃ¶ ften
le konom
Ġunivers iteten
gÃ¶r omÃ¥len
i as
if va
ĠRyd Ã©n
ĠomfÃ¶rmÃ¤l da
led am
vil kor
Ġfin ska
sk r
g it
Ġfrivill igt
Ġkapit alis
Ġtung t
Ġo k
Ġd ras
Ġsamman hÃ¤n
ĠÃ¶ver blick
ĠRos en
Ġtenden s
Ġbe var
ĠfÃ¥ tal
sbe hov
Ġsk Ã¶ter
Ġfor dringar
Ġstra x
Ġolyck or
Ġint rÃ¤
ĠK R
ĠB i
Ġflott ans
ĠhÃ¶j er
si dan
Ġlo ts
Ġlyss nat
Ġsik te
ĠVil ken
ĠmÃ¥ng en
am ma
Ġse kreter
betal ning
Ġpro gress
liga st
ĠfÃ¶rm o
ĠvÃ¤rnplik t
ĠSjÃ¤lv klart
Ġan hÃ¤ng
ĠSvar et
Ġ14 3
Ġorsak erna
ransp ort
ĠÃ¶ st
Ġambi tioner
n n
ĠV Ã¤
giv ningen
ĠvÃ¤ck te
Ġkil ometer
f il
Ġnega tivt
Ġangivit s
Ġarbetsl iv
Ġry ska
Ġp likt
ĠupphÃ¤v ande
Ġk al
Ġbring a
pro tokoll
Ġsignal er
Ġupp rustning
eli min
Ġstrate g
T T
Ġstimul ans
ĠII I
Ġunder struk
ra kti
SA B
Ġanord nande
ĠE EC
ĠberÃ¤tt else
Ġk as
ĠdÃ¤r hÃ¤n
ĠfÃ¶rlÃ¤ng ning
Ġfram stÃ¥ende
Ġutnytt jande
grupp erna
Ġpl us
ati sk
ĠbedÃ¶m ande
Ġaccep terar
ĠY tter
Ġvid kommande
Ġledamot en
Ġsam lat
ĠsamhÃ¤ll en
ĠfÃ¶rutsÃ¤tt ningen
Ġ14 7
ny ta
ĠHam rin
ĠJacob sson
Ġo lag
Ġtill tal
ĠfÃ¶rs en
ĠframstÃ¤ll as
ĠF el
ĠfÃ¶rtjÃ¤n ar
ĠÃħtgÃ¤r der
t ande
Ġst rand
Ġordent lig
f ordon
Ġsock en
ĠBIR G
ĠEli asson
Ġsamarbet a
ĠpÃ¥sk yn
ĠT r
Ã¤l je
ik omm
ĠsÃ¤n kta
ut en
Ġva ccin
of og
Ġhistori en
i ch
Ġstat skassan
Ġsyn en
v atten
ĠfÃ¶retag a
âĢ ĵ
Ġfel aktiga
ĠfÃ¶rbju da
Ġar ran
Ġtekn iskt
ĠSÃ¶der t
Ġl ic
sl ing
ĠfÃ¶refin nas
Ġsag da
Ġang e
Ġ14 1
ĠvÃ¤lj arna
Ġt usentals
ĠinrÃ¤tt as
fÃ¶ren ing
Ġinskr Ã¤nkningar
Ġursprung liga
Ġre p
ĠallmÃ¤nn ytt
ĠSk Ã¶ld
Ġplan en
Ġcit at
ÃĦ R
ut bil
Ġmom entet
Ġt Ã¥l
Ġrubrik en
Ġv ed
Ġvar an
sper sonal
Ġtju g
stÃ¤ll et
Ġreson emanget
ostna der
ĠKer stin
Ġexper ter
Ġt est
ĠA mer
et ill
n iska
f tig
ob ak
p el
. >
Ġyng re
ĠtrÃ¤ff at
ĠK var
ĠingÃ¥ tt
Ġuppfatt as
Ġbetal nings
Ġprogram met
ĠbrÃ¤nn vin
Ġvar vid
Ġ200 8
va tioner
Ġavvakt an
ĠLund berg
Ġmyndighet ernas
l Ã¤ng
hÃ¤n seende
ĠstÃ¤ll ts
vÃ¤r v
Ġlikal edes
Ġk Ã¶n
ĠfackfÃ¶ren ings
Ġn Ã¤t
fÃ¶rmÃ¥n er
Ġgar anter
ĠE M
Ġkonsum enter
Ġarbetsgivar en
ĠÃĸsters und
Ġsk en
Ġupps Ã¤g
Ġexp edi
Ġgener aldirekt
ĠanmÃ¤l des
Ġnu mmer
Ġbet alt
st y
Ġnatur vÃ¥rds
rygg het
Ġstats medel
ĠL ei
N A
pro cen
Ġrehabili tering
Ġstatsfinansi ella
iv e
Ġte ater
Ġefter le
Ġinvester a
ĠÃ¥tt onde
Ġspan mÃ¥l
n andet
ĠlÃ¤ t
Ġutl Ã¥
pro cess
MAR K
ĠT I
ĠhÃ¶j t
Ġjo b
EC D
Ġdel as
ĠÃ¤g ar
ĠÃ¶ de
Ġkommunal skatt
Ġflytt ar
Ġbostad sb
ĠfÃ¶rvÃ¥ ning
OT OK
ĠB ill
ĠR Ã¶
ĠO la
Ġfar liga
Ġfisk er
Ġmotion ens
sten sson
ĠR a
OTOK OLL
Ġavtal s
Ġby ta
Ġs al
5 6
Ġparti led
ut s
Ġbl ivande
ĠlÃ¥ng var
els ernas
Ġgif t
ĠgenomfÃ¶r des
Ġinrikt ningen
Ġbidrag et
Ġsn ed
ĠnÃ¶ digt
ss ituation
ur g
ĠO ECD
res urser
st ri
Ġ200 7
ĠbestÃ¤mm as
ĠutfÃ¶r as
ven ne
Ġsk y
ĠjÃ¤tt e
Ã¤nn ande
akti e
Ġdebatt erar
Ġsyss lar
Ġsk Ã¶tt
ĠfÃ¶rbin delse
klass en
Ġfram lagts
Ġpsyk iat
ha ft
SD AG
ĠvÃ¤rde full
ĠtrÃ¤d gÃ¥rds
Ġstats verkets
so ff
Ġinnefatt ades
vÃ¤r dt
Ġdist rik
Ġse g
akti v
ĠO lle
ĠfÃ¶re f
ĠGustaf son
ĠVatten fall
al den
ĠredogÃ¶r a
Ã¥r d
Ġupp fÃ¶ras
Ġre der
ĠfÃ¶rdel a
Ġindustri ella
ĠfÃ¶r Ã¤d
lÃ¤gg ningarna
ĠhÃ¤nvis ats
k raf
spro jekt
ĠAmer ika
SDAG ENS
ĠlÃ¤nder s
Ġk oll
bolag en
st opp
Ġfakt or
Ġbet on
Ġorik tigt
k es
Ġ13 7
Ġrisk erna
Ġskyd det
Ġbevilj ande
ĠPehr sson
ĠH andel
ĠbehÃ¶ vt
sam ling
4 4
ĠPR OTOKOLL
2 8
sp res
Ġoro ande
Ġbetal ning
Ġspec if
Ġplan eringen
ĠSVEN SSON
alest in
Ġn oll
Ġrel ation
Ġuttryck er
Ġam b
i der
Ġ13 9
unds vall
Ġkan sl
ĠW ig
Ġpolis ens
ĠB lek
Ã¤mp ning
Ġned lÃ¤ggning
fÃ¶rbÃ¤tt ring
Ġreal iteten
Ġvar till
and ar
Ġhistor iska
ĠfÃ¶rsam lingen
e ligen
Ġutrikes politiska
Ġr ull
ĠhÃ¤r utinnan
Ġtull sats
arbetslÃ¶s heten
b as
bet Ã¤nkande
F P
slag ens
Ġinkom na
Ġavst yrk
fÃ¶rb undets
Ġsatt e
Ġkapital et
n Ã¤tet
Ġpati ent
Ġut del
Ġupptag as
Ġtales man
Ġandra s
ĠfÃ¶rut s
ans vÃ¤rt
Ġli da
ĠP Ã¤r
ĠberÃ¤k na
Ġhy ra
mar na
ĠfÃ¶rsÃ¤lj ningen
ĠnÃ¤r heten
ĠfÃ¶rbÃ¤ttra de
st ull
Ġlig gande
Ġ X
sta x
Ġav fall
Ġres oner
ĠÃ¤g nar
Ġliber ala
Ġallians regeringen
Ġaf sl
ĠÃ¶ver allt
ĠvÃ¤g nar
Ġmaskin er
ĠgrÃ¶ na
Ġlag tex
ĠSovjet unionen
ĠANN A
Ġmig rations
ĠuppmÃ¤rksam m
Ġha v
Ġalterna tivet
Ġskatter e
ĠW ach
arbet ande
Ġhand lÃ¤ggningen
ĠgenomfÃ¶r andet
Ġatt ra
Ġres e
Ġbefar a
Ġt venne
Ġav delningen
ic a
Ġkyrk ans
it ation
ĠÃ¶gon en
s ul
st ock
ĠuppehÃ¥ll stillstÃ¥nd
od lingen
ĠmÃ¤nnisk an
els es
pp er
Ġunderstry ker
ti tu
Ġav sÃ¤ttning
me ister
Ġm eter
Ġhvil kas
ĠSeder mera
Ġhandels ministern
Ġ14 4
ĠE F
ĠVÃ¤nster partiets
er sÃ¤ttning
intress e
m ens
Ġb Ã¤gge
Ġkrist na
st andard
U N
Ġ !
bet eck
ĠÃ¤n dringen
Ġkulture lla
Ġkon cess
Ġanvis ade
ĠfÃ¶rvÃ¥n ar
ĠBank o
Ġu m
b rit
ĠÃ¥ter in
skriv na
ĠspÃ¶rsmÃ¥l et
ĠtillÃ¥t as
Ġrig tigt
ĠdÃ¤r af
Ġske pp
Ġmedlem sstat
ĠsamhÃ¤llsekonom iska
se ktorn
ĠÃ¤mbets verk
Ġord nings
Ġ14 6
ĠfÃ¶rsik tighet
Ġskattef ri
Ġen e
hÃ¥ll en
ĠWach t
sban an
erat ur
and id
Ġpost verket
Ġser i
Ġriksdags gÃ¶romÃ¥len
Ġom vÃ¤rlden
Ġresultat en
Ġupph ov
Ġarbetstag are
r ens
ĠlÃ¥g konjunktur
Ġmass med
v ok
Ġbef o
ĠnÃ¶ diga
Ġt rÃ¥k
sl Ã¤k
Ġled des
Ġbry ter
Ġskyldig heter
ĠS yftet
Ġprojekt et
Ġ200 9
ĠbegrÃ¤ns at
ĠBir ger
Ġ14 2
ĠUtskotts majoriteten
ĠÃĸ fver
skommittÃ© ns
Ġass ist
Ġfolk skolan
ĠanmÃ¤r ka
Ã¥r ets
ĠhÃ¤n se
ĠlÃ¤r t
ĠWacht meister
ĠmÃ¥l sÃ¤ttningen
Ġs r
ĠpÃ¥ f
b ol
se ss
Ġn yck
ĠN ation
Ġposi tion
ag da
kÃ¤n na
Ġskyn dsamt
vis ion
be h
Ġhuv u
Ġhuvudtit el
Ġf al
Ġbygg s
ĠResultat et
ĠhÃ¤r igenom
ĠvÃ¤rde fulla
Ġf Ã¶ll
ĠB ro
Ġpriv ilegi
Ġant ytt
Ġenor ma
Ã¶k ningen
ĠDe partem
Ġhel g
ĠjemfÃ¶r else
Ġgenom gripande
b rÃ¤n
Ġsp Ã¤n
ĠM ellan
ĠanfÃ¶r as
ĠtrÃ¤ff ar
ĠH var
ĠF rid
ĠÃ¶verenskomm elsen
ĠanfÃ¶r anden
ĠPro position
ĠAv lÃ¶
Ġang es
ĠsÃ¤ker heten
ĠfÃ¶r k
es en
ott er
t el
ĠLin der
ĠprÃ¤ st
Ġreg eln
Ġhvad an
Ġgrund ar
Ġute bl
Ġh Ã¤kt
ĠnÃ¶dvÃ¤n dighet
Ġandel en
Ġfor drar
ĠEric son
OM AS
val ver
ĠstÃ¥ ende
Ġoa ccep
Ġi s
ans ar
ef teÃ¥
Ġglob ala
Ġavveck la
ĠS undsvall
Ġfr anska
Ġkommun istiska
mÃ¤ss iga
gÃ¤l ds
Ġensi digt
Ã¶ ner
k opp
Ġbeteck nade
ĠsÃ¥ l
Ġupp gick
Ġflick or
ĠGÃĸR AN
ĠBr ant
rin k
Ġab ort
Ġbest rid
Ġproduc era
Ġhumanit Ã¤ra
in sats
Ġbarn ets
ĠfÃ¶rverk lig
ĠbehÃ¶r ighet
Ġny het
Ġint rÃ¤de
skoll Ã¤r
ĠhÃ¶j ningen
5 3
verk ningen
Ġtolk ar
Ġor ten
dra d
sÃ¤tt are
Ġdag hem
ĠfÃ¶lj as
RIK SDAGENS
ĠbedÃ¶m as
Ġsj Ã¶n
ĠHolm berg
Ġsak liga
ĠhÃ¤nse enden
Ġkvin nan
Ġskul ds
ĠupplÃ¥t else
Ġvist as
ĠinfÃ¶rs el
Ġter min
pan j
g est
Ġvil ande
arbet s
ĠC H
Ġkommentar er
Ġspar bank
Ġbrist fÃ¤ll
ĠuppfÃ¶lj ning
Ġp ande
d d
Ġrikt at
Ġr Ã¥g
Ġperson en
Ġber g
ĠallmÃ¤n nas
fÃ¶ren ingar
Ġspar andet
ĠlÃ¶ntag are
ĠtillkÃ¤nnag av
Ġfys iska
v anden
Ġch ansen
Ġpr elimin
ĠfÃ¶reslag en
n Ã¤t
0 2
ĠJ Ã¤rn
ĠfÃ¶rs Ã¶rja
brit ann
Ġdyr t
hÃ¶r ande
fÃ¶l jande
ro p
ut et
ĠfÃ¶rsÃ¶rj nings
ĠbesvÃ¤r ligt
Ġi tu
Ġt obak
Ġbe bygg
Ġdrabb ade
Ġopin ionen
Ġtill fÃ¶rsÃ¤k
Ġ15 5
Ġdomstol arna
ĠM Ã¥l
um ma
l ander
sper spektiv
Ġhin ner
ĠPET ER
t anke
Ġut sik
Ġmar gar
ĠlÃ¤rar in
ĠfÃ¶rsv ag
nings fÃ¶rslag
ĠfÃ¶lj der
ĠHjalmar son
ĠE w
Ġbeslut ande
Ġpresenter a
Ġstig ande
ott ag
Ġk orts
yn ner
ĠframstÃ¤ll ningen
ĠrÃ¤k nade
Ġjordbruks departementet
ĠC ar
ĠkÃ¤n d
Ġrik sm
Ġinne hÃ¶ll
ĠStor britann
ĠL ENN
ĠlÃ¥ngt gÃ¥ende
ĠVÃ¤ster Ã¥s
Ġk g
Ġer sÃ¤ttas
Ġ14 8
Ġtre v
Ġfog at
Ġarbetspl atser
9 9
Ġko opera
ĠFÃ¶r etag
Ġklass en
u f
ha vare
Ġv Ã¶r
ikation s
Ġskatte ut
Ġanknyt ning
ĠmissnÃ¶j e
Ġnatur en
ĠBerg strÃ¶m
k ri
Ġb om
ĠrÃ¤ttss Ã¤kerhet
ĠsamfÃ¶r stÃ¥nd
Ġjob bet
Ġkomplett era
Ġint en
far a
Ġtro ligen
Ġins ikt
Ġf ost
op lan
Ġann on
ĠB ER
skri ft
Ġutrikes utskottet
Ġbeskri ver
pri ser
ĠArbet et
ĠLei jon
Ġti on
Ġbransch er
ĠÃĦn dring
Ġex istens
jel m
Ġfinansier as
ĠÃ¥tag anden
dom stolen
Ġreg em
Ġfolk skole
Ġbesk yll
ĠmiljÃ¶ ministern
Ġjour nal
Ġo hÃ¤l
i ds
Ġh et
Ġgyn nar
ĠBlek inge
Ġb ag
Ġbl Ã¥
bl om
sint ress
ĠfÃ¶retrÃ¤ des
ĠTi digare
Ġgenom fÃ¶rs
Ġaf slut
Ġgener ell
Ã¶f d
id kare
ti ts
ĠfÃ¶re haft
Ġan ger
ade ns
Ġin taga
va tionen
jer n
Ġsvar at
Ġfattig dom
Ġexper im
Ġvar mt
Ġfisk et
I G
kon ventionen
Ġhan tering
sÃ¤tt es
Ġutvid ga
av draget
Ġoffici ella
ĠL Ã¶f
Ġstan nat
ĠskÃ¶r de
" ,
T E
lÃ¤g et
i ens
Ġom stÃ¤llning
I D
Ã¥n ga
sÃ¤tt ningarna
ĠÃ¶ver tygelse
ĠrÃ¥ kar
Ġavskaff as
ĠfÃ¶rverk liga
ĠL id
Ġtv ist
ĠVÃ¤r l
styr elserna
ĠTo bi
Ġ9 00
sfÃ¶r valt
ssÃ¤tt et
Ġde rÃ¥
Ġkonkur s
ĠnivÃ¥ er
ĠfÃ¶res prÃ¥k
sek vens
Ġklar gÃ¶ra
Ġsjukdom ar
fÃ¶r Ã¤ndring
Ã¥n det
ĠmÃ¥l s
Ġuppfatt at
Ġriksdags mÃ¤n
Ġdel tag
vid t
Ġb rÃ¥d
h Ã¤r
ĠfÃ¶re stÃ¤lla
Ġtr ag
Ġkommu na
Ġgre ve
Ġintegra tion
Ġunder kast
sk ollegium
Ġaf delning
ĠAll tsÃ¥
Ġskatte utskottet
Ġob ek
bestÃ¤mm ande
Ġbe vaka
ĠIn ne
ĠvÃ¤rldskrig et
h yr
ĠFÃ¶r handlingarna
ĠgÃ¥ ende
Ġam ba
Ġbal anser
Ã¤k ra
ans vÃ¤rda
ĠÃ¤r an
Ġbefatt ningar
Ġs Ã¶der
Ġin rym
Ġh astig
ĠfÃ¶rtro endet
Ġs und
ĠH em
et eck
ĠAf ghan
ĠmÃ¶ ten
ub ven
Ġlev nad
Ġmots atta
Ġtyck es
Ġmots vara
Ġfog ats
ĠomstÃ¤ndighet erna
Ġbarnfamilj er
Ġskatt skyldig
holm en
ĠAv slut
p lac
Ġstol t
S k
Ġg ent
Ġ192 1
ĠmÃ¶jlig gÃ¶r
Ġantyd de
ĠtrÃ¤ff ade
ĠÃ¥dag al
0 1
Ġbevill ning
Ġber ett
Ġmat em
rÃ¤tt ens
ĠI rak
ĠMig rations
Ġfl Ã¤sk
Ġstat sk
ĠRiksb ankens
Ġager ar
Ġp ort
Ġtill sÃ¤ttas
ĠtrÃ¤ der
Ġsocial departementet
Ġkonven tionen
are tt
Ġ191 7
Ġal t
Ġm ynt
Ġst ockholm
ĠfÃ¶rst at
Ġsyn sÃ¤tt
Ã© r
Ġfull o
ĠF rÃ¶ken
ĠfÃ¶rm iddagen
Ġinnefatt ar
Ġverk ningarna
Ġreg ister
Ġfram gÃ¥
skri dande
Ġvid ly
Ġefter Ã¥t
sfÃ¶rb und
s rÃ¤tten
Ġl ab
Ġst Ã¶tt
Ġut forma
Ġsak ligt
bil itet
Ġflott an
befolk ningen
dr un
Ġmin nas
rÃ¤k na
Ġd Ã¶l
Ġbel Ã¤gg
Ġvar jÃ¤mte
ĠL ENA
Ġcenter ns
and rag
ĠerkÃ¤n t
Ġorganisation s
ĠGu drun
ĠhÃ¤st ar
ans varet
Ġregional politiken
ĠMÃ¤nn iskor
plan en
Ġbibliote k
Ġin ner
ĠtillgÃ¤ng lig
Ġuppoff ringar
Ġin form
rÃ¥ l
ĠVi etnam
Ġgla da
ĠB ygg
ĠLin kÃ¶ping
ĠÃĸ r
Ġ17 0
Ġp alestin
Ã¤ll or
Ġju sterades
Ġutveck lats
Ġf e
Ġi r
Ġremissin stanser
ĠAvslut ningsvis
Ġut fÃ¶rande
ĠhÃ¤nvis ad
Ġbru tt
Ġrigt ning
Ġsyn punkterna
ĠnÃ¶j er
hÃ¶g skolan
et sen
ĠpÃ¥f rest
p lig
ĠK vin
Ġpat ent
ĠFÃ¶rsÃ¤kring skassan
Ġb isk
ĠfÃ¶re b
Ġci terade
ĠfÃ¶ror sak
ĠEF TA
Ġli sta
bl adet
Ġ15 7
Ġadministra tion
v es
ant in
Ġavs ikten
se ffe
ĠK i
Ġkrig smateriel
ĠUtlÃ¥t ande
bar ns
ei jer
komm ittÃ©
m Ã¶
ĠpÃ¥stÃ¥ enden
Ġsjuk fÃ¶rsÃ¤kring
Ġanord ningar
ĠsammantrÃ¤ det
ĠskÃ¤rp ning
ĠMari anne
Ġbef anns
ĠNy a
ĠERIK SSON
Ġfastig heten
z Ã©n
ĠfÃ¶rsÃ¤k ringen
is a
Ġfak ult
ĠfÃ¶rst Ã¤rkt
Ġlu ften
Ġstar t
ĠL KAB
Ġgif ta
ĠupplÃ¤st s
Ġstatisti ska
ĠP et
gar ne
Ġolyck a
lÃ¤g e
Ġhvar i
Ġobligator iska
3 7
Ã¤r ende
Ġkonser va
Ġfun ne
Ġd yg
var u
Ġen samt
Ġd ik
ĠÃ¥rs skiftet
Ġinnefatt ande
Ġhvar t
ĠavlÃ¶ ning
Ġre vi
ĠLand st
Ġstats budgeten
v or
k ade
ci pl
Ġstan nar
L E
o at
Ã¤r ks
Ġsamman slag
ĠInterp ellationen
Ġ15 6
ĠnÃ¤rings ministern
par at
anstal ten
Ġar fv
Ġutomor dent
Ġt orp
all er
if ier
Ġpre ssa
Ġriks statens
by rÃ¥
ĠV Ã¤l
Ġhin na
ĠanmÃ¤r kt
Ġmodell en
Ġdy ra
Ġexper t
N ER
ĠEl m
us ive
ag stiftningen
sfÃ¶r slaget
Ġsk ott
ĠfÃ¶rÃ¤ndra d
ĠjÃ¤rnvÃ¤gs styrelsen
Ġobe strid
ĠbÃ¤r ande
fÃ¶r l
bor ger
Ġsamman jÃ¤m
Ġkommunikation er
Ġveter inÃ¤r
Ġtillg ripa
Ġut byte
ĠM organ
Ġskatt em
ĠH ugo
Ġvitt nar
ĠgrÃ¤ns erna
Ġste gr
ri sm
ĠN og
ĠStats ministern
Ġ........ .
ivel aktigt
Ġfull makt
Ġkonven tion
Ġdubb la
Â §
Ġstats ministerns
Ġ15 1
ĠvÃ¤g och
Ġsk and
ĠÃ¤ven tyr
Ġplan et
Ġsti ger
Ġh ygg
Ġm ej
un na
Ġl ad
ĠpÃ¥ yrk
ĠÃĦ l
ĠfÃ¤r digt
Ġfo der
ĠB ERG
kÃ¶p ings
Ġen ig
ĠutfÃ¶r ligt
ĠÃ¥terr emitt
Ġkyrk liga
c er
ĠSk o
Ġfatt ats
Ġbeho ven
Ġkont ant
ĠtjÃ¤n sten
yt es
bÃ¥t ar
m onopol
Ġp opul
ĠrÃ¥ dets
Ġs vÃ¤l
Ġsocialdemokra ternas
Ġaspek ter
Ġarbetsmarknad spolitiska
ĠBeng tson
ĠA m
Ġmedicinal styrelsen
ĠAvlÃ¶ ningar
or nas
nings medel
Ġplan era
ban a
skostna den
Ġarbetsmarknad spolitiken
Ã¤n ka
Ġhan teras
Ġefter hand
Ã¥l der
kti e
sm iljÃ¶
ĠIn ga
ĠfÃ¶ren ingen
ĠfÃ¶rvÃ¤n t
ĠtillhÃ¶r ande
off icer
Ġbesl Ã¶ts
ĠfÃ¶r des
ĠuppmÃ¤rksam ma
Ã¤r r
Ġval sedlar
Ġindividu ella
Ġborts e
Ġkommunikations departementet
Ġt emligen
ĠvÃ¤n tas
ĠifrÃ¥ga sÃ¤ttas
ĠG l
Ġav sked
ĠanhÃ¶r iga
Ġo h
ĠR Ã¥
Ġser vic
ĠPro positionen
Ġv unn
Ġbr om
itt ills
Ġnett o
m yndighet
Ã¤m betet
Ã¤mn en
ĠfÃ¶rdr Ã¶j
Ã¤ ten
Ġutbild ningar
na tion
ĠkommittÃ© ns
Ġsti pend
5 7
Ġ15 4
Ġog yn
Ġsocial fÃ¶rsÃ¤kring
Ġbes ynner
Ġval da
k ande
Ġsam vets
en ternas
ĠifrÃ¥ga sÃ¤tter
ĠB eh
Ġer lÃ¤gga
Ġ15 3
Ġtack samhet
va tiser
ĠfÃ¶rvÃ¤n tas
U R
ĠsÃ¥ vida
ma skin
vin na
Ġint yg
st re
ona lekonom
tt rÃ¤d
be hand
Ġfri tid
Ġfr il
vÃ¤ sen
na sti
ĠBo hu
f tigt
or tera
Ġsk ala
ire kta
Ġvatten falls
ĠberÃ¤k nat
Ġanalyser a
Ġtull ar
ĠLENN ART
Ġti dig
Ġvan a
rÃ¤tt a
ĠfÃ¶rst nÃ¤mnda
Ġ.... ...
w ald
Ġgyn na
ĠAfghan istan
Ġna ti
Ġstad gas
IC E
ĠpÃ¥ verkan
Ġstry ka
Ġr er
Ġecklesiastik departementet
Ġpension Ã¤r
ĠinvÃ¤n dning
Ġlo j
d ik
Ġhot ar
Ġstyr ning
Ġskriv elsen
ĠlÃ¤tt a
ĠframstÃ¤l da
Ġcenter parti
ĠsammanhÃ¤n ger
Ġn Ã¶ds
ord ningar
Ġyr ken
ĠfÃ¶rm yn
Ġerfarenhet erna
ĠDepartem ents
lik ten
Ġvan ligen
Ġinforma tionen
ĠRad io
ĠfÃ¶r kast
ĠfÃ¶ren ings
Ġgrupp erna
Ġarti klar
sk at
sav giften
Ġf rest
i ering
ĠD el
frÃ¥n kom
on d
Ġvad an
ĠJOH AN
ET A
ĠStorbritann ien
Ġunder ord
Ã¤ker t
pr inci
ĠanvÃ¤n ts
Ġbarnfamilj erna
Ġin val
en er
ĠS ol
Ġfar an
el agen
Ġbin dande
ĠnÃ¤m nas
ĠhvarfÃ¶r e
ĠdÃ¤r utÃ¶ver
se del
Ġlin dring
Ġut av
ass el
ĠfÃ¶rvÃ¥n ande
j Ã¤rn
Ġb Ã¶ter
ĠFÃ¶r et
Ġskattes Ã¤nkning
an lÃ¤ggningar
ĠHen rik
Ġbe arbet
sfÃ¶r e
Ġmargar in
Ġvil jan
sse ktorn
es el
ĠC e
sin ne
Ġ15 8
sam man
ss par
Ġlik gil
ĠfÃ¶retag as
Ġsvar en
Ġind irekta
Ġlyss nade
Ġflytt as
h ult
nor r
ĠhÃ¤v dat
ĠSocial minister
Ġgymnas iet
Ġbin da
ĠÃ¶ver l
ĠfÃ¶rt jÃ¤nst
Ġstabil itet
Ġo frÃ¥nkom
Ġp ansar
Ġkonsum tions
ig e
ĠvÃ¤n t
ĠfÃ¶rst od
Ã¶ pa
Ġgod tag
Ġjordbruks f
ĠNat o
ĠlÃ¶nsam het
ĠRiksrevis ionen
milj Ã¶n
ĠstÃ¤ll ningen
ĠfÃ¶rutsÃ¤tt a
Ġbeskatt as
Ġf ir
Ġhas tigt
ĠÃ¶ver gÃ¥
ĠfÃ¶rs vÃ¥r
Ġnarko tik
ĠD em
Ġben Ã¤m
Ã¤n der
la st
Ġofficer are
fÃ¶r t
Ġopposi tionens
ĠAf rika
Ġske de
ĠS w
sta tisti
Ġsocial minister
ĠÃ¥ter gÃ¥
Ġbred are
ĠÃ¶k ats
Ġs yd
Ġform erna
ĠinrÃ¤tt andet
Ġ ?
ĠhÃ¶g skola
mÃ¤kti ges
Ġan given
ĠÃ¥r lig
eg at
ĠD eras
ĠS N
Ġupp Ã¥t
ur t
Ġka ssa
d irekt
Ġcir kul
Ġg refve
r il
te ll
ti o
Ġs Ã¥r
ati vet
Ġresur s
skoll Ã¤rare
ĠfÃ¶rÃ¤ndra ts
ĠD ock
ĠfÃ¶rs Ã¶
Ġprakti k
ĠU dde
Ġstor stad
Ġsl Ã¥s
Ġerforder ligt
an pass
it Ã©n
ĠberÃ¤k ningen
Ġborg en
Ġpension Ã¤rerna
ĠMiljÃ¶ partiets
Ã¤g get
Ġlag rÃ¥det
Ġglesbyg d
Ġinskr Ã¤nk
ĠSk ill
Ġdel tids
Ġhal va
ĠarmÃ© ns
ĠtjÃ¤nstem Ã¤nnen
IKA EL
g liga
ĠofÃ¶r m
ĠBrant ing
Ġb uds
ĠM IKAEL
sh jÃ¤l
Ġderi frÃ¥n
ĠD A
Ġlikas om
Ġ /
Ġ14 9
Ġtyng d
Ġbudget under
sfÃ¶r slag
ffek ter
Ġkri ter
nings verksamhet
ĠÃ¶pp enhet
Ġuppt og
Ġreserv ant
fÃ¶r rÃ¤tt
3 1
sfÃ¶r m
Ġre akt
ĠlÃ¶ nes
Ġhand s
Ġkvalific erad
Ġt Ã¤t
ĠfÃ¶rfatt ningar
Ġnor mer
Ġbet rygg
ĠstÃ¤rk er
un tra
rÃ¤k nade
ĠT redje
Ġfunger at
Ġregel verket
Ġdemon stra
mÃ¥l et
mak terna
Ġblif ver
Ġrisk era
Ġne ka
ĠModera ternas
Ġvux it
v ju
Ġytter ligt
ĠvÃ¤lfÃ¤r ds
eller sta
Ġexemp let
ĠutvÃ¤r der
Ġt Ã¤v
Ġupp kommit
Ġstats ut
Ġder stÃ¤des
Ġpresenter at
ĠSÃ¶dert Ã¤lje
Ġbefall ningshafvande
ĠHÃ¤r till
ĠgenomfÃ¶r d
ĠBerg man
skif te
Ġarbets gif
Ġnam net
ĠstrÃ¤ck a
ĠonÃ¶ dig
Ġb Ã¤rk
sk i
ĠA lex
ĠrÃ¤k enskap
Ġforsk ar
Ġkonfer ens
ĠpÃ¥stÃ¥ tt
Ġm alt
ĠframfÃ¶r da
Ġsank tioner
Ġin former
Ġmed borger
Ġslut ade
Ġbostadsbygg ande
Ġ192 3
Ã¤mn den
ĠfÃ¶rhopp ningsvis
Ġobliga tioner
is erad
Ġupple va
rÃ¤k ningen
Ġ15 2
o u
ĠlÃ¤r oplan
Ġbostads rÃ¤tt
en berg
Ġhus et
Ġstatsbidrag et
Ġunderka sta
Ġrekry tering
ĠBil dt
ts am
ĠlÃ¶ne grad
Ġverk stad
Ġlivsmedel s
Ġotv ivelaktigt
Ġfar lig
ĠpÃ¥tag ligt
ĠÃ¶ver v
Ġytt rar
ĠgodkÃ¤n nas
n else
Ġfunn es
Ġkolle ger
Ġansl ogs
Ġbel Ã¥t
intress en
Ġaf skri
smÃ¶j ligheter
ter ad
os of
b rand
lÃ¶s ning
AR D
Ġtek o
ssam man
Ġanlit a
ĠmÃ¤nn en
Ġr ygg
tim mar
fÃ¶rsÃ¤lj ning
Ġuppfy ller
ĠM arie
Ġint rÃ¤da
ĠMar tin
Ġindivi den
ĠutvÃ¤r dera
Ġvid hÃ¥lla
ĠÃ¥lder spres
Ġor da
Ġdo ktor
Ġkam rater
Ġlandsh Ã¶vd
ĠfÃ¶rhand la
Ġob ef
ĠpÃ¥ stod
ĠSt Ã¥
Ġargument ation
Ġbemyndig a
Ġmotion stiden
ĠSk Ã¶v
omrÃ¥de na
Ġinkl usive
ĠH EL
Ġpresenter ade
Ġfram gick
ĠÃ¥stad kommit
Ġkritiser a
ĠHÃ¥ kan
Ġstyr elser
ĠmÃ¥ naderna
l anda
ĠnÃ¤rings utskottet
m yndigheterna
ar r
Ġpriori tering
Ġnati onalekonom
Ġupp kommer
ak en
ĠfÃ¶ren ligt
kunn iga
ĠjernvÃ¤g ar
Ġtill fÃ¶rs
Ġer bjud
ĠAn ita
ĠstÃ¤der nas
Ġuppm untra
Ġde valver
sak en
Ġbit rÃ¤de
ĠfÃ¶rny else
Ġsprid ning
p ens
ĠS Ãĸ
ĠframfÃ¶r de
Ġkorts ik
f Ã¤st
g ningen
Ġfolk mÃ¤ng
val et
Ġound gÃ¤ng
lÃ¤gg es
ĠfÃ¶lj de
Ġbetydelse fullt
Ġexpans ion
ĠGUSTA F
re vs
ostna derna
Ġfast stÃ¤llda
Ġom prÃ¶
Ġtr on
Ġ192 2
Ġ.... .
Ġtradi tion
i ent
n um
Ġrikt as
Ġkron ofog
N U
Ġs ve
Ġarbets grupp
Ġmeddel at
6 6
Ġrus dryck
Ġav skriv
Ġsamman hÃ¤ngande
Ġfon der
ED T
Ġslipp er
sprÃ¶v ning
Ġena handa
ĠÃ¶pp nar
Ġgenera tioner
ĠKAR IN
ĠJo h
ĠReger ings
ĠOlof sson
Ġsinne ssjuk
hav ande
Ã¤s ning
a sta
Ġvatten byggnads
Ġbefog enheter
opp ar
ĠavgÃ¶r as
Ġpri vatiser
Ġindel nings
b and
Ġber odde
Ġkol on
ĠstrÃ¤ng t
Ġbostads marknaden
Ġpol em
Ġkvalific erade
Ġpo j
Ġdikt atur
ĠSt rand
ĠtrÃ¤ff as
ĠBerg qvist
ĠNOR D
Ġe e
Ġbetrygg ande
Ġuppl yst
Ġexister ar
ĠLind strÃ¶m
Ġegendom en
Ġ16 1
Ġbostad sbidrag
Ġlandsbyg ds
ĠAM S
ĠT ull
Ġupprep at
ssss ss
Ġverk at
Ġsm i
Ġvi lar
Ġtill Ã¤t
Ġmedvet et
Ġin bju
Ġav gifterna
ion de
ll h
v ig
Ġenerg is
stÃ¤ll nings
ĠnÃ¤st kommande
Ġdel tog
Ġ17 5
Ġkonstat eras
ĠfÃ¶rvÃ¤r va
struk tionen
sta v
Ġorganis ator
ĠDÃ¤r igenom
ĠSkÃ¶v de
ĠvÃ¤l stÃ¥nd
sp likt
reg el
mÃ¤g tige
ĠAn dr
Ġfo gad
Ġbeteck nas
Ġkem ikal
Ġtill t
ĠÃ¶ver tyg
Ġdyr orts
ĠFR ED
Ã¥r speriod
ĠhushÃ¥llningssÃ¤ll skap
8 00
val da
Ġtransp orts
ĠfÃ¶rlor ade
Ġdis position
Ġbestrid ande
Ġ........ ..
ĠLiber alerna
st ram
Ġb re
Ġer t
Ġskyldig heten
I S
frÃ¥ gasatt
iff rorna
Ġtving ats
Ġsyssel satta
m od
Ġutl ov
lÃ¤g sen
Ġkomplett erande
ĠmÃ¤nnisk o
ĠSam tliga
Ġvig tig
Ġredogj ort
Ġge hÃ¶r
Ġd rÃ¶m
Ġupp rik
rÃ¤k nas
5 4
ĠfÃ¶r skjut
ĠutÃ¶ fver
ĠÃħ sa
h op
Ġav kastning
b ak
ĠpÃ¥ tryck
ĠStats verks
ĠfÃ¶ranled de
ĠFolk partiets
Ġundvik as
ĠgodkÃ¤n d
v os
ĠrÃ¥d de
in av
for ss
ĠfÃ¶reslag et
ĠbrÃ¶ d
i te
Ġb eman
Ġsla kt
Ġtill komma
ĠUtrikes minister
Ġ16 5
Ġkonflik ten
kraf ttrÃ¤d
Ġpro je
ĠmilitÃ¤r t
ĠR A
Ġutl and
ĠvÃ¤g under
Ġplan erings
Ġg Ã¤ng
Ġdisp oner
Ġallsi dig
Ġsannolik het
Ġut esl
Ġyrk ade
ĠorÃ¤tt vist
Ġtill tro
Ġrekommende ra
Ġyttr andet
ĠM Ã¶r
ĠL Ã¤ns
Ġinrikes ministern
Ġut sÃ¤tts
Ġvin sten
ĠL u
Ġpl ocka
Ġkollektivt rafik
fatt ande
Ġanord na
ĠIng rid
m eter
Ġvitt nes
Ġs il
undersÃ¶k ning
Ġnytt ig
Ġorim liga
ĠskÃ¤rp t
f tiga
ĠsÃ¤l jer
i min
par ten
IN E
Ġ200 5
makt ens
Ġkategor ier
Ġexpl oat
o ger
Ġupp tagit
ru p
Ġstadg anden
Ġen gÃ¥ng
ĠfÃ¶retag arna
ĠvÃ¤g led
ST EDT
ĠB el
s esi
Ġvin nande
Ġkombin ation
Ġhopp ats
Ġk Ã¤mpa
Ġvid tar
ĠVÃ¤sterbott ens
v att
Ġak ut
h am
Ġra tif
c o
ĠDÃ¤r jÃ¤mte
till stÃ¥nd
Ġvid kÃ¤nnas
ĠST R
Ġmotioner at
B R
bygg da
Ġparagraf er
ĠtillmÃ¶tes gÃ¥
ĠS tig
Ġbespar ings
Ġd ro
Ġun dra
Ġlik ad
Ġ15 9
Ġuttal ats
ĠbegrÃ¤ns ningar
Ġavslut a
Ġfjol Ã¥rets
ĠstÃ¤llningstag anden
ĠfortsÃ¤tt ningsvis
ull er
rek vens
z elius
ĠH jelm
ĠKri stensson
il d
Ġrel ationer
kontor et
tal ien
Ġinkomst skatt
Ġ200 4
Ġregl eras
Ġmedlem slÃ¤n
Ġriksdagsledam Ã¶ter
ĠfÃ¶rv and
Ġpotati s
Ġupp slag
Ġut jÃ¤m
ĠTill fÃ¤ll
ĠsÃ¤m st
ĠtillÃ¥t et
Ġka ffe
ĠrÃ¤n tor
ĠfÃ¶r lÃ¤ggning
ĠfÃ¶rslag ets
Ġpri skontroll
Ġreag era
G E
Ġreserv anten
Ġgransk ningen
ĠsjÃ¤lv stÃ¤ndighet
upp e
Ġplan erar
g ym
skontor ets
Ġinskr Ã¤nker
Ġsats ningen
ĠhÃ¤rom dagen
ĠC ent
Ġbelys ning
ĠWester berg
ĠÃ¶verens stÃ¤mmer
Ġflyg et
ĠTro llh
ĠlÃ¶ntag arna
Ġm ekan
Ġbeskri va
ĠUt vecklingen
Ġtjenst gÃ¶ring
ĠWin berg
fatt ningen
Ġriksdags arbetet
bered skap
ĠfÃ¶rvÃ¤n tar
Ġg as
fatt at
Ġavveck las
ĠÃ¶m sesi
ĠB ol
lighet ens
Ġsocialdemokra ti
ĠÃĸster gÃ¶t
Ġfrukt ar
ĠLind qvist
j or
fÃ¶r ingen
Ġstats rÃ¥ds
ĠutlÃ¤n ning
Ġovillkor ligen
Ġupp rÃ¤kning
s ig
st Ã¤rk
Ġomfatt ningen
Ġan slÃ¥
Ġstill a
Ġinterpellationss varet
Ġtr Ã¶
Ġer sÃ¤ttningar
i sta
Ġatt ack
K E
ĠfÃ¤lt et
Ġbemyndig ande
ĠunderstÃ¶d ja
Ġunderstruk it
ss Ã¶kande
Ġslag et
Ġn on
E n
hus hÃ¥llning
lig e
ill e
ĠanhÃ¤ng are
ĠFel dt
ĠjÃ¤m likhet
Ġsl og
Ġmet oden
Ġrepresenter a
ĠmÃ¤rkvÃ¤r digt
ĠbetÃ¤nk ligt
Ġgl as
Ġte at
Ġpriori teringar
k Ã¥r
Ġsjuk penning
ĠundersÃ¶k ningen
Ġd jupa
Ã¤tt en
fÃ¶r vÃ¤rv
Ġutnytt jar
Ġrelig ions
Ġperspektiv et
ĠmÃ¤ng der
lag a
ĠtillgÃ¤ng lighet
Ġsp Ã¤nnande
Ġtill fÃ¶ra
ĠH uvud
Ġsocialt jÃ¤nst
ĠK il
ĠFÃ¶r ra
Ġklass er
produ c
ĠWik strÃ¶m
ĠC ivil
ĠprÃ¶v ningen
b en
se q
Ġefter m
Ġs vÃ¤
sbeskatt ningen
Ġm un
ĠE konom
Ġgr and
mÃ¤st aren
ĠstatstjÃ¤n stem
ag Ã¥ng
by rÃ¥n
v Ã¤nner
ĠN e
Ġbered ningen
Ġsk ytt
pen gar
Ġr ot
ĠvÃ¤g hÃ¥llnings
ĠÃ¤g nade
Ġstudi emedel
Ġf Ã¤ster
ĠGre fven
sa f
Ġbetyd lig
ĠB eck
Ġmajoritet ens
ĠI frÃ¥gasatt
Ġpar ten
Ġtillgodog Ã¶ra
el ander
Ġarvo de
ĠFRED RIK
Ġmark era
Ġvo teringen
ĠSt ora
ag ens
Ġmen at
ĠF isk
ĠLund strÃ¶m
w ei
Ġn om
ĠbesvÃ¤r liga
Ġtillsatt es
ĠfÃ¶r skott
Ġi krafttrÃ¤d
Ġmed verkat
ĠÃ¥syft ade
Ġog ill
Ġfort lÃ¶
Ġ ed
bet yg
Ġmotiver ar
ion erna
ĠrÃ¶r de
rÃ¥ ken
Ġattit yd
Ġned drag
sfÃ¶r hÃ¥llanden
at ell
Ġfort gÃ¥
Ġskattes ystemet
ĠMAR IA
Ġen heter
Ġmarknad sekonom
d ats
s juk
Ġf jer
ĠHerr arne
Ġsak lig
ĠSk ogs
Ġ191 0
s tt
Ġham nat
bestÃ¤mm elserna
itet er
ĠKommun ikations
ĠP o
Ġupple v
ĠE RIC
Ġmedgif ver
ss ituationen
ĠL ant
ĠlÃ¤ng d
ĠinfÃ¶r de
ĠvÃ¥g at
ri p
ĠV ol
Ġ16 2
Ġbidrag en
Ġhan teringen
Ġstad gar
reger ing
Ġkommersi ella
ingen jÃ¶r
in vand
b edÃ¶m
Ġom nÃ¤mnda
cent en
Ġan seende
ĠÃ¥ hÃ¶r
Ġhistor iskt
Ġplac era
Ġskade stÃ¥nd
finansi ering
bal ken
ĠrÃ¤tt are
ĠS S
yr elsen
Ġin bl
wei z
Ġmed givande
ĠfrÃ¥ga s
ĠlÃ¶ne fÃ¶r
ĠÃ¤gande rÃ¤tten
ĠGÃ¶ sta
Ġbe skedet
ĠvÃ¤r da
ĠuppmÃ¤rksam mat
ĠnedskÃ¤r ningar
Ġkrets ar
ombuds mannen
Ġut m
f Ã¥ng
ĠK Ã¶pen
ser ing
ĠÃ¥lderspres ident
Ġst r
Ġplac ering
g ats
Ġupp fin
Ġinterpellationss var
Ġkultur en
ĠBÃ¶rje sson
Ġbifall en
Ġom buds
ĠF il
cipl in
d da
Ġ16 3
ĠlÃ¤tt nad
Ġskatte hÃ¶jningar
materi el
ĠE K
ĠrÃ¶d g
c il
Ġsk Ã¤ra
ĠpÃ¥ visa
tal ets
Ġuppb Ã¤ra
Ġinterpellations debatt
ĠkÃ¤nsl an
ĠYtter ligare
Ġen as
Ġpek ade
Ġfram lÃ¤ggas
hÃ¶j ningen
Ġbrott soff
Ġ190 7
ĠU ll
ĠRe uter
stÃ¤m ma
ĠfÃ¶rmÃ¥n en
y p
ĠhÃ¤nseende t
Ġsy ften
ĠsÃ¤kerhet spolitiska
ĠdrÃ¶jsmÃ¥l et
Ġbehag ade
ĠTr ygger
n Ã¤s
Ġremissin stans
ĠE VA
Ġerin ringar
f olket
Ġl ju
Ġsyn tes
Ġ201 1
Ġm Ã¶nster
Ġan lÃ¤gga
ĠrÃ¤tt else
berÃ¤ttig ade
ĠstÃ¥nd punkter
mo tionen
ĠfÃ¶relÃ¤g gas
5 2
ĠskÃ¤rp ta
Ġkri tisk
Ġkl ander
Ġuppskjut a
ĠanmÃ¤rk ningen
Ġmer vÃ¤rde
ĠO tt
Ġill eg
anc er
in nan
ĠfrÃ¥n gÃ¥
Ã¶r elsen
sk o
ĠNatur vÃ¥rds
4 00
Ġfull stÃ¤ndiga
forma tion
sbestÃ¤mm elser
Ġnyss nÃ¤mnda
Ġkan al
Ġkomp lex
ĠutÃ¶ fva
Ġbem ed
spoliti skt
Ġrikt ad
ĠverkstÃ¤ll as
in fl
hÃ¥ll es
ĠvÃ¥r da
ĠsÃ¥ vidt
Ġutl Ã¤m
per spektiv
kra fter
F Ã¶r
ĠstÃ¤n diga
Ġen ty
holm s
k ol
ĠfÃ¶reskri ft
Ġdag ligen
Ġyrkes utbildning
ĠA vs
ĠW id
Ġorganis erade
Ġsak frÃ¥gan
b rist
ĠÃ¥ter kommande
Ġuts es
Ġb ack
Ġtiden s
Ġtre tt
Ġo parti
ĠA P
sl und
Ġre pet
Ġkon gress
ĠEng berg
Ġuniversitet et
ĠfÃ¶rb udet
) ;
Ġk yrka
Ġad vok
art ad
Ġtill vÃ¤g
nings rÃ¤tten
bil ar
Ġskattes ystem
Ã¶ds el
sk Ã¤n
skÃ¥ dning
ti ft
ĠÃ¶ver tog
Ġpension ering
ĠMAT S
Ġtill mÃ¤
ĠstÃ¶r st
bok en
Ġl atin
sav gifter
Ġursprung ligen
Ġegnahem s
Ġskol vÃ¤sendet
ung ande
Ġborttag ande
ĠanmÃ¤l da
ĠSund berg
gar en
D T
ĠfÃ¶r fÃ¶lj
Ġo vilkor
Ġbostad spolitiken
Ġfor dran
en d
sk Ã¶ts
ĠK ar
ĠvÃ¤l diga
bered ningens
l va
Ġm e
ĠGr und
ĠÃ¥ter hÃ¥ll
Ġogyn nsam
Ġst y
Ġsamman slut
ĠupprÃ¤tt a
ĠrÃ¥ tt
ĠtÃ¤ tor
Ġsed nare
Ġteknik en
ru na
ĠCh rist
0 3
tik er
Ġtro ligt
Ġsjunk it
Ġbevilj at
ska s
Ġdomstol ar
et abl
ss p
h jel
ĠÃ¶ver lÃ¥t
Ġkon struktion
ĠBr omma
f yll
Ġarbet ade
lag dt
skap ets
or en
ĠY lva
Ġro ligt
Ġgro va
ĠÃ¥r sk
Ġp et
Ġautom atiskt
Ġ193 2
ĠB ra
Ġbef rÃ¤m
Ġfattig vÃ¥rds
Ã¤g ande
Ġsch abl
Ġgr en
RI D
Ġ193 6
ĠL ika
ĠfÃ¶rsvars frÃ¥gan
stjÃ¤n ster
ĠAd olf
Ġov iss
Ġetabl ering
ĠH Ã¶rn
ĠjÃ¤mfÃ¶r elser
jour n
Ġs Ã¤nker
Ġo jÃ¤m
Ġav stÃ¥r
ĠH Ã¶j
c cis
Ġvar pÃ¥
ĠPol en
on den
OT H
Ġvill igt
ĠL ith
ĠkÃ¶ pe
politik ens
Ġo sk
Ġ192 7
Ġtrygg heten
ĠHed in
an slaget
ĠIng em
ĠÃ¶verty gade
Ġkun n
l iv
Ġg ivna
Ġut Ã¶kning
ĠpÃ¥pek ats
Ġb Ã¶cker
Ġman liga
ĠAnn ika
Ġtalar stol
Ġan ti
stv Ã¥ng
Ġin b
ĠFran zÃ©n
Ã¤n dringen
6 4
Ġfri hets
ĠfÃ¤r d
Ġan kommer
ĠfÃ¶rb undet
vak ningen
ĠfortlÃ¶ pande
Ġobetyd liga
sfÃ¶rb undet
ĠO skar
ĠVÃ¤ x
ĠFor ss
Ġriksdag ar
Ġblif vande
ET H
Ġstadg andet
3 8
Ġlever era
Ġgrann lÃ¤nder
Ġtill kall
ytt ring
Ġgrunda d
T ER
Ġin bÃ¶r
ĠH ult
ur serna
ĠK ent
Ġskogs bruk
Ġaccep terat
ĠsÃ¤nk as
ĠlÃ¤mp ligaste
ĠCla es
Ġord nad
l Ã¤nd
Ġn ot
ĠA D
sproblem en
ĠR isk
Ġkl in
ĠsammantrÃ¤ den
Ġidrott en
7 5
Ġtill komst
ĠB od
Ġpass iv
Ġ35 0
ĠStef an
Ġsamvet e
ĠF Ã¤ll
Ġtr ycket
Ġtillgodos edda
Ġk andid
Ġuppfatt ade
Ġkompens era
sproduk tionen
Ġo Ã¤nd
ĠK oppar
ĠUt Ã¶ver
ĠfÃ¶rord nande
skonfer ensen
ÃĦ L
st r
ol a
Ġvis as
ju tit
Ġf ing
ĠutanfÃ¶r skap
g rÃ¤
vin st
Ġti onde
emp el
de rÃ¥
Ġut nÃ¤m
ĠvÃ¤ckt es
ĠJÃ¶n kÃ¶ping
ĠU N
underlag et
Ġproblem atiken
Ã¤n da
Ġenerg ik
ĠfÃ¶r lÃ¤ggas
fÃ¶r Ã¤ndringar
ĠtÃ¤ck tes
Ġstads fullmÃ¤ktige
Ġtill gÃ¥
Ġ16 4
Ġd oll
rik sdagen
Ġegent lig
Ġmin ne
ĠhÃ¤nvis at
Ġut Ã¶ka
ĠskÃ¤ ligt
on ne
mÃ¤ss ig
ost Ã¤der
ĠG em
Ġex am
Ġlem nas
ĠGe org
Ġlag Ã¤ndring
Ġstat skontoret
ĠtilltrÃ¤ de
Ġper m
gor na
Ġk ds
Ġdra sti
spl ats
ĠKARL SSON
ti ven
ag stiftning
ka ssa
Ġred skap
ĠÃ¥ber opar
b ort
Ġn ionde
Ġlem nar
ĠMan ner
Ġ190 9
sborg s
ri e
Ġgr Ã¶n
Ġam ortering
ĠutskottsutlÃ¥t ande
ĠIn ger
Ġdistrik ts
Ġfolk rÃ¶r
lÃ¥ ter
Ġgym nasti
ĠStÃ¥ hl
H OLM
Ġin cit
Ġvacker t
Ġs on
ĠPar is
ĠHag e
Ġanteck nat
ĠNation ernas
Ġtillstyrk er
Ġh of
ĠlÃ¤r jun
Ġg ud
ĠtillfÃ¶r lit
Ġdomin erande
vall a
Ġrestrik tioner
ĠM on
Ġstats understÃ¶d
ĠifrÃ¥ga komma
san slaget
Ġhit hÃ¶rande
Ã¤ kten
Ġbil en
ĠnÃ¶ds ak
Ġor terna
ĠM er
Ġpre jud
Ġmet all
skri d
ĠtillÃ¤gg spension
Ġge vÃ¤r
ĠU p
Ġbestri das
rÃ¶ k
for mar
stat erna
ĠL Ã¥ng
Ġ16 8
Ġoff ens
ĠM Ã¤l
ĠMin a
h all
o derna
Ġskattebetal arna
ĠvidstrÃ¤ck t
6 00
an ks
ĠsÃ¤tt s
Ġned rustning
Ġtal arna
Ġlokalis erings
ĠFÃ¤ll din
sti dens
ĠnÃ¶ dig
Ġgrunda de
ĠskÃ¤ lig
Ġ200 3
Ġbet ungande
Ġ16 6
Ã¤g else
ĠÃ¤rende ts
Ġmen a
ek n
ĠfÃ¶retag samhet
Ġliber al
ĠhushÃ¥llningssÃ¤ll skapen
ĠJohn sson
i al
ĠB a
Ġbo x
Ġgl Ã¤der
Ġhal ver
Ġlug na
Ġmotor fordon
Ġret ro
s ar
ĠrÃ¤tts liga
Ġdjup are
Ġvinter n
Ġre ella
ĠÃ¥berop at
ĠST EF
s id
Ġsocial utskottet
f elt
t ning
fatt ningar
pro v
ĠT el
ha varen
skyldig heten
ĠSTEF AN
behov et
mÃ¤nn ens
Ġd um
Ġprote ktion
es am
Ġtrafik utskottet
efon den
Ġintens ivt
ĠÃ¶nsk ningar
Ġnedan nÃ¤mnda
3 2
u el
ĠfÃ¶r Ã¶dande
Ġtyck as
Ġkronor s
Ġmorgon dagens
sbestÃ¤mm elserna
ĠAndersson s
ĠFÃ¶r e
ĠunderrÃ¤tt else
ĠG rÃ¶n
Ġriks fÃ¶rsÃ¤krings
ĠfÃ¶rank ring
ĠsjÃ¤lv stÃ¤ndig
ĠonÃ¶ diga
Ġhos pital
k rÃ¤
Ġrelig ion
all Ã¤k
Ġur an
Ġm ul
Ġklag omÃ¥l
Ġtradi tionella
i ets
ri ska
Ġbef rÃ¤mjande
Ġteoret iska
Ġin stÃ¤llningen
Ġing ick
sttag arna
Ġsedel ut
Ġdepartementschef ens
Ġamba ss
ĠS E
Ġnack del
pro c
ĠfÃ¶rÃ¤l dr
b on
ĠB if
4 8
H R
Ġeg t
ĠSkill naden
Ġvar m
Ġsitt ande
ĠMar k
ĠS pan
Ġaf slÃ¥
ĠSko glund
ĠÃ¥lder doms
Ġh und
Ġverksam ma
Ġrisk kapital
somrÃ¥de na
Ġhufvudtit el
Ġon t
AL M
upp gift
ĠberÃ¶r ts
Ġkonsekvens en
st rakt
Ġtillvar o
ĠSve a
3 9
yg ien
ĠnÃ¤rings utskottets
kon sum
ĠFÃ¶l jande
splan ering
pac iteten
Ġdom kapit
ĠbrÃ¤nsl en
g na
u ttag
ĠfÃ¶rel egat
ĠÃ¶versti ger
ĠlÃ¶ ft
Ġbarna vÃ¥rds
ĠS ahl
Ġbelast ning
Ġav gÃ¥
Ġkyrk or
Ġtenden ser
ĠLith ander
Ġb and
Ġord alag
Ġtanke gÃ¥ng
Ġcy kel
ĠinhÃ¤m tat
Ġ201 2
Ġpost en
Ġanskaff a
Ġhvar efter
Ġrepresenter ade
ĠÃ¶nskvÃ¤rd heten
ĠfÃ¶rdel aktigt
sdag ens
Ġefterly ser
iti e
Ġder hÃ¤n
Ġoffent lighet
ĠhÃ¤lso och
ĠpÃ¥kall ad
ĠvÃ¤d ja
ger n
olin ska
Ġindust ril
Ġmotiver ade
ĠfÃ¶retrÃ¤des vis
Ġbeh jÃ¤r
Ġparti beteck
slÃ¶ n
Ġbostad spolitik
Ġmotiver ad
strate gi
Ġupp fÃ¶ra
Ġflyg plan
ĠJ em
nings tid
ĠkrÃ¤ vas
Ġom vÃ¤rl
Ġenhet lig
Ġh er
ĠfÃ¶re komna
Ġinkl u
Ġsl Ã¤kt
astig heter
Ġrel ev
Ġvapen export
ĠhÃ¤ dan
v ux
an al
ĠL Ã¤r
Ġsocial istiska
ĠmÃ¤nniskor nas
Ġutf Ã¶ll
fv ade
ĠÃ¥s id
ĠsÃ¤k rare
ord in
Ġpri ssÃ¤tt
Ġrestrik tiv
Ġret or
Ġt j
sm o
Ġuppen bara
ĠÃ¥berop as
ĠprÃ¤g las
f akt
ĠI ran
ĠrÃ¤tts vÃ¤sendet
ĠfÃ¶rd jup
Ġpension en
projekt et
lÃ¤gs na
Ġvar vs
Ġstats revis
Ġtvung na
Ġel d
ĠÃ¥ter fÃ¶r
Ġdeklar era
Ġtv iv
Ġavslut ades
ly kt
ĠfÃ¶rsamling ar
Ġarbet sb
Ġbill ighet
Ġan hÃ¥llit
v ed
Ġval mÃ¤n
ĠÃ¤g o
Ġra tionellt
ĠLe if
Ġantag its
Ġ192 9
Ġtu ff
p olis
anska ff
Ġpedagog iska
Ġlikas Ã¥
Ġin lÃ¥ta
Ġfram stÃ¥
Ġdriv medel
ĠinskrÃ¤n kt
ĠfÃ¶rord ats
ĠÃ¤n drar
Ġdag liga
sbel opp
Ġlag stad
A n
ĠI V
Ġhuv udet
Ġanvis as
Ġt akti
ĠfÃ¶rsÃ¤lj nings
Ġl oppet
f rÃ¤mjande
i tions
Ġg rÃ¤
Ġsp ring
lÃ¶ f
sut vecklingen
sh Ã¶j
ĠhÃ¥ll bara
ĠstrÃ¤ vanden
ĠGU NN
b elÃ¤g
Ġbyg der
Ġmisslyck ats
Ġhu stru
Ġ191 3
L O
ĠlÃ¤tt nader
res or
ĠBIRG IT
V EN
ĠstÃ¤m ma
Ġfakult et
Ġres titu
Ġban or
pote ks
reg ister
ĠUtbildnings minister
Ġh astighet
ĠJ Ã¶rn
Ġklar at
Ġa ning
ĠM agn
arbet ena
ĠfÃ¶retag samheten
ĠoerhÃ¶r da
Ġst yrk
en da
Ã¤tt ningen
ĠAn t
Ġav giften
m om
Ġallians en
ĠÃ¶verlÃ¤m nats
ĠtrÃ¤d de
Ġs Ã¤nd
Ġtillverk ningen
Ġau ktor
Ġ193 3
ĠvÃ¤rn pligt
sbil dning
Ġenor mt
tv ing
Ġtill stÃ¥ndet
J E
ĠP ri
Ġgif ver
Ġfre den
Ã¤n kta
Ġiniti ativet
slin jen
4 1
Ġbli ck
rik ta
els et
de ikomm
Ġmin ist
ĠfÃ¶rhindra d
ĠEr far
D AL
for ts
cent rum
Ġplac eras
ĠlÃ¶ nar
ĠVÃ¤ster norr
gr ens
ĠÃħ sling
Ġta bell
sk antz
ĠL Ã¤g
Ġutveck lade
yl ander
ĠkÃ¤nn eteck
O S
ĠN Ã¥
Ġk Ã¥r
Ġpl enum
Ġ193 4
Ġsp etsen
ĠrÃ¤n t
6 5
g yn
J ELL
ĠP Ã¥l
Ġskul der
ĠForts att
Ġbju da
emed len
stÃ¤ll ande
ĠfÃ¶rsÃ¤m ra
ĠÃ¥syft ar
Ġt ak
Ġled ar
Ġvind kraft
Ġde ru
Ġny o
Ġmil itie
Ġklass erna
p t
Ġin veck
Ġl Ã¶r
Ġbl ank
ER IK
ĠtillkÃ¤nnag ivit
ĠK Ã¤ll
Ġsocial bidrag
Ġfastighets skatten
ĠgÃ¥r d
ĠÃ¥lig ger
Ġm ellersta
Ġgill ar
Ġfattig vÃ¥rd
Ġkrimin ella
ĠKÃ¶pen hamn
Ġin m
uter ade
Ġhem lig
ĠvÃ¤g rar
ĠManner skantz
Ġbekym rad
skap ande
Ġtryck a
ĠmiljÃ¶ vÃ¤n
ĠpÃ¥fÃ¶lj d
Ġb rÃ¥
Ġinform era
Ġomsorg en
Ġ16 7
Ġfram gÃ¥tt
Ã¶n st
Ġ201 3
Ġsak erna
Ġinsk riv
Ġst Ã¤rkt
ĠÃ¤ven ty
ĠstÃ¤n ga
m i
Ġfin a
Ġarbet stids
Ġgivit s
Ġundanr Ã¶j
sl okaler
kt ure
Ġ192 6
Ġhuvudsak liga
ĠÃ¥klag are
Ġg af
ut Ã¶vning
Ġgenom t
Ġborger ligt
sproduk tion
Ġin sett
var bet
Ġgod kÃ¤nner
vande na
Ġterr it
ĠFÃ¶l j
Ġhar mon
ug gl
Ġutf Ã¤st
Ġdispon era
ĠvÃ¤g ra
stu na
D ER
Ġav hjÃ¤l
Ġmin net
Ġet app
Ġad op
ĠTh e
ĠCenter partiets
ĠHÃ¤r uti
ĠAll an
Ã¶ ns
Ġanled ningar
Ġ$ ,
ĠfÃ¶rÃ¤ndring arna
Ġsocialt jÃ¤nsten
ĠWig forss
Ġhuvu dan
Ġor ig
ĠLÃĸ F
Ġregel b
n Ã¶den
Ġf und
Ġfol ks
Ã¥tgÃ¤r d
ĠbyrÃ¥kra ti
ĠS i
Ġbru ka
sbe handlingen
Ġut delning
Ġsamman lagda
ĠW o
Ġur holk
andar den
Ġkonkurren skraf
ĠkrÃ¤v de
ark naden
Ġkoncent ration
Ġreflex ioner
Ġderu ti
Ġkvan titet
ss ak
Ġdag slÃ¤get
ĠfÃ¶redrag ande
Ġmom s
ĠStatsverks propositionen
ĠDet samma
Ġdom ar
ĠI M
Ġel Ã¤n
k ds
ĠS par
Ġfl ag
ĠÃ¶fver lÃ¤ggning
ĠÃ¶v re
Ġsats at
Ġeurope isk
Ġo kunn
gi onal
Ġavstyrk er
nÃ¤mn der
Ġp ublik
al ans
ĠfÃ¶rfÃ¤r ligt
pa pper
Ġnyan lÃ¤n
Ġsk iss
Ġdecenn ier
Ġp aket
kn ipp
ĠdomÃ¤n verket
Ġprovisor iska
ĠhÃ¤dan efter
Ġut gick
Ġyttra des
yt et
Ġskattel Ã¤tt
Ã¥ tt
ss ats
Ġpresenter as
Ġt riv
Ġber Ã¶
Ġdomstol s
inkom sttagare
U b
ĠÃ¶ mt
Ġavsl Ã¶j
Ġkomm o
alterna tiv
l Ã¶n
ĠT Ã¤nk
ĠfÃ¶rs org
sp unkt
ĠhjÃ¤lp as
Ġm unt
ĠG Ã¥r
Ġhand lÃ¤ggnings
Ġled iga
Ġtredje delar
Ġegendom ar
ĠEr n
Ġpres ident
Ġfantas tiskt
Ġindrag nings
Ġapp arat
Ġtyd lighet
st jerna
lÃ¥t en
Ġtve ksamhet
Ġin stanser
ĠK ullen
us ul
ĠrÃ¥ kat
deikomm iss
Ġantag na
ĠfÃ¶rbered a
ĠhÃ¤n fÃ¶r
ĠfÃ¶red Ã¶m
ĠfÃ¶rmÃ¶genhets skatten
verk ande
Ġak uta
Ġopin ions
els el
rÃ¶st ningen
ĠKvar n
sfÃ¶re byggande
ĠrÃ¶r lighet
Ġsekreter are
Ġbes Ã¶ka
ĠMar g
ĠMigrations verket
Ġpromemori a
Ġfin anser
Ġbil dning
av all
Ġframti dens
ĠrÃ¤ttss Ã¤kerheten
Ġrestaur ang
Ġtill l
Ġsj Ã¤tte
port en
ĠfÃ¶r val
Ġbifall es
ĠAv stod
6 7
ĠlÃ¤r ob
delega tionen
ĠhushÃ¥ll ning
problem en
Ġr ov
le va
ĠnÃ¤r ingen
ĠFÃ¶r ste
ĠarbetsfÃ¶rmed ling
ĠfÃ¶rm Ã¥r
sett s
r igt
Ġh omo
Ġfjer de
ĠL Ã¶n
ĠEskil stuna
Ġplan erna
Ġkategor i
Ġom byggnad
mar ks
gÃ¶r andet
Ġmedborg arnas
Ġmaterial et
Ġtyck t
Ġlagstift a
ĠfÃ¶rsvÃ¥r ar
ĠfÃ¶rhÃ¥llande vis
Ġaf lem
s ning
ĠI ns
syn t
ĠSkatte verket
Ġr ss
Ġpre st
ĠglÃ¶m t
5 9
o ci
Ġres ande
ĠG eijer
Ġsnabb protokoll
ĠE huru
ĠvÃ¥l dsam
Ġbal ansen
ĠDepartements chefen
Ġfinans utskottets
Ġpart ner
Ġkommuna ll
Ġomedel bara
Ġparti ernas
ĠAlex ander
ĠfÃ¶rsvar sbeslut
Ġutveck lar
Ġbe stÃ¥nd
ĠÃ¶nsk vÃ¤rda
Ġindel ta
sut veckling
Ġall as
Ġadministra tiv
ĠÃ¶ stra
ĠPer son
im m
an ger
vo teringen
g ningar
i vare
Ġgrund ligt
Ġoro liga
Ġklimat et
f rastruktur
Ġstatsverks proposition
Ġbefar ar
Ġmilj Ã¶k
Ġbru ks
n arna
ban or
Ġinter vju
Ġb unden
Ġkun gÃ¶relse
Ã¤mn da
ĠLag er
Ġundanr Ã¶ja
ĠtillkÃ¤nnag iv
Ġsamarbet s
ĠSk og
lÃ¥ tit
Ġkonstitu tionella
fel dt
Ġl istan
Ġav ge
Ġreag erar
Ġprovisor isk
Ġpunkt vis
ĠMotion Ã¤rerna
ĠdÃ¤r Ã¥
ĠvÃ¤r dering
n is
Ġr utin
as arett
re p
ĠF ull
ĠFl er
ĠArbetsmarknads minister
Ġju rist
ĠnÃ¶ den
ĠLind berg
er er
Ġo kÃ¤n
Ġmig ration
ĠT vÃ¥
ĠMalmÃ¶ hus
Ġanvis ande
Ġti ot
han tering
bÃ¶r d
Ġavslag s
smÃ¤ss igt
drag en
kÃ¤n des
vÃ¤ sent
rÃ¶r elsens
Ġtu rism
Ġengag erade
Ġarbetsmarknad spolitik
Ġstre jk
Ġosk Ã¤
Ġ yn
Ã¤ kta
hem men
Ġgrundlag sen
ĠfÃ¶rsÃ¤m ras
Ġgenom gÃ¥ende
ĠlÃ¤mp ligheten
ĠhjÃ¤lp medel
ĠframhÃ¥ll es
ĠÃ¶mt Ã¥
Ġf Ã¤l
ĠfÃ¶rsÃ¤kring sbolag
man lands
ĠU g
Ġerfar it
ĠfÃ¶r skrÃ¤ck
ĠfÃ¶r knipp
ĠH Ã¤ls
ĠfÃ¶rut varande
Ġattit y
o ver
Ġaf skaff
kti g
Ġmass or
is erar
gl ar
ĠsjÃ¤lvklar het
ĠOL SSON
Ġhu g
ĠbelÃ¤g na
ĠfÃ¶d da
ĠBak grunden
dri ft
ĠA g
Ġ yt
Ġskattet rycket
Ġst Ã¤d
Ġerinra de
lin jer
ĠfÃ¶rdu bbl
Ġratif ic
rÃ¶ d
Ġkompetens en
Ġsynner lig
Ġh ustr
Ã¤nk ningen
ĠJo se
slÃ¤n en
Ġetabl era
Ġdelega tion
ĠV ore
Ġbl anda
yck er
Ġsj unde
ĠÃ¤m bet
ĠG ivet
ĠF ast
Ġder jemte
Ġot yd
Ġuppskatt ning
4 9
Ġanord nas
ĠV ICE
Ġlic ens
kt u
ĠbÃ¶r dor
intress et
Ġberedskaps arbeten
ĠBef all
Ġstat us
Ġre all
Ġra der
Ġsatt s
Ġlem nat
ĠKommun erna
s jÃ¶
Ã¶r else
ster n
val itet
ĠEuro p
ĠSk ell
program met
ĠTrafik verket
ĠCH RIST
Ġut rett
Ã¥r sperioden
I M
ĠO dell
ĠAr landa
Ġkunskap en
ĠJ Ã¤r
rÃ¤ng es
Ġjobb at
as Ã¥
Ġanpass as
ĠH us
ĠH AG
Ġanskaff ning
Ġmedborgar skap
Ġskogs Ã¤gare
ĠGran stedt
Ġned satt
Ġvatten kraft
ti derna
ĠfÃ¶rbe hÃ¥ll
ĠLed ighet
Ġskatte utskottets
Ġinfl yt
T Z
Ġh ette
ĠjernvÃ¤g s
Ġremiss ytt
ĠnÃ¶j es
ĠIn fÃ¶r
Ġstyr medel
ĠT ror
Ġsjuk huset
Ġmiss gyn
Ġfisk are
ĠfortsÃ¤tt ning
Ġkritiser ar
Ġb ad
Ġly x
ĠVÃ¤x jÃ¶
Ġhand ha
med icin
G ER
Ġlantbruks styrelsen
Ġgenom gÃ¥ng
ĠHÃ¤r igenom
Ġreg ul
Ġra batt
ĠfÃ¶re stÃ¥nd
k ens
Ġvi tal
Ġtill sÃ¤ttande
Ġt en
Ġdriv as
Ġanskaff ande
Ġex portera
Ġra tionell
Ġtryckfrihet sfÃ¶rordningen
c y
bring ande
Ġkultur ministern
Ġj or
ĠÃ¶gonblick et
ag et
ck s
Ġbe varande
Ġpot enti
nings tiden
Ġint y
ĠlÃ¤r ling
ĠonÃ¶ dan
R ik
Ġfram lÃ¤ggande
Ġlik stÃ¤ll
fl ott
Ġkorr ig
Ġprovin si
ĠD AN
ĠvÃ¤r st
Ġ16 9
4 2
Ġhan terar
Ġutrednings arbete
resultat et
ĠH ittills
Ġklo ka
Ġsoldat er
ĠhÃ¶g skolorna
Ġsamb andet
Ġpande min
ĠfÃ¶r lag
hjÃ¤l pen
Ġom arbet
ut veck
demokra tiska
u sen
ser i
ĠlÃ¶n etill
ĠfÃ¶rb and
Ġfj Ã¤ll
Ġhot as
Ġrekommenda tioner
ĠT re
Ġaktivitet er
in e
ĠEl isa
ism ens
Ġnack delar
Ġt omma
ĠotillrÃ¤ck liga
ĠHel ge
ĠofÃ¶rÃ¤ndra t
ĠH alm
ĠG R
lag stiftning
Ġ192 4
ĠupptrÃ¤ dande
Ġgenera tion
Ġmin nes
est Ã¥nd
ĠberÃ¤ttig at
h ot
sk unskap
ĠMatt sson
ĠS ituationen
ĠJo nas
ĠMagn us
Ġer hÃ¥llande
Ġn ek
Ġin komma
eg ent
utbil dade
Ã¤n ger
Ġstegr ing
ote ll
ĠfÃ¶r lÃ¤gga
ĠBohu slÃ¤n
ĠfÃ¶retag ets
ĠverkstÃ¤ll ande
rust ningen
ĠskrÃ¤m mande
Ã¤ da
Ġfram lades
Ġparti kam
ĠfÃ¶r fall
par t
ĠuppmÃ¤rksam mas
Ã¤n na
ĠbÃ¶r da
Ġkammar ledam
Ġlik artade
Ġskogs vÃ¥rd
st ats
Ġut est
Ġhitt ar
led ighet
Ġobetyd ligt
ĠÃ¤g g
Ġmodera ternas
ĠfÃ¶rmÃ¶genhets skatt
ĠvÃ¤gled ande
ĠlÃ¤mp ligare
ĠTor sten
Ġutman ing
mÃ¶j ligheterna
ĠA S
ĠOr saken
Ġfyll t
ĠFÃ¶r utom
Ġhvar med
os am
Ġg Ã¶m
la pp
Ġgrunds ats
Ġlant bruk
Ġomedel bar
ĠSpan ien
. -
stegr ing
ĠfÃ¶rsum m
Ġr ote
ĠÃ¶verlÃ¤m na
Ġav skrivning
Ġbisk op
p edi
Ġvill iga
ĠfÃ¶rfatt ningen
Ġsvag are
ĠhÃ¤m ta
o sta
or m
ĠÃ¥ter betal
Ġ191 6
ĠÃ¤gande rÃ¤tt
personal en
Ġvits ord
Ġklock an
Ġavvik ande
ĠEner gi
ĠvÃ¤n tet
Ġdryck er
Ġorganis era
ĠtillmÃ¶tes gÃ¥ende
ĠfÃ¶rhÃ¥ll a
Ġk ul
ĠtjÃ¤nst gÃ¶r
Ġgener Ã¶s
Ġhomo sex
Ġklar are
Ġkommission ens
Ġtill Ã¤mpar
ĠG rÃ¤nges
ĠvÃ¤g ande
ĠKam rarne
e ger
Ġinfrastruktur en
ĠD am
vÃ¥r igheter
ĠfÃ¶lj derna
parti erna
Ġargumenter ing
ĠL jus
ĠOm rÃ¶stningen
Ġpl ock
Ġbef Ã¤st
Ġskyd das
Ġhov rÃ¤tt
um man
Ġnytt jande
Ġobe gri
Ġtol er
bÃ¥ da
Ġperson ligt
ĠstrÃ¤ va
ĠfÃ¶ran leder
Ġsk Ã¥
ĠlÃ¶ne fÃ¶rbÃ¤ttring
Ġdi esel
Ġkre atur
Ġupp satt
ĠL EI
Ġr und
Ġel imin
ĠlÃ¤r os
Ġskogs mark
Ġtyst nad
ĠUp sala
Ġblev o
Ġinled a
Ġer hÃ¥llas
Ġfil osof
Ġo per
Ġmedicin sk
ĠTal man
Ġb is
ĠfÃ¶rfar ing
Ġvar ma
ĠpÃ¥ rÃ¤kna
Ġambi tionen
ĠfÃ¶r skola
Ġiakttag a
Ġt org
Ġsked d
-------- --------
dig heten
Ġriksdagsbeslut et
Ġhem liga
Ã¤mp ningen
Ġskil nad
Ġnyck el
Ġsk juter
Ġcivil ministern
Ġdis ciplin
Ġso ci
Ġkall ad
ĠbesvÃ¤r lig
Ġprote st
Ġuppskatt ar
Ġare al
Ġkommer skollegium
Ġfem ton
Ġmateri ella
Ġgransk nings
Ġtyng re
Ġgynnsam ma
Ġutbil dade
Ġav sp
red o
Ġvan sk
ĠArbet slÃ¶s
Ġkriminal vÃ¥rden
Ġo lik
ĠÃħ A
ĠMotion Ã¤ren
ĠvÃ¤n tade
Ġglob al
Ġbonde fÃ¶rbundet
ĠdÃ¶ da
ĠVÃ¤rl ds
6 2
Ġupp delning
ĠmÃ¶jligt vis
Ġkompl ement
ĠMARG AR
ĠTrollh Ã¤tt
Ġvet e
Ġunderteck nad
d Ã©n
ok alisering
ĠIn ge
Ġbudget proposition
g em
ĠhÃ¶j s
Ãĸ N
Ġreglering ar
Ġfa c
Ġgodt yck
ĠSÃ¥dan t
Ġfunder ar
id rott
alis eringen
red ik
Ġglesbyg den
Ġer n
Ġupptag ande
Ġhem m
ĠBif Ã¶ll
Ġsist lidne
Ġafs edda
Ġ z
and an
ĠG a
villkor en
m Ã¶tet
Ġrepresent ationen
ĠfÃ¶rsÃ¶ks verksamheten
ĠbesÃ¶k te
ĠHe den
ĠmÃ¤rk e
ĠhÃ¤nvis as
Ġvidtag na
Ġkonjunktur en
del nings
ĠdÃ¤r jÃ¤mte
Ġne der
Ġo upp
ĠBet Ã¤nkandet
Ġupp gÃ¶relsen
Ġlitt eratur
Ġer e
Ġk Ã¤mp
m ord
ĠU kra
Ġfatt adt
Ġspekul ation
Ġbi ologiska
ĠvÃ¤ der
Ġbesvar ade
Ġman tal
Ġsamman satt
Ġtrafiks Ã¤kerhet
Ġinten tioner
Ġkraft fullt
ĠfÃ¶rvÃ¤nt ningar
Ġo egent
ĠÃ¤g aren
ĠP at
Ġtill sk
ĠT id
Ġmedel tal
Ġriksdags manna
ĠomsÃ¤ttnings skatten
ĠUdde valla
ĠvÃ¤ ster
Ġang ripa
ĠfÃ¶rklar ingen
bland ning
ifikation er
Ġgif ter
L AN
ĠfrÃ¥ gest
ĠnyanlÃ¤n da
ĠinfÃ¶r ts
ĠbesvÃ¤r ande
ĠtrÃ¥k igt
Ġdok um
J ag
Ġn Ã¥s
Ġver l
Ġman s
Ġtalman nens
ĠBefall ningshafvande
ĠFÃ¶r ut
gj orts
Ġslut gil
Ġsl ott
Ġfri ska
Ġvatt net
Ġskad liga
ĠMag dal
ĠMagdal ena
ĠfÃ¶rd jupa
ĠUg glas
Ġmed verkar
ĠSÃ¥ vÃ¤l
Ġpenning vÃ¤rde
fÃ¶r stÃ¶r
ĠglÃ¶m mer
ĠVÃ¤sterbott en
ĠfÃ¶rsÃ¤k ringar
ste x
iv as
Ġsen a
Ġ Q
Ġskatt emedel
ĠRiksrevis ionens
ĠÃĸres unds
Ġvar v
ĠbehÃ¶ fves
Ġpension erna
ĠÃĦn nu
ĠupptrÃ¤ der
Ġs ovjet
ĠhÃ¥ll its
Ġb ref
ĠS un
ĠP ension
sti erna
âĢĶ -
Ġfi deikommiss
ĠtÃ¤ck er
Ġkomplic erade
ĠJustitiemin ister
gl a
Ġiden tif
Ġsk Ã¥n
alis era
ĠS en
ĠfÃ¶rm Ã¥gan
Ġ17 2
ĠvÃ¥l det
ĠframhÃ¶ll s
Ġpropor tion
ĠBjÃ¶rk man
ĠallmÃ¤nnytt iga
b ek
vis as
ĠB ry
lÃ¶ sen
Ġd in
ĠÃ¥stad kommer
met oder
Ġrational iserings
Ġfabrik er
Ġe s
fÃ¶r innan
ĠH Ã¶r
ĠrÃ¶dg rÃ¶na
ĠfÃ¶rut se
Ġavse vÃ¤rda
kammar en
Ġ17 3
ĠvÃ¶r dsamt
Ġt ri
Ġut seende
Ġupple vt
ck et
ĠgodkÃ¤n de
Ġbeton ar
b ostÃ¤der
g anden
ĠV ik
han g
Ġstru kture
bring as
Ġpsyk iska
Ġjordbruks politiken
Ġriksb anks
d i
Ġr anson
Ġmening arna
Ġoaccep tabelt
ĠD jur
Ġlott eri
ĠfÃ¶rplikt elser
Ã¶verenskomm elsen
Ġlant mÃ¤ter
ĠfÃ¶rklar as
Ġr iva
ĠfÃ¶rdel en
Ġolyck liga
ĠrÃ¶st rÃ¤tts
Ġartikel n
k ningar
ĠW EST
ĠunderdÃ¥n ig
Ã¤l so
ĠvÃ¤lvill igt
ĠNaturvÃ¥rds verket
in jen
bl ock
r s
ĠÃ¥ k
gÃ¥ s
ĠfÃ¶rny bar
Ġdriv s
Ġbemed lade
Ġtrafiks Ã¤kerhets
ĠBÃ¤ck strÃ¶m
Ġfor c
ĠNÃ¤r ing
ĠtÃ¤nk bara
Ġmott aga
D e
re ga
3 00
ĠfÃ¶re stÃ¤llning
sb ank
Ġbeslut as
Ġhandling s
ri en
ĠÃ¶verty ga
ĠÃ¤r ligt
ĠB al
Ã¥ dets
Ġbrist erna
ĠbekÃ¤mp ande
ĠW ALL
Ġparti ets
Ġindustri ens
ĠfÃ¶ren at
Ġfortsatt e
Ġtillsatt e
Ġsl Ã¶jd
inkom sten
ĠUL F
ĠBar bro
ĠutfÃ¶r t
Ġamb iti
h opp
Ġ ningen
Ġo j
Ġbe gÃ¥r
Ġ193 5
ĠÃ¶nsk ligt
flytt as
Ġcirkul Ã¤r
I EL
Ġs unda
f na
ska ssa
ĠK en
ĠK ra
ĠUt red
Ġarbetar ne
ĠupprÃ¤tt hÃ¥llas
Ġhundra tals
ĠfÃ¶rbis e
l Ã¤r
Ġupp vakt
Ġmin derÃ¥
ĠtjÃ¤nst gÃ¶ra
Ġrelig i
2 000
Ġhand lÃ¤gga
Ġte ori
Ġsk Ã¶tas
ga f
ĠupplÃ¥t ande
ĠvÃ¤l komna
ĠpÃ¥skyn da
Ġmot arbet
hÃ¤l so
ĠSkell efteÃ¥
Ġide ologiska
f Ã¤l
sled ningen
va ara
Ġ191 2
g ripa
Ġdjur skydd
ĠmotsÃ¤tt er
lev nad
Ġmenings skilj
Ġkontor et
nÃ¤r ing
ĠÃ¤r ad
ro s
gar antin
Ġ190 8
Ġarrendat orer
Ġm id
Ġliv ligt
V E
Ġbered s
Ġuts edda
ĠD els
Ġfram komma
gÃ¥r dar
ĠfÃ¶redrag its
bo stÃ¤llet
ĠfÃ¥ng vÃ¥rds
AM MAR
Ġkontinuer ligt
Ġsam stÃ¤mm
Ġmen as
min sk
Ġstuden terna
ĠupprÃ¤tt ande
ĠsÃ¤lj as
Ġexperim ent
Ġ17 1
fÃ¶rb unden
kast ningen
p re
var on
Ġint ro
Ġmark nader
ĠtÃ¤nk ande
Ġdelega tionen
sl it
yr es
Ġangif na
Ġsam las
Ġkon seq
Ġstu derar
m ot
ĠHur uvida
ĠNord gren
in n
ĠO S
Ġmots Ã¤ttning
Ġjurid isk
Ġrig tig
ĠfÃ¶rnu ft
ĠhalvÃ¥r et
Ġuppf atta
gj ordes
Ã¤g gen
Ġstats och
ssam hÃ¤lle
Ġti otal
lÃ¶ ne
Ġkunskap s
ĠbÃ¶n der
k yrka
ĠH ern
g od
ĠsvÃ¥r igheten
ĠfÃ¶rsv unnit
ĠfolkomrÃ¶st ningen
problem et
Ġstats fÃ¶rvaltningen
ĠvÃ¤ sen
ven ska
hÃ¥ll are
ĠvÃ¤l bet
Ġegnahem slÃ¥n
hÃ¥ll s
Ġprofess ion
ĠvÃ¤lj are
Ġan bud
ĠL antz
ord fÃ¶rande
ĠtrÃ¤ff ats
Ġinrikt as
ĠfÃ¶rd yr
ĠN R
ĠnÃ¤r het
Ġavs att
Ġhufvudtit eln
__ __
Ġund andrag
Ġh ej
sl an
bet h
ograf i
Ġinval id
Ġfac to
ĠH J
ĠfÃ¶rviss ad
Ġp ligt
ĠsjÃ¤lv stÃ¤ndiga
ĠJo na
pet ens
en ligt
ĠSch weiz
Ġsjunk er
Ġstorle ken
ĠunderlÃ¤tt ar
vÃ¤g arna
vad rat
Ġpensions Ã¥ldern
Ġpati enten
ĠFl yg
ĠfÃ¶rete else
ĠAn ne
chef er
Ġbevilj ats
Ã¤g arnas
cep t
ĠlikvÃ¤r diga
rid ning
Ġmiljon erna
ĠNil son
Ġ191 1
ĠgrÃ¤ns drag
Ġavl opp
6 3
ĠEuropar Ã¥det
Ġin struktion
Ġskog sindustri
Ġ191 5
driv na
Ġanstal ten
ĠansÃ¥g o
ve sta
ĠverkstÃ¤ll d
hand lare
Ġregional t
ski Ã¶ld
Ġkritiser at
for dra
ĠlÃ¶ne graden
Ġinf anter
Ġbefog at
Ġprovinsi allÃ¤k
uro peiska
ĠohÃ¤l sa
Ġantag andet
ĠfÃ¤ll a
ja kt
Ġfri are
stat er
ĠZ etter
Ġargum entet
ĠfÃ¶rbig Ã¥ende
ĠtandlÃ¤k are
al iska
O B
Ġo vÃ¤sent
sut bildning
Ġdiskussion erna
ĠsjukskÃ¶ter skor
5 8
u na
Ġt red
far liga
ĠCh rister
d aler
ĠMo tioner
Ġid Ã©n
Ġbal tiska
teck nad
Ġblef vo
Ġsp ort
Ġsp elat
ĠhÃ¤rad sh
Ġdag ordningen
Ġord nat
on en
ĠM edan
ĠbedÃ¶m s
Ġmeddel ar
Ġbem Ã¶tande
Ġorganis erad
Ġs Ã¶rja
5 1
Ġg illa
Ġdyr bar
ĠHall en
ĠsmÃ¥fÃ¶retag are
Ġ17 4
ist ret
Ġkropp s
Ġkon ung
Ġbetyd liga
ĠMÃ¥n sson
Ġtra kass
ĠJ uni
sp ressen
ĠGUNN AR
Ġsk ym
Ġm ent
Ġd ry
ter ats
ĠSt ra
ĠANN IKA
vap net
Ġle ktor
ssam arbete
ĠsmÃ¤r re
fÃ¶rs Ã¶k
ck el
ĠvÃ¤r me
lÃ¤gg s
Ġs c
Ã© er
Ġrepresentant en
Ġo hÃ¥ll
Ġvar enda
ĠB rand
Ġbr yr
ĠupprÃ¶r ande
Ġv olym
vid d
ĠHÃ¤ls ing
Ġslut fÃ¶r
elat erade
OR S
Ġvattenbyggnads styrelsen
form erna
Ġjuster ing
u nal
Ġredovis ats
Ġregional politik
ĠBÃ¥ da
or ernas
ĠB ritt
Ġk Ã¤ll
Ġan k
ĠAv stÃ¥r
Ġanvis at
or in
Ġregerings stÃ¤llning
ĠlÃ¤mpliga st
Ġsank tion
Ġmigrations minister
Ġs vin
Ġin spekt
ĠmiljÃ¶m Ã¥l
Ġhel tid
bÃ¶r dan
Ġvetenskap lig
Ġmandatperi od
Ġutvecklings arbete
6 1
ĠLin de
tekn ik
Ġarbetsplats erna
Ġst rÃ¤nga
grÃ¤ns erna
ĠunderhÃ¥ll s
vÃ¤x ling
grÃ¤n ser
ĠMa ud
ĠBJÃĸR N
ĠfÃ¶re falla
av sett
Ġvid ga
Ġlott er
ĠavgÃ¶r andet
ĠAllmÃ¤n na
Ġfram me
hÃ¶r ighet
Ġskick ar
Ġlevnads standard
ĠL agen
Ġingen jÃ¶r
Ġjustitie utskottet
ĠSÃ¤rskil da
Ġaf styrk
ĠG ud
ĠJ A
Ġm Ã¶tas
ĠhÃ¤n ga
Ġrespek tera
ĠK RIST
Ġna tioner
skra vet
Ġbes in
ĠMin istern
ĠNy heter
ĠAl m
Ġaf gift
Ġmisst Ã¤nk
fÃ¶r ings
Ġsl opa
Ġutrikes utskottets
ĠHel ena
ĠEw er
ĠÃĦ fven
ĠsamhÃ¤lle liga
Ġfokuser a
tal en
Ġint ar
Ġin kon
ĠTrollhÃ¤tt an
Ġupp bygg
ĠG ull
ĠaflÃ¶ nings
sch yr
ssekreter are
Ġsned v
Ġk nyta
Ġav anc
ĠA ktie
ĠhÃ¤n derna
ĠbegrÃ¤ns ar
ssystem en
Ġelement arl
Ġh op
Ġrekry tera
Ġval d
ti dens
Ġbyg gl
ĠverkstÃ¤ll ighet
skul den
Ġo st
O U
ĠP oliti
ĠvÃ¤r digt
Ġundantag sfall
Ġpropor tionella
on om
ser a
Ġpsyk iskt
ĠframgÃ¥ngs rik
um s
Ġpriori terar
Ġmoral iska
ĠtillfredsstÃ¤ll a
Ġvir ke
Ġregistr ering
Ġkyrko her
Ġbete ende
gi en
Ġbygg ts
Ġdemokrati en
Ġutbildnings utskottet
ĠLik asÃ¥
Ġmi ste
fÃ¶r Ã¤d
Ġsam syn
Ġpar ent
Ġskar pa
Ġtillkom sten
ĠÃ¥ vÃ¤ga
Ġaf ton
ĠLed am
ven tion
Ġ193 1
Ġkem iska
ĠGUSTA V
ĠÃ¶ver gÃ¥r
ĠfÃ¶rfar andet
Ġuppman ing
b ostad
be handlingen
enhet erna
6 8
Ġvar ifrÃ¥n
ĠSÃ¶der qvist
st und
Ġb ytes
ut rym
Ġorim lig
p on
Ġbl od
ĠhÃ¶j ts
ĠÃ¥t aga
ĠI talien
Ġupptag its
vÃ¤rde na
rÃ¤d are
stal ta
ĠÃ¥ skÃ¥dning
Ġint rÃ¥ng
Ġrad i
ĠSund strÃ¶m
Ġregion erna
Ġkoncentr era
Ġan stÃ¥
ĠA t
ĠkaraktÃ¤r en
ĠfÃ¶rel Ã¤s
Ġkulture ll
Ġbju der
s varet
err ik
ĠFÃ¶r b
skri ven
Ġs va
ori et
Ġcivil departementet
Ġarbetspl atsen
ĠCe cil
ĠWo hlin
Ġfram lade
proc ents
ĠT ycker
ĠnÃ¤m ns
Ġkollektivt rafiken
Ġnon ch
Ġaf hjel
Ġmin eral
ĠarbetslÃ¶shets fÃ¶rsÃ¤kringen
Ġbygg de
ĠRe gional
ĠdÃ¶l ja
ĠorÃ¤ttvis or
Ġavst ode
O ve
Ġut komst
Ġdu ktiga
splan eringen
o U
Ġst Ã¤l
ĠupphÃ¶r t
Ġe der
Ġkoncess ion
Ġtr Ã¶tta
Ġmen n
Ġlag arna
sk y
Ġunderlag et
Ġexister a
g emang
ed am
ilj ett
ĠfÃ¶lj s
ĠCARL SSON
ĠlÃ¶ per
Ġbank ens
ĠO avsett
stad iet
Ġkomm enter
Ġindiv id
Ġsamord na
ĠGivet vis
Ġvid gad
Ġmajoritet s
gren ar
Ġstol ta
ĠF akt
Ġgrund lig
Ġsyss lat
fÃ¶rsÃ¤kr ingar
ĠMo tionen
ĠfÃ¶ror en
Ġservic en
m ottag
Ġf Ã¤der
Ġregering arna
Ġsexu ella
Ġbil ater
ĠklÃ¤m men
fÃ¶rsvars departementet
Ġl ust
Ġver ken
ĠpoÃ¤ng tera
ĠMo na
Ġtv ingar
plan ering
Ġkl Ã¤der
4 3
ĠvÃ¤r nar
ĠrÃ¥ varor
Ġdri fts
Ġminim i
Ġbe straff
Ġdel aktighet
Ġgenom gÃ¥tt
ĠtillÃ¤mp ats
Ġkraft fulla
Ġdyr bara
ocial a
ĠolÃ¤mp lig
Ġgag na
ĠJ ens
Ġbek Ã¤nna
b od
ĠÃ¤n drings
ĠbÃ¥t ar
bes par
st all
Ġerinra t
rapp ort
Ġbefor dra
Ġhjel p
Ġdoll ar
Ġm Ã¶tet
Ġengag era
Ġbefo gad
rimin al
ĠKarl stad
Ġbefunn its
m uni
ĠlÃ¤n ets
reg istr
ĠprÃ¶v at
ĠDal arna
Ġd rev
lag stiftningen
C B
ĠhÃ¶j des
Ġfril u
ĠlÃ¤rjun gar
Ġenergi politiken
Ġtitt at
sl o
Ġly da
ĠfÃ¶ren kl
Ġg ripa
ĠÃ¶ver vÃ¤l
ĠJ e
Ġkun der
Ġlant brukare
ĠM m
ĠÃ¥r hundra
vÃ¤g s
ĠfÃ¶rfatt are
Ġkrono egen
Ġg ens
Ġor on
AL D
ĠÃ¶nskemÃ¥l et
agn os
ĠfÃ¶ret rÃ¤da
ry ta
Ġavsl Ã¥s
Ġjordbruksf astighet
Ġtill satta
Ġut gjort
Ġmed ierna
ĠmotsÃ¤tt ningar
ĠWik lund
ĠKristian stad
y man
Ġunder officer
Ġkommun ist
bi bliote
ĠT omas
skil e
Ġaccep tabelt
ĠlÃ¶nsam t
A U
ĠW ir
Ġinteck ning
undersÃ¶k ningar
lys ning
ĠfÃ¶resl ogs
ĠBjÃ¶r klund
Ġreserver a
ĠjÃ¤tte bra
ĠnÃ¤mn vÃ¤rd
Ġh at
Ġrikt ats
Ġkrig ets
Ġav gavs
Ġord al
han teringen
Ġaccep teras
Ġomsorg s
Ġstam banan
ĠrejÃ¤l t
Ġfri sk
Ġbudget fÃ¶rslag
rÃ¤n der
ĠkÃ¶pe skill
sti ga
Ġbel Ã¶
ĠJ Ã¶r
ĠutfÃ¤r dade
Ġresoner ar
Ġv Ã¥d
ier ingen
ĠLjung skile
Ġaf gÃ¶ra
Ġelekt ron
ĠKon kur
Ġnord isk
fÃ¤lt et
ĠÃ¶verv Ã¤ger
V i
m iss
Ġram ar
Ġarbet arnas
ĠutstrÃ¤ck t
Ġovilkor ligen
ĠvÃ¤d jan
Ġned gÃ¥ng
Ġsyssel sÃ¤tta
ens on
ĠVol vo
vin ster
ĠstÃ¤rk as
k ret
Ġvuxen utbildningen
shjÃ¤l p
s skatten
Ġkun gÃ¶relsen
ĠR oman
fri d
ĠunderhÃ¥ll et
D IN
Ġbarn mor
Ġprognos er
olyck or
Ġreg emente
smÃ¥l et
k usten
ĠkÃ¶ par
Ġuppre pas
stÃ¥n den
process en
Ġslut na
en e
ed de
Ġhyr orna
arti klar
Ġut sÃ¤ttas
ĠvÃ¤n de
Ġn Ã¤pp
Ġutred ningarna
ĠnÃ¤ring spolitik
rin e
ra tionen
ĠB an
ĠIn ter
jen st
Ġincit ament
ĠangelÃ¤g enheten
Ġci terar
Ġtv ister
fÃ¶rsvar ets
ĠS an
ĠkÃ¤n nas
Ġafgif vits
y skland
Ġupp stod
Ġmoti ven
ĠmÃ¥ngf alden
Ġremissinstans erna
Ġtimmar s
ĠfÃ¶rsik tigt
kt ryck
Ġex amen
regl erande
ĠÃ¥tervÃ¤n da
Ġdoms ag
ĠJÃ¤mt lands
s Ã¤
skl imat
ĠOtt o
yrk andet
Ġafgif va
ĠJona sson
Ġor der
Ġpl att
ĠfÃ¶rfar a
Ġautomobil skatt
Ġny byggnad
Ġjustitie ombudsman
gr under
Ġproblem atik
arbetslÃ¶s het
ar g
Ġvil a
Ġobe h
Ġsk am
ĠS Ã¤
gÃ¶r elser
mo dell
Ġsn Ã¤
Ġtillhanda hÃ¥lla
Ġdrabb at
ĠkÃ¤nsl or
Ġsammanslut ningar
Ġbeh Ã¤r
ĠtillhÃ¶r de
ĠUkra ina
ĠÃ¥sid os
Ġer sÃ¤ttare
Ġinne hav
ĠI r
Ġtryck ta
Ġstor stÃ¤derna
be vis
Ġgra tis
Ġe v
Ġiden titet
Ġskill naderna
Ġhyr esl
anvÃ¤n dning
ĠlÃ¤g en
be ck
Ġ19 00
kom sten
Ġstri den
ĠIngem ar
ĠT CO
Ġbem Ã¤rk
ĠpÃ¥pek as
Ġavvis ar
ut an
Ġenerg iska
Ġju rister
kÃ¤nn es
teck ningen
sti der
ĠlÃ¤g st
ĠoerhÃ¶r d
Ġunder hÃ¥lla
ĠReser vationer
ĠSkol verket
utslÃ¤pp en
Ġuteslut a
Ġbeto nat
ĠH u
ĠTillfÃ¤ll iga
Ġkall at
Ġskul den
ĠpÃ¥kall at
ĠÃ¶fver enskomm
ĠdÃ¤r stÃ¤des
ĠÃ¤ndamÃ¥lsen ligt
Ġunder grÃ¤
Ġfram b
ĠhÃ¶ll s
ĠHÃ¶rn lund
ĠmÃ¥nader s
ĠfÃ¶r g
Ġpolitik erna
ĠnÃ¤st fÃ¶re
Ġformul eringen
sintress e
ĠfÃ¶rord ningar
ĠstÃ¤n dig
ĠÃ¶vervÃ¤ga s
Ġst ram
ĠhÃ¶ger partiet
ĠHel Ã©n
Ġl Ã¶j
p ress
ru bb
Ġlo var
gr unda
b oende
Ġst adens
par k
ĠOhl on
Ġbl in
ĠW ed
ĠvÃ¤nster partiet
ik ter
Ġbefin nas
ĠWenner fors
ĠFÃ¶lj den
Ġtal ande
be gri
Ã¥ la
ĠrÃ¥ ka
ĠR om
ĠjÃ¤mstÃ¤lld heten
ĠÃ¶ des
ĠA ug
ĠVi r
Ġinkomst och
Ġregerings fÃ¶rslaget
ĠgÃ¶r omÃ¥l
v ir
ari at
ĠinnebÃ¤r ande
Ġref erat
ĠPÃ¥l sson
Ġut gÃ¶rande
Ġall esam
sb ef
ĠupprÃ¤tt hÃ¥llande
Ġutbetal as
ĠfÃ¶rnÃ¤m sta
ĠGrÃ¤nges berg
Ġk vÃ¤
Ġpapp ers
ĠvÃ¤lbet Ã¤nkt
w e
Ġefter krig
Ġform ell
Ġin ven
ĠK JELL
ĠsjÃ¤lv stÃ¤ndigt
Ġrek ord
ĠlÃ¥ng samt
ver t
ĠH Ã¤n
nat ur
ĠO fta
ĠvÃ¥l dt
Ġlik vid
Ġarbetsmarknads styrelsen
Ã¶r ande
Ġmed gav
Ġstad gade
ĠkÃ¶r kort
Ġradik alt
ĠRisk en
os a
ĠÃĸfver lÃ¤ggningen
ĠStat skontoret
Ġeg ande
stad ga
ĠRÃ¥ stock
Ġriktig heten
at al
Ġdrag as
Ġut skyl
ĠSam uel
Ġmed arbetare
ĠhjÃ¤l pen
ĠpÃ¥pek ande
Ġskjut s
fly tta
Ġkraftig are
ĠnÃ¤pp eligen
Ġq vin
Ġkyrkom Ã¶tet
or Ã¤k
ĠR ubb
min skning
Ġreform ering
ĠjÃ¤mfÃ¶relse vis
Ġfol ken
ĠutmÃ¤r kta
Ġstrateg iska
Ġf Ã¶tt
Ġbrott sl
Ġelever nas
lÃ¤k are
Ġkas ern
ĠAndr Ã©n
Ġfram stÃ¤lt
ĠfÃ¶rverklig as
vÃ¤r m
sek reter
Ġavslut ningsvis
inÃ¤r ingen
oritet en
Ġbeg riper
struk tioner
ĠnÃ¤r varo
ĠT ransport
Ġ17 6
ĠKam rarnes
sl Ã¤
Ġbrott mÃ¥l
ĠframfÃ¶r des
ĠlÃ¥n et
ĠBl ir
Ġbud skap
Ã¤tt er
Ġf Ã¤ste
sfÃ¶r hÃ¥llandena
ĠstrÃ¤ck er
Ġark iv
ĠSyd ow
Ġvill a
ĠDer emot
Ġtillsyn en
I V
p lex
Ġvid rÃ¶r
Ġkred iter
Ġdag ars
Ġkart lÃ¤ggning
ĠNÃ¤rings minister
ĠÃ¶ver vakning
yt as
Ġsed van
g eman
ĠaffÃ¤r en
ĠfÃ¶rÃ¤ldra fÃ¶rsÃ¤kringen
ĠE gent
ĠfÃ¶renk ling
ĠH oll
Ġgro vt
ĠR i
Ġdjur en
ĠsmÃ¥ bruk
Ġegenskap er
ĠTH OMAS
nings nÃ¤mnden
ĠgenomfÃ¶r de
Ġmarknads fÃ¶ring
Ġskri fter
ĠÃ¶versyn en
ĠuppfÃ¶r da
ĠJOH N
ĠnÃ¤stfÃ¶re gÃ¥ende
F i
ĠinstÃ¤m t
Ġrekommenda tion
m m
Ã¥r ingar
Ġbrott et
Ġinneha vare
Ġna z
Ġinvand ring
Ġpsyk isk
dist rik
ĠomsÃ¤ttnings skatt
ĠframtrÃ¤ dande
ĠEwer lÃ¶f
ĠÃ¶ d
ĠS Ã¶r
ov et
Ġintress era
Ġgro v
ĠdomÃ¤n styrelsen
Ġkommunalskatt elagen
pp a
Ġprodu ktiva
ĠGod kÃ¤ndes
ĠPro tokoll
Ġhittills varande
Ġutrednings arbetet
ĠmÃ¤rk er
ĠBerg h
f ram
ĠanfÃ¶r andet
ĠEk strÃ¶m
ĠGÃ¶ran sson
f ess
Ġled sen
ĠÃ¥ter kall
Ġ17 7
Ġplan eras
ver s
Ġd og
Ġsom liga
ĠÃħ SA
e a
ĠI sa
ĠÃ¤ ta
ĠberÃ¤k nar
Ġperson erna
Ġregering skansliet
vik en
Ġdiskuter ades
Ġkopp ling
Ġm Ã¤ns
ĠK ru
mark er
fÃ¶r draget
ost Ã¤m
Ġpati enterna
Ġut mÃ¤t
vis st
Ġsj un
Ġang ivet
Ġintress ena
vilj an
ĠAhl mark
ĠRoman us
ĠfackfÃ¶renings rÃ¶relsen
Ġsammanslag ning
ĠRubb estad
Ġr it
ss edlar
ott e
ĠbegÃ¤r es
ĠSI DA
Ġrelev ant
sÃ¤tt andet
Ġhyr or
Ġutb red
ob jekt
els att
Ġmom sen
Ġskick lighet
Ġnord iskt
ĠKonstitutions utskottets
ĠnÃ¤mn des
ĠfÃ¶rsvars departementet
Ġbet viv
Ġutl ands
Ġsektor er
ĠCar ina
ĠKoppar bergs
v ikt
Ġgeneraldirekt Ã¶r
Ġsvar ta
ĠÃĸ ste
ĠmÃ¤rk liga
ĠkÃ¶p are
Ġlug nt
Ġ17 8
pÃ¥ verkan
ĠJord bruk
A D
Ġtr yg
ĠFÃ¶r en
ĠÃ¥stad kommande
Ġhy ll
son s
skri sen
ĠAND RE
k ust
Ġman tals
Ġdy nam
fÃ¶ren ingarna
Ġantyd t
Ġb uller
Ġdess fÃ¶rinnan
Ġor kar
Ġarrendat orn
ĠStockholms regionen
Ġoro vÃ¤ckande
Ġfastighets Ã¤gare
Ġet iska
ĠvÃ¤rnplik ts
Ġetabl erings
Ġ186 2
hem man
Ġslop ande
t Ã¥g
Ġb itt
fÃ¶r delningen
sk ull
ĠfÃ¶ret rÃ¤de
Ġ187 5
ĠbÃ¶n derna
ĠjÃ¤rnvÃ¤g arna
Ġuteslut et
t ens
ver ksam
Ġtag es
Ġlandsting ens
Ã¤g ar
ĠfÃ¶rdel aktig
Ġinter n
amer ika
Ġin rikta
Ġres olution
sfÃ¶r et
Ġskol ministern
ĠBerg gren
Ġkomplic erad
Ġb undna
Ġdu ger
ĠframgÃ¥ngs rikt
ĠbehÃ¶f de
Ġafdelning skontor
ĠomprÃ¶ va
ĠH ad
far ten
sÃ¶k ning
hjÃ¤lp s
Ġr id
Ġlegiti ma
ĠBry ssel
Ġmo de
Ġfor um
Ġkam panj
ĠfÃ¶rsvars minister
ĠSkara borgs
ĠutfÃ¶rs el
Ġinbl andade
Ġs vÃ¤n
ĠlÃ¤ng st
Ġam muni
Ġi v
Ġst Ã¶tta
Ġsl Ã¶
ĠsmÃ¥ hus
ĠMARGAR ETA
Ġp an
Ġpriori teras
Ġbeteck na
ĠForss ell
Ġo klart
Ġl asarett
ĠfÃ¶rv ir
ĠmissfÃ¶r stÃ¥
ĠIsrael sson
ĠÃ¥ lÃ¤gga
Ġvil t
ĠgenomfÃ¶r da
ĠBo den
ĠlÃ¤rar utbildningen
bruket s
spolis styrelsen
ĠM olin
ĠfÃ¶ren kla
Ġbeto nade
Ġrepet itions
departem ent
Ġbostads ministern
ĠbetÃ¤n ksam
Ġskaff at
Ġriktig are
skÃ¥d lig
ĠEgent ligen
Ġo ut
skra ven
ĠfÃ¶re stÃ¤llningen
Ġpast or
ĠsvÃ¥r ligen
ĠrÃ¤n tes
ĠÃ¶verlÃ¤m nas
ublik en
Ġaf gifter
Ġbe skatta
ĠlÃ¤mp lighet
Ġsympati er
h ard
ag d
ĠfÃ¶re stÃ¥ende
Ġlov ade
Ġaf stÃ¥
og e
Ġhel heten
ĠÃ¶ver gÃ¥ngen
Ġkomplett eras
ĠstrÃ¤ng are
ĠM ell
Ġafs igt
sledam Ã¶ter
duk tion
bel ast
ĠÃ¥t stram
ess im
Ġkost at
stÃ¤l de
Ġd otter
ĠH Ã¤ll
Ġre ste
vÃ¤r der
ĠhÃ¶j ningar
Ġrimligt vis
Ġframkall a
ĠHÃ¤r vid
ĠA sk
Ġpost verkets
ĠSy rien
Ġskatte int
ĠIn vester
ord ningens
fall ande
ĠBet Ã¤nkande
Ġdefin ition
b rink
ĠbestÃ¤m de
Ġparti motion
Ġfattig vÃ¥rden
ĠlÃ¥ng tid
Ġhvil ande
Ġhandling splan
inkomst erna
parlam entet
B L
ĠsmÃ¥ fÃ¶retagen
re gi
HL IN
prom emori
lÃ¤gg andet
Ġfunk tioner
Ã¤ro verk
Ġok ej
ĠL Ã¤k
Ġsiff er
OL F
ĠP r
Ġstraff lag
sh am
ĠÃ¥rtion den
ĠR N
Ġbesynner ligt
Ġfund ament
sk jÃ¶l
Ġint rÃ¤tt
bidrag en
ĠE ES
Ġdel ning
direktiv et
ĠÃ¥ter gÃ¥ng
in till
sk rÃ¤
Ġbyg derna
Ġsyss elsatt
ĠÃ¥lder n
Ġprodu cent
Ġrekry teringen
Ġinno va
Ġhant verk
ĠP en
Ġder under
Ġarbets miljÃ¶n
ĠSam hÃ¤ll
Ġsk o
sm et
Ġtunn land
y ta
Ġi rr
tit eter
ĠKl imat
n esl
ak on
ĠR emiss
Ġunders Ã¶kt
ĠDem okra
Ġsvag t
Ġsam fÃ¤ll
ĠBr un
Ġsu per
ĠSta ff
ud i
Ġarbetsgivar avgiften
ĠDaniel sson
Ġfolk hus
ĠlÃ¤ro verks
Ġarbet ets
vis ande
og en
ci r
pa ck
s hus
ĠupphÃ¶r ande
ĠfaststÃ¤ll as
spri set
ĠhjÃ¤r tat
Ġlagtex ten
ĠD isk
Ġbel yst
ĠsÃ¤n da
ĠlikvÃ¤r dig
rÃ¥ dens
ĠEuropar Ã¥dets
ĠM al
ĠM edel
Ġperman enta
skonfer ens
Ġarbetar rÃ¶relsen
flytt ningen
ĠN Y
Ġnytt an
Ġobek ant
ĠKi runa
ĠKullen berg
ĠV enner
ĠfÃ¶ren ar
ĠGre en
Ġhustr un
Ġdess e
Ġned Ã¥t
sin n
ĠÃ¥lder stillÃ¤gg
ĠMAG DAL
ĠMAGDAL ENA
Ġad ress
ĠEM U
at a
Ġmassmed ia
Ġval fÃ¶rrÃ¤tt
Ġmiss handel
Ġtolk ningen
Ġ190 5
Ġ........ ...
Ġeg de
ĠSk eg
ĠFal un
Ġg ator
Ġplats erna
jÃ¶r n
ĠmÃ¤ ta
ĠsammantrÃ¤ dets
ĠMÃ¥l et
Ġoj Ã¤mn
ĠanfÃ¶r tro
Ġos Ã¤kra
sbygg nader
ĠKullenberg storp
Ġk ub
ĠvÃ¤ck er
ĠberÃ¤tt ade
ĠSkeg rie
Ġtillgodos er
H N
ĠHÃ¤r pÃ¥
arti kel
ĠfÃ¶rvÃ¥ na
Ġel va
on n
Ġsystem atiskt
Ġkvinn lig
Ġmatem atik
y ller
stÃ¤ll en
ĠU D
ĠberÃ¶r as
ĠfÃ¶r sk
Ġutred d
eri erna
Ġutveckling slÃ¤n
ĠÃ¤mn es
b risten
Ġf rÃ¶
Ġsk Ã¶rd
Ġtack samma
Ġlem nade
ĠbrÃ¶ ds
Ġmaxim i
Ġm yn
Ġom stÃ¤llningen
ans vÃ¤rd
ikt ning
Ġkvinnor nas
de ras
Ġbeg ripa
SS E
ĠanstÃ¤ll das
Ġp essim
ĠÃ¶ ster
Ġlyck lig
Ġut hÃ¥ll
ĠfÃ¶re skriv
Ġgenom gÃ¥
Ġparlam ent
Ġrek re
Ġpoj kar
Ġan gav
ĠrÃ¤d sla
Ġ187 3
eg el
ĠfÃ¶rny bara
ri pas
ĠSJ Ãĸ
Ġkar ens
Ġlever ans
ĠBostad s
Ġp il
Ġidrotts rÃ¶relsen
ĠRosen gren
ĠStaff an
ĠÃ¶ver fÃ¶ra
ĠfÃ¶re gripa
Ġos Ã¤ker
T H
ĠK r
Ġbes Ã¶kt
Ġent us
ĠM Ã¥r
Ġregerings fÃ¶rklar
Ġjurid iskt
Ġ190 6
Ġutvid gas
f re
ĠjÃ¤m lik
ĠupphÃ¤ fvande
ĠpÃ¥min ner
vis ionen
ĠÃ¥tn juter
Ġbekymmer samt
Ãħ R
in ten
t rÃ¤ff
an talet
Ġskad ar
Ġafs Ã¥g
Ġfunktions ned
z a
ul f
ĠstÃ¶d omrÃ¥det
Ġoff ra
Ġliv ets
ĠmÃ¤rk lig
Ġtyck tes
Ġinkom sttagare
Ġtillgod orÃ¤k
ĠbehÃ¶v des
ĠtilltrÃ¤ dde
fatt ningsvis
Ġutred are
Ġstri da
ĠvÃ¤d jar
v ade
Ġbe stÃ¤llningar
ĠE N
ĠfÃ¶rsvars utskottet
Ġparlam entet
Ġlab orat
Ġparent es
Ġtr Ã¤nga
i ven
ĠprÃ¶ fva
ĠsÃ¤ll skap
Ġhot et
Ġann ans
ĠBIRGIT TA
m alm
Ġremiss debatten
ĠhÃ¤v dade
Ġungdoms arbetslÃ¶sheten
Ġv Ã¤ger
ĠS juk
Ġsl Ã¤
ĠA fven
Ġdom aren
ĠgÃ¤r ning
ĠskÃ¤r gÃ¥rd
ti da
Ġnytt iga
K VIST
Ġav steg
Ġindustri ell
I AN
Ġsamt ycke
demokra ti
pr Ã¤g
Ġbeg yn
ĠuppbÃ¶r ds
O G
ĠS mÃ¥l
Ã¤m ne
skommun erna
ĠKil bom
ĠK rig
fÃ¶r Ã¤l
Ġrespe kten
Ġtrakt at
s g
ĠpÃ¥ gÃ¥
skon f
Ġan visning
Ġres olu
ĠÃħ ng
Ġupprik tigt
es eminari
Ġkammar es
ĠfÃ¶rne kas
ĠomvÃ¤rl d
Ġpar tig
Ġvitt nen
ĠÃ¶v ningar
ĠberÃ¤k nats
Ġob ill
ĠÃ¶ver fÃ¶r
Ġbygg naden
Ġkultur utskottet
sel e
ĠutlÃ¤n ningar
ĠfÃ¶rstat ligande
ĠutstrÃ¤ck a
Ġhyres rÃ¤tter
Ġmat ch
n orna
fv ud
Ġskilj edom
ĠtÃ¤ck ning
Ġextrem t
ĠÃ¶ver flÃ¶
Ġverksamhet s
Ġbesl ag
Ġecklesiastik ministern
ĠRO S
Ġand liga
ĠFÃ¶ret ogs
Ġhal f
Ġpresenter ades
Ã¶ da
Ġnat ura
Ġstabil isering
ĠB rott
ĠT OR
Ġfunn os
Ġunderst rÃ¶k
Ġgrundlag ens
Ġupp seende
Ġhem lighet
ik op
utt al
Ġ18 2
politik er
D R
fv at
ĠOs wald
Ġelektri fi
Ġc ancer
sl am
Ã¤ck ande
Ġmill ion
ĠFal kÃ¶ping
Ġutesl uter
ĠgÃ¤l den
ĠinbÃ¶r des
if iera
ru s
Ġna tionen
ĠfÃ¶retag ar
ĠRe gl
Ġbefor dran
i erar
Ġpra tade
Ġobe hÃ¶r
ĠdÃ¶r ren
ĠB ord
ĠrÃ¤tt igheten
Ġkonsum enternas
ska da
ĠbestÃ¤m des
rÃ¤n ta
Ġg inge
fÃ¶r delning
Ġarbetsmarknads utskottet
ĠRiks gÃ¤lds
Ġfinan splanen
ĠHalm stad
Ġav given
till gÃ¥ngar
ist ra
Ġuniversitet s
ĠkÃ¶p t
Ġsk olk
Ġhem men
Ġint Ã¤kt
ĠlÃ¤r om
Ġo kl
lin d
Ġstarka ste
Ġborts er
Ġlikad ant
Ġvar ier
av Ã¤l
ĠlÃ¤k arin
Ġbred d
berÃ¤k ning
Ġtill bÃ¶r
Ã¤l ven
Ġbl ind
Ġregl erar
ĠLund qvist
Ġklag a
i erade
p ot
Ġjobb skatte
vÃ¤r me
ĠledamÃ¶ter s
Ġfattiga ste
Ġstudi est
ĠsjÃ¤lvklar a
Ġut vÃ¤gar
ĠD a
ĠL ond
ĠomÃ¶j ligen
ĠtrÃ¤ng ande
Ġdecentral isering
Ġupp komna
Ġmedlemmar na
Ġvakt mÃ¤stare
ĠupplÃ¥ ning
Ġseri Ã¶st
skomm ission
Ġlov at
UL T
ĠhushÃ¥ll en
Ġglob alt
ĠupptÃ¤ck a
il a
ĠT vÃ¤r
ĠdrÃ¶j er
Ġorganisator iska
s ocial
Ġfamilj erna
Ġhundra t
Ġkriter ier
ĠlÃ¤nder nas
Ġ45 0
ele ver
ĠÃĦl v
fÃ¶r bruk
Ġungdom ens
EL DT
Ġref lek
? Â»
Ġs cen
Ã¤n ning
skriv ningar
forsk ningen
Ġtill verka
vetenskap liga
v ing
Ġannan stans
Ġk Ã¤mpar
ĠHÃ¶g sta
Ġk in
Ġflexi bilitet
Ġutsik ter
ist Ã¥nd
Ġeffektivis era
ĠtrovÃ¤r dighet
ĠlikstÃ¤ll ighet
Ġingri p
ĠvÃ¤ p
ĠÃĸste uropa
san lÃ¤ggningar
sparti ets
erad t
Ġav sÃ¤tta
itet s
Ġkomplic erat
Ġrov djur
Ġom vÃ¤n
skal an
person er
ĠH eck
ster ing
Ġaccep ta
Ġstrid ande
ĠÃ¥terhÃ¥ll samhet
sam lingen
Ġlastbil ar
Ġobserver a
Ġm Ã¥r
ĠK riminal
Ġha vet
dr et
Ġregering spartiet
Ġno terat
Ġrestitu tion
Ġexper tis
ener gi
Ġre ell
ĠL iv
Ġgenom slag
Ġfast sl
af giften
ĠFinans departementet
ĠdÃ¤ri bland
ĠupprÃ¤tt as
ĠV et
ĠE NG
Ġam orter
ĠDÃ¤r utÃ¶ver
Ġkl ubb
Ġbro schyr
ĠMon ica
b orda
ber Ã¶rda
Ġformul eringar
ĠK in
Ã¤s tt
Ġstatsbidrag en
Ġomtal ade
ĠHeck sch
Ġom bord
ĠF ort
6 9
st Ã¶t
Ġsk ug
Ġarbetsgivar avgifter
Ġabsolut a
ĠJose f
Ã¤n derna
ss l
fÃ¶r hÃ¥llande
ock er
Ġegendom liga
ĠFakt um
der i
7 4
gÃ¥ng na
Ġadministra tionen
reger ingens
ĠÃ¤kten skapet
Ġrubb a
strate gin
ĠL A
ĠJ AS
ER ST
Ġt em
ĠSand berg
I n
dr es
Ġstyr elsens
rust nings
k Ã¶
ska dade
rÃ¤k ningar
Ġvi t
Ġvid makt
ĠG Ã¤ll
Ġan mo
Ġvil sel
ĠfÃ¶rord na
Ġbetal at
skommun er
ir ig
ĠY geman
skri f
Ġafseende t
ĠhÃ¤ p
Ġbek osta
Ġentrepren ad
Ã¤st ra
Ġbil dande
Ġarren del
Ġsl it
Ã¶s and
ĠUL LA
mar ken
AT T
ĠJoh anson
Ġr Ã¶k
Ġst Ã¤v
Ġc ig
Ġva p
lik ter
ĠvÃ¤g ledning
ĠsÃ¤m sta
Ġin sp
Ġtulltax a
ĠCecil ia
m Ã¶te
v andling
Ġstad gan
Ġskade stÃ¥nds
Ġakadem iska
ĠFÃ¶r hÃ¥llandet
sut red
ĠhÃ¤rad s
Ġstraff et
Ġhandels departementet
j ul
Ġmed ier
ĠupprÃ¶r d
Ġuppfost ran
Ġannon ser
Ġbev itt
Ġstudera t
hand lar
ĠfaststÃ¤ll t
ĠskÃ¶ts el
aktie bolag
vin ning
Ã¤n t
yn punkt
ÃĦL L
Ġh otell
Ġtill stÃ¥nds
Ġprogress iv
Ġschabl on
Ġst rikt
ĠrÃ¥d givande
sproblem et
nÃ¶den heter
hÃ¥ll na
Ġpersonal fÃ¶r
ĠframhÃ¥ll as
sl av
ĠLag rÃ¥det
ĠpÃ¥kall a
Ġambass ad
jÃ¤m nings
ĠSund in
Ġst er
ĠFÃ¶rsvars minister
Ġutbygg d
Ġsam verka
ek om
Ġparti s
ĠefterfrÃ¥ gar
Ġarbet ena
Ġ18 3
Ġrepresent anterna
Ġanst Ã¤l
Ġbas is
Ġindividu ell
ningsan fÃ¶rande
Ġverk stÃ¤der
upp gifterna
ĠberÃ¤k nad
Ġskick as
Ġst rÃ¥l
sl Ã¤r
Ġsedelut gif
ĠDam berg
j Ã¶d
ĠN ic
Ġkompet enta
ĠfÃ¶rsÃ¤m ringar
ĠF ager
ĠotillrÃ¤ck lig
Ġskarp t
h Ã¤v
Ġjor dens
ĠVir gin
e ktorn
v agnar
Ġav vecklingen
Ġom vÃ¥rd
Ġutrikes departementet
lÃ¤nder nas
rek ry
Ġinno vation
ĠLÃĸF VEN
ĠT R
Ġob jekt
ĠstrÃ¤ var
Ġsti fta
ĠKru sen
h Ã¤f
Ġkolle ga
Ġlo va
ĠbenÃ¤g en
Ġav skrÃ¤ck
ĠR OT
Ġbring as
ĠfÃ¶r akt
Ã¶v ningar
o kt
Ġoro ar
Ġut bud
ĠhÃ¤ls ar
ĠInterna tionella
ĠKomm ittÃ©n
Ġmul ti
Ġhv em
Ġsyft ade
Ġinrikt ad
Ġutskottsbet Ã¤nkande
Ġriksdagsledam ot
ĠbehÃ¶ fvas
Ġant as
tekn iska
ĠHammar skjÃ¶l
be grepp
ĠW ahl
Ġm Ã¤rkt
Ġpre ven
ĠolÃ¤mp liga
Ġin vent
syk iat
Ġenor m
kapital et
ĠlÃ¤karin tyg
AR INA
ĠmÃ¥ nads
Ġha ver
Ġk usten
Ġav fÃ¤r
ĠÃ¤ skade
Ġdat um
anstal terna
stÃ¤ll des
Ġregering spartierna
ĠHel t
ĠS UND
du g
Ġmoti vet
7 00
bet ala
sav talet
ĠInd ien
syn punkt
Ġstund om
Ġg Ã¤st
jÃ¤n stem
Ġkam rar
Ġantag en
ĠHolm gren
ĠinfÃ¶r d
sfÃ¶r bin
ĠFÃ¶rs var
sled are
ĠÃ¥terfin nes
in ar
Ġst ack
vÃ¥rd ande
Ġsky lla
ĠrÃ¤tt fÃ¤r
ĠÂ £
Ġbehand lad
eck en
ĠBl om
procen tig
Ġbedriv es
lÃ¶s het
ut byte
Ġinfl ations
ĠAvs ikten
Ã¤tt s
ĠLond on
Ġkonstat erande
Ġuts igt
Ã¤ss igt
ĠH ED
ĠbesvÃ¤r a
ĠfÃ¶rvÃ¤rvs arbete
Ġkapitalis tiska
Ġan f
ĠRU T
Ġsk Ã¤m
ĠÃ¶ver ta
IL LA
ĠfÃ¶rutsÃ¤ttning slÃ¶s
Ġlandt bruks
Ġgrunda s
ĠSverigedemokraterna s
Ġsk al
ĠV I
Ġskogs Ã¤garna
ĠOhl sson
ĠfÃ¶rfaring ssÃ¤tt
ĠKrusen stjerna
ĠV o
Ġpar k
Ġbr ut
Ġavvis ande
ar v
Ġm m
Ġom nÃ¤m
ĠCarl strÃ¶m
ĠRe g
ĠmÃ¥l medvet
ĠhÃ¤lso vÃ¥rds
Ġkyrk ostÃ¤m
ifvel aktigt
ĠN ylander
Ġcenter partiets
ĠGUSTAF SSON
7 3
at ri
ĠPeter son
stjÃ¤n sten
Ġafse enden
ĠL yck
stÃ¤ll ts
Ġarbetar klassen
ĠhÃ¤r i
Ġvuxen utbildning
v if
Ġ 00
ĠÃ¥r ligt
ĠR ed
bal anser
ĠBJÃĸR K
Ġrik sfÃ¶rbund
Ġaf tal
Ġspel regler
ĠTobi sson
u ba
ak tioner
Ġlef va
ĠVer k
kostna den
ĠReuter skiÃ¶ld
ĠSt Ã¥l
ĠinrÃ¤tt ningar
Ġti l
Ġbek l
ĠWall mark
Ġorik tig
ĠSahl in
sta tionen
ĠvÃ¤l dig
Ġager at
Ġlo ss
ĠtillvÃ¤g agÃ¥ng
Ġo likhet
Ġd iver
enter ing
Ġkompet ent
Ġoft are
regl ementet
ĠfÃ¶rbÃ¤ttra ts
ut jÃ¤mning
ĠC eder
ĠlÃ¤nsstyr elser
Ġvunn its
Ġin betal
Ġan im
Ġbek vÃ¤m
Ġregi m
ĠB A
skriv ningen
mak ter
sam hÃ¤llet
Ġty sk
ĠVÃ¤n er
Ġutbildnings minister
ĠerkÃ¤n da
ĠY ng
Ġsakkunnig e
Ġstorleks ordning
Ġterror ism
ĠKen net
Ġa x
Ġkan hÃ¤nda
Ġpri oritet
Ġ24 0
Ġskap ats
ĠElisa beth
Ġfull mÃ¤ktiges
ĠomfÃ¶r delning
ar ter
Ã¶ver skridande
Ġmak ar
Ġbrottsoff er
la usul
i j
Ã¤k terna
Ġkommunal styrelse
ĠhÃ¥rda st
ĠStats utskottet
ĠtrÃ¤ng sel
Ġt s
sa ka
ĠÃ¶pp nas
in der
Ġm ur
Ġsyn ts
jÃ¤ nat
Ġyn gl
Ġallvar ligare
Ġinled de
sklass er
ĠlÃ¤ros Ã¤ten
ĠKennet h
k ron
Ġseg rega
Ġo en
skomm issionens
j Ã¤ll
Ġtill bak
ĠVis by
fly kt
ĠikrafttrÃ¤d ande
st ro
Ġsatt es
ĠfÃ¶rÃ¤ldr arnas
Ġmo gen
Ġ18 1
Ġsats as
bes Ã¶k
ĠThor sson
Ã¶ ck
Ġk avall
Ġkrafter na
ĠWest man
Ġfolk skolor
Ġtveksam ma
ĠVÃ¤rm lands
ĠlÃ¤n da
ĠunderrÃ¤tt ad
ĠB ag
straff et
ĠÃ¶pp nande
Ġim portera
et iska
st rÃ¤ng
ĠK at
Ġskatte politik
vÃ¤x ten
Ġet ik
ĠKvin nor
u nala
Ġkronor na
Ġsamman jem
ĠanstÃ¤ll ningar
Ġbevar as
7 1
sp Ã¥r
ĠSt ock
rÃ¤tt erna
ari en
Ġpra tat
ST EN
ĠfrÃ¥ge stÃ¤llningar
distrik ten
Ġ190 1
f Ã¶d
Ġav grÃ¤ns
ĠN Ã¤sta
Ġarbet aren
Ġres en
Ġbrott sfÃ¶rebyggande
Ġprejud ikat
Rik sdagens
ĠW ei
ĠVil ket
ĠMÃ¥ brink
Ġparall ell
ĠG Ã¶ta
is ation
Ġny bygg
Ġgran nar
Ġutform at
ĠutlÃ¤nd skt
ĠfullfÃ¶lj as
Ġfunktionshin der
Ġbebygg else
Ġom t
styr elser
Ġimp oner
Ġentus ias
Ġbostads fÃ¶rsÃ¶rjningen
fisk et
ĠpÃ¥tag lig
Ġfolkskol el
Ġskog sindustrin
ĠlÃ¥n tag
Ġkriminal itet
ĠfÃ¶r sp
Ġav visa
Ġuttal as
Ġsats en
yss el
Ġutrym met
ĠGU N
Ġmodern t
ĠMellan Ã¶
Ġintress enter
ĠfortsÃ¤tt ande
Ġutrikes politiken
Ġan fall
ĠfÃ¶rt rÃ¤ff
ĠfÃ¶redrag ningen
ĠsÃ¤ son
ĠjÃ¤rnvÃ¤g ars
ĠnÃ¤rings idkare
spunkt en
i det
ri el
Ġny anser
ĠvÃ¤ stra
ĠGÃ¤vle borgs
ĠhÃ¶g tid
ĠDebatt er
ĠG ab
ĠJohansson s
te fter
ighet erna
Ġfa der
Ġflyg platser
Ġkollektiv an
ĠbehÃ¶v ligt
k ostnad
Ġin lÃ¶sa
ĠÃħter igen
arbet arnas
till syn
ĠTor e
rimin ering
in delningen
Ġd ol
ĠB oman
ĠfÃ¶rs Ã¤l
Ġomk ostnader
ĠolÃ¤genhet erna
ĠfÃ¶rdu bb
pp arat
Ġin lÃ¶sen
ĠN Ã¤s
ĠhÃ¥ll s
peri oden
kri sen
Ġprof il
ĠEl ver
Ġfossil a
u ch
Ġg iss
tag andet
ĠfÃ¶rb unds
giv as
Ġbag atell
Ġv ann
ĠfÃ¶r Ã¥l
tta x
ĠWall enberg
ĠbegÃ¥ s
inav iska
Ġi kl
ĠSÃĸ DER
Ġdomstol ens
ĠfÃ¶rfl utit
fÃ¶r oren
ft on
trÃ¤ det
/ ;
Ġvar med
Ġl ocka
ss er
ĠV Ã¤ste
Ġon da
Ġutsatt s
ĠS aken
ĠvÃ¤l jas
Ġord nade
Ġnorr land
ĠAn ton
ĠÃ¶fver flÃ¶
ĠLin dahl
ĠfÃ¶ranled des
Ġhistori e
es iska
ĠhÃ¶g skol
Ġafgif vit
ĠDag bladet
Ġpr ut
Ġmoral iskt
dera t
Ġpro stitu
ĠfrÃ¤m jar
ĠJordbruks utskottets
ĠLUND GREN
vis ar
Ġbred band
Ġprisstegr ing
Ġkon tro
Ġfolk bok
ak tion
ĠFri esen
beslut et
ĠV a
ist Ã¥ndet
Ġkri ser
Ġprodu ktivitet
ĠslÃ¤pp er
ĠV ig
ja ktligen
ĠvÃ¤n tan
Ġuppman a
Ġtilltal ande
Ġtill fÃ¶ras
Ġd itt
Ġbe visning
Ġdag tecknad
Ġ18 4
ĠV ester
ĠI S
l ens
ing et
Ġanty dan
Ġd an
ĠÃ¤l v
ĠjÃ¤mfÃ¶r as
ĠtrÃ¶ sk
de na
ĠframgÃ¥ngs rika
ĠH and
ĠpÃ¥frest ningar
Ġav iserade
stÃ¤ll ningarna
Ġbed ja
fÃ¶r ut
Ġvar dera
sam hÃ¤ll
Ġtax i
slin je
ĠHoll and
Ġ17 9
ĠlÃ¥n en
Ġtids begrÃ¤ns
Ġinled ningsanfÃ¶rande
invand ring
Ġupp bÃ¤r
Ġparti vÃ¤nner
alis m
Ġsexu al
ram en
ĠDA HL
ĠS SAB
ĠÃ¥ter stÃ¤lla
Ã¤ck a
ĠmÃ¤nsk lig
ĠK e
Ġtr Ã¶tt
vin kel
Ġsocialdemokra t
Ġbyg d
ĠVÃ¤g verket
ĠÃ¶ver ord
tag en
Ġbyggnads arbeten
Ġeffektivis ering
s ument
am iss
sb i
Ġhuvud manna
sb as
ende ra
Ġmisslyck ande
Ġinne fatta
Ġskatte politiken
ĠvÃ¤rn plig
Ġkvalitet s
Ġbedriv its
ent ing
Ġutarbet ande
Ġobligator iskt
num mer
deklar ationen
Ġavslags yrkande
Ġuttal ades
Ġ zon
Ġriks daler
brÃ¤n sle
Ġbe stÃ¤llning
slÃ¶s het
Ġformul era
f unk
ĠfÃ¶ref Ã¶ll
ĠGab riel
Ġskrifv elsen
ĠfjÃ¤rde del
sk ip
val en
skaff a
ĠOL OF
ne utral
vÃ¤r dering
Ġvidtag ande
ĠfÃ¶redro gos
Ġutm yn
ĠprÃ¶ var
ĠutstrÃ¤ck as
Ġutomordent liga
Ã¤n gas
Ġfartyg et
ĠvÃ¤l sig
ĠbestÃ¤mm es
Ġhuvudsak lig
ĠModera ta
Ġsal u
ck or
Ġstor m
ĠÃ¥tgÃ¤r da
ĠNor up
ĠpÃ¥tal at
Ġbefall nings
de bi
sti ger
ex amen
Ġljus et
ĠB AR
fatt ade
Ġmening slÃ¶st
nÃ¤mn dernas
ĠmiljÃ¶ minister
Ġg a
Ġtim men
Ġtillgodo sett
Ġkonsument en
ĠFÃ¶l jaktligen
ĠBord lÃ¤ggning
Ġav verk
Ġfred agen
Ġstre ck
Ġfull gÃ¶rande
Ġobe grÃ¤ns
ĠL Ã¶v
ĠvÃ¤l vilja
Ġarbets former
ĠEr lander
ĠbehÃ¶f ligt
Ġintens iv
s ande
Ġc ens
rupp er
t ogs
Ġakt a
Ġsym bol
f e
Ġ1 000
Ġser iÃ¶sa
Ġet n
arti ller
Ġstipend ier
ut rala
Ġbet jÃ¤n
sti g
S t
Ġfrivill ighet
ĠÃħt minstone
Ġlag liga
Ã¶v ande
ĠÃĸst errik
Ġmedborger liga
an slagen
fÃ¶r samling
Ġdel tid
ĠRegerings formen
ĠfÃ¶rÃ¤l der
Ġmot verkar
ĠWEST ER
s var
ĠB uren
Ġlands vÃ¤g
Ġriksb ank
ĠstÃ¤m ning
Ġk vitt
Ġti diga
ĠMen ar
ĠÃ¶ver skri
sp aket
ĠWed Ã©n
ĠfaststÃ¤ll ande
Ġtex t
ĠutfÃ¤r das
Ġexp orter
ĠÃĸsters jÃ¶
ĠbenÃ¤g enhet
fÃ¶r farande
Ġefter slÃ¤
u ral
ĠT Ã¶rn
fri hets
Ġkolle gi
Ġstorleks ordningen
un dan
ĠerkÃ¤n nas
ĠupptÃ¤ck t
ĠS val
ĠnÃ¶dvÃ¤ndigt vis
ĠotillrÃ¤ck ligt
ĠSt ar
fÃ¶lj d
ĠKri ster
ĠskÃ¤ ligen
ĠLik som
ĠMellanÃ¶ stern
Ġc c
Ġlif vet
Ġrev olution
Ġh ygien
ro ll
ann ol
Ġvir kes
ĠkÃ¤ns liga
gym nas
sta kten
Ġbil das
Ġhot ade
Ġuppsk of
Ġanty da
Ġafskri fning
ĠS tax
Ġgran skar
ĠÃ¥sik ten
ĠBuren stam
Ġs or
tt om
Ġtryck t
k ant
Ġti derna
Ġstats finans
ĠmedfÃ¶r de
Ġpo ster
ĠGot lands
ĠMÃ¥r ten
G G
yrk anden
Ġhuvud voteringen
Ġmyndigheter s
Ġtillstyrk ande
Ġmalt drycker
ĠStax Ã¤ng
Ġklar lÃ¤gga
ĠsÃ¤kerhet spolitik
Ġtillsatt s
rot h
sbeskatt ning
Ġoparti sk
Ġde rÃ¶
ĠÃħke sson
ĠutÃ¶v as
ĠÃ¶verblick a
Ġpartibeteck ningen
ĠfÃ¶r min
rum met
Ġprovis orium
ĠfÃ¶rl idet
stag are
b ur
l unds
yr ket
ier as
ningsfÃ¶r farandet
ĠJustitiemin istern
ĠfÃ¶rmo dan
ĠE SK
Ġska dade
ĠfÃ¶rl Ã¤ngd
hÃ¤n syn
ĠbehÃ¶f lig
Ġut frÃ¥
ĠfÃ¶re var
Ġlever ant
ĠÃ¥sigt en
ĠÃ¥sik ts
ĠÃ¤l g
s fÃ¶rsÃ¤lj
ĠpÃ¥kall ade
Ġteoret iskt
skap it
ĠfÃ¤r g
ĠNilsson s
Ġklar as
Ġriksdags huset
ĠfÃ¶rete elser
Ġt orr
Ġsam f
Ġfull borda
ĠIn vand
Ġalterna tiven
he im
Ġtex ten
ĠfolkhÃ¶g skolor
ssam hÃ¤llet
Ġambi tions
kra v
fÃ¶rvalt ning
ĠJÃ¶n kÃ¶pings
Ġkristen doms
k Ã¥ren
Ġfar or
Ġ21 0
ĠBern hard
J u
ĠK ERST
Ã¶l ds
Ġsocial styrelsens
Ġton n
Ġvilkor en
Ġag gress
ĠHell strÃ¶m
Ġskad ligt
stÃ¤l da
ĠGun illa
Ġkoopera tiva
l ott
s verket
v Ã¥n
ĠsjÃ¤lv bestÃ¤mmande
Ġvotering ssedlar
Ġ187 4
ĠsÃ¶n dag
vÃ¤n dning
ĠÃ¥terfin ns
ĠfÃ¶r skole
ĠfrÃ¥ get
ĠM ORG
ĠIng enting
Ġarrendat or
Ġobegri pligt
g Ã¶dsel
in ation
Ġnatt en
Ġelektri ska
ĠMORG AN
Ġo af
ĠâĢĶ âĢĶ
Ġge ograf
ĠRiks gÃ¤ldskontoret
ĠdÃ¶r rar
avdrag en
ĠintrÃ¤ der
kon sul
pl atsen
Ġbesk ick
Ġinm ut
Ġotv ifvelaktigt
ĠÃ¥ lÃ¤ggas
ĠlÃ¤ng s
ĠlÃ¤k arna
ĠMiljÃ¶ minister
Ġprocess er
ĠfÃ¥ng ar
Ġbudgetunder skottet
ĠV Ã¤stt
ĠK o
stÃ¤m ning
ĠSk Ã¤r
Ġregl ementet
Ġred uktion
Ġbefri a
Ġproduc eras
Ġinspek tion
Ġarran gemang
Ã¤g ga
ĠL itt
Ġtillverk nings
Ġsamman faller
sbil dningen
Ġre ellt
pr ut
Ġs Ã¶
Ġj Ã¤gare
Ġaf gjord
Ġkraft full
organisation ernas
Ġpriori terat
Ġbr on
sh amn
ĠBer it
Ġge ografiska
Ġrekommen derar
ĠsocialfÃ¶rsÃ¤krings utskottet
ĠsÃ¥ klart
Ġint Ã¤kter
Ġpenning vÃ¤rdet
Ġelekt risk
rik anska
ĠSven skt
Ġm y
it en
Ġutskott sbehandlingen
Ġbank ernas
Ġminoritet en
ĠJ ern
ĠF a
ĠinhÃ¤m ta
gÃ¤ld skontorets
ĠHell berg
Ġbygg d
Ġgaran terar
Ġarbets villkor
deklar ation
Ã¥g el
bet Ã¤nkandet
drag it
Ġhitt at
ĠupphÃ¤ va
ĠHecksch er
Ġbevilj ar
Ġpresenter ar
Ġtrev ligt
Ġin ta
Ġve x
Ġpolitik ens
ĠBeh ovet
ĠrÃ¶ nt
EN GREN
ĠtillkÃ¤nnag ifva
ing sson
Ġskyd dade
Ġsjun ka
I AS
ĠT Ã¶r
ĠnedskÃ¤r ning
Â «
ist en
Ġregi men
ĠbitrÃ¤d ande
ĠmÃ¥tt o
Ġpapper et
Ġtveksam t
ĠderÃ¶ fver
ĠnÃ¤r mar
r ant
Ġsam me
Ġly fts
Ġfin t
Ġka ff
ĠPat rik
Ġin begri
Ġall ti
Ġ18 8
Ġkam rarne
rr r
bal ansen
Ġn it
ĠlÃ¤r aren
ĠlÃ¤rarin nor
Ġingrip anden
sp ost
ĠSch yman
Ġk vadrat
ĠB ur
ĠfÃ¶rsik tiga
Ġglesbyg ds
Ġklyft orna
ĠhÃ¤n delsen
ĠÃ¤g andet
ĠJ ul
bered ande
Ġvits orda
ĠÃ¶verdri ft
ort ens
sb es
ĠnÃ¤mn dens
Ġreduc era
ĠrÃ¥ var
skon junktur
ĠNor man
Ġide al
Ġtand vÃ¥rd
on era
Ġd ans
Ġskil naden
ĠÃ¶fver skott
ĠJON SSON
is e
Ġh Ã¥l
Ġvar orna
nor m
slÃ¤g enheter
ĠCent ral
Ġd ansk
ĠB ÃĸR
Ġbi ologisk
disk uss
Ġkar tell
ĠSand strÃ¶m
Ġslop as
Ġm al
Ġe st
fÃ¶r ordning
ĠK A
Ġpris och
ĠrÃ¤kenskap er
Ġr em
Ġutl Ã¤sa
ĠpÃ¥stÃ¥ s
ger d
Ġg ig
Ġtro ssam
garanti er
ĠarbetsfÃ¶rmed lingen
c ern
Ġi t
Ġefterle vande
Ġbet es
ĠÃ¶f ning
Ġknapp a
ĠfÃ¶rbÃ¤ttra t
ĠutfÃ¤r dat
skass orna
Ġlag et
Ġmaj s
Ġbesk rev
fi ent
Ġmobil isering
ĠbefrÃ¤m ja
trÃ¤ dare
Ġprotester a
ĠM emorial
ĠAv ser
ĠkÃ¤rnkraft verk
ĠarbetslÃ¶shets fÃ¶rsÃ¤kring
Ġf usk
man land
ĠfÃ¶ren as
Ġfrukt an
Ġtjenstem an
Ġlog iskt
Ġfunktionshin drade
k Ã¶r
ar elÃ¤g
Ġin tim
ĠA sp
Ġber eder
Ġim pl
int ens
ĠVÃ¤sternorr lands
l ivet
o gade
ĠL an
Ġskaff ar
givit s
efon d
Ġolyck lig
sm yndigheten
Ġremiss var
Ġsan ering
ĠnÃ¶dsak ad
Ġint og
ĠÃ¤g nad
h Ã¶
ĠH Ãħ
E A
T ERSSON
ĠH Ã¶k
Ġsak nade
Ġreduc eras
ĠInge gerd
f al
Ġins att
kon f
Ġtanke gÃ¥ngar
Ġdi agnos
ĠvÃ¥rdnads bidrag
Ġdoms aga
ĠVÃ¤st ra
Ġser ver
Ġkvar stÃ¥
Ġtving ande
Ġill ustr
Ġnarkotik amiss
ĠH assel
ĠfÃ¶retag sekonom
ĠÃħ KE
ĠtillÃ¤mp ade
ĠH of
Ġlit ar
ĠvÃ¤x el
Ġak tion
pan jen
Ġadvok at
ĠvÃ¤l kommen
ov in
ĠfjÃ¤r r
Ġeffektiv iteten
Ġgag nar
skÃ¤n sla
m yndigheter
ĠfÃ¶r drag
un ger
Ġut vÃ¤gen
Ġkun gliga
Ġha vs
ĠRe in
Ġkonven tioner
Ġill us
f ot
ĠDebatt en
ĠfÃ¶rsvar ar
ĠvÃ¥ gade
Ġbesvik en
ĠÃĸres und
Ġskattere formen
T R
eg repp
Ġark ite
Ġsom ras
Ġre cept
Ġarbet sdag
ningar nas
ĠlÃ¤g ges
Ġhvar dera
Ġock up
lin jen
Ġplac erade
ĠglÃ¶m de
Ġman skap
Ã¤nk nings
Ã¤d d
spri serna
ĠlÃ¤g er
sfÃ¶rm Ã¥n
Ġsocial utskottets
ĠfÃ¶rbju det
t jÃ¤nster
Ġn Ã¶t
ĠvederbÃ¶rande s
skÃ¶ts el
ĠO R
Ġskif tande
Ġre formar
Ġskog arna
Ġbarnbidrag en
Ġan ordningen
Ġutt Ã¶m
ĠLind gren
Ġamerik an
s es
Ġregem ents
Ġo vilja
Ġav iserat
Ġdel eger
rÃ¤tt else
Ã¶ver skott
ĠÃ¶r on
ĠmiljÃ¶ partiet
Ġbolag ens
Ġg ingo
Ġbel asta
Ġag itation
ĠL or
Ġreglering sb
bort fall
t Ã©n
ĠD av
ĠN ed
Ġ186 8
Ġoakt at
ĠP ort
Ġur tima
Ġun ikt
ĠING E
Ġt vÃ¤rt
fÃ¶r kort
ĠL unds
kon fer
ĠlÃ¥ ts
Ġtrupp er
ĠhÃ¤r uti
ĠlÃ¤ns arbets
Ġinsats en
ĠfolkmÃ¤ng d
Ġefterm iddagen
op in
e us
Ġt ort
Ġtrafiks Ã¤kerheten
Ġmo bb
Ġjordbruks produkter
Ġavdrag srÃ¤tt
ĠL ilj
Ġyrk as
ĠÃ¤ndra ts
ĠpÃ¥verk at
central en
k ollegium
ĠfÃ¶re gÃ¥ng
ĠgÃ¥ vor
Ã¥tgÃ¤r derna
Ġskap ade
sk ostnad
Ġbek lÃ¤m
ĠfÃ¶ren ad
ĠPersson s
Ġproduc erar
Ġdiplom atiska
a by
ĠS m
arbet ar
ĠmÃ¶jliga ste
ĠKERST IN
ĠS P
Ġlyck liga
Ġack ord
ĠJÃ¤mt land
ĠvÃ¥rd nad
ĠSt ure
Ġutarbet at
Ġfast slÃ¥
Ġutform ade
ĠÃĸst ros
Ġlandsh Ã¶fd
ĠB ost
Ġval friheten
Ġ22 0
Ġvatten drag
ĠLand skrona
h Ã¤mt
Ġtill lÃ¤gg
ĠnÃ¤rings minister
ĠvÃ¤gunder hÃ¥llet
ĠS AS
Ġunder befÃ¤l
Ġbi ob
Ġbestri der
bÃ¤r ande
ĠfÃ¶reb rÃ¥
B O
n ets
O m
van ta
Ġindivi dens
Ġ187 1
ĠvÃ¤rlds marknaden
S f
ĠH Ã¤rn
ĠÃ¤ kta
Ġ18 85
Ġhundrat usentals
kostna ds
Ġsp Ã¤r
sm yndighet
ĠpÃ¥tag liga
IN N
ĠM og
ĠÃ¶ver leva
Ġargument en
ly ss
Ġr ens
Ġd ona
Ã¤g da
ĠK OM
jut a
ĠhÃ¤ f
bo da
Ġexemp lar
Ġ190 2
Ġinstitu tionen
ĠpÃ¥tal ade
Ġvi ka
ĠV est
ĠvÃ¤g trafik
elsel edam
Ġfor ma
ret a
Ġjuster ingar
ĠrÃ¤ck vidd
ĠfÃ¶rtyd ligande
Ġin lett
ĠK urt
amen te
ĠStrÃ¶m berg
ĠfÃ¶ da
ĠuppsÃ¤g ning
Ġarfv ode
ĠbrÃ¥ ttom
ĠF rig
ĠRe present
ĠfÃ¶redrag a
Ġenergi politik
mÃ¶ ten
ĠBod strÃ¶m
f a
h iel
ĠframstÃ¤ll er
Ġafstyrk ande
u ri
Ġst Ã¶ld
Ġhel ikop
Ġmisst Ã¤nker
Ġbefri as
Ġtjug u
ĠsamhÃ¤llsekonom iskt
Ġminsk ningen
ĠEx empel
Ġtunn el
w a
ĠB E
med del
Ġinkom sttagarna
ĠrÃ¤ttvis are
Ġmisstro ende
re der
ĠofÃ¶rÃ¤ndra dt
ĠV elander
Ġrespek terar
ĠoundgÃ¤ng ligen
Ġhem vÃ¤r
Ġargum entera
ĠSkatte utskottets
ĠHelsing borg
Ġallesam mans
y fte
kti vis
ĠmÃ¤nnisk ans
ĠtillgÃ¤ng ligheten
ĠArbetslÃ¶s heten
p aket
ĠA s
Ġlik avÃ¤l
Ġsm ak
Ġrevis orerna
ĠYng ve
sl en
ĠmiljÃ¶ er
Ġflytt ning
slut ningen
skill nad
Ġvetenskap ligt
bryt ning
Ġav delningar
Ġex ek
fl er
skjut a
ĠfÃ¶rstÃ¤rk as
Ġ18 80
Ġteck na
sli sta
sbel oppet
y sta
Ġh ed
Ġo e
Ġupp gÃ¥tt
Ġupp gjorda
Ġunder visa
ĠanmÃ¤l d
Ġkor tt
Ġink Ã¶pa
rÃ¤ den
ĠDÃ¤r om
ĠBÃĸR JE
ĠÃ¤r lig
kom rÃ¥den
ĠÃ¶vergÃ¥ng s
ĠlÃ¶netill Ã¤gg
Ġpartikam rater
ĠE st
du c
komm issionens
ĠtillÃ¤g get
ĠlÃ¤k aren
ĠfolkhÃ¤l so
Ã¥ ter
il it
ĠfÃ¶r lik
ĠÃ¤n ka
Ġkri tiskt
ĠifrÃ¥gasatt s
Ġlikgil tigt
Ġbefallnings havande
Ġolyck s
Ġ187 0
ĠTill sammans
ĠmÃ¤ng den
es jÃ¶
Ġfunder ingar
Ġstats rÃ¥den
ĠstrÃ¤ vandena
ĠtillgÃ¤ng ligt
Ġvar ning
ikation er
ĠÃ¶verra skande
medlem mar
Ġupptag en
ĠanvÃ¤nd andet
b rev
sk orna
Ġd ator
Ġbru ket
Ġpass era
Ġindrag as
Ġinrikes departementet
ĠAllians ens
Ġskatteut jÃ¤mning
Ġt um
Ġtill Ã¶kning
Ġutrikes ministerns
ĠTy sk
ĠFrÃ¥ gorna
hÃ¶j ningarna
ĠfÃ¶rÃ¤ndra t
Ġprofess orer
Ġek ologiskt
hiel m
m juk
Ġlag tima
akt en
sn ivÃ¥
Ġfastighet stax
Ġstift elser
ĠanhÃ¶r ig
ĠfÃ¶rval ta
ĠY L
ĠutfÃ¤r dats
Ġminim um
ĠanstÃ¤ll as
Ġjordbruks minister
Ġnam nen
Ġarbet ssÃ¶kande
Ġbek ost
ĠtillÃ¤g ger
intill s
Ġinkomst skatten
Ġdeklar ationer
ĠutÃ¶k as
ĠbetÃ¤n ka
ĠfÃ¶rberedel se
ĠLÃ¶f gren
ĠT amm
Ġber ott
Ġhel tids
sut redning
Ġpension ssystemet
ĠÃ¶nsk vÃ¤rdt
ĠinvÃ¤n dningen
Ġkritiser ade
ĠLindh agens
7 2
Ġskriv ningar
Ġlegiti m
Ġkonseq vens
ĠkommittÃ© er
res a
ĠSam hÃ¤llet
Ġstud iet
Ġstatsfinans erna
ĠanmÃ¤rk te
in en
Ġpris reglering
Ġom tanke
ĠV pk
Ġbi ograf
ĠstÃ¤ll d
Ġinterna tional
utbild ningar
IL L
ĠÃ¶vers ikt
g inge
Ġo ri
ber kul
ĠÃĸ hman
ĠfÃ¶ranled t
Ġskattere form
d alen
h jÃ¤r
ĠSvan berg
sm yndigheterna
Ġskad lig
ĠH Ã¤g
ĠVÃ¤nster n
proposition ens
Ġbos att
Ġs varande
Ġbek Ã¤nn
Ġom s
ĠUt gÃ¥ng
Ġuts edd
Ġsu ver
Ġuppskjut as
Ġanty der
ĠW ick
ven sk
ta liga
ĠrÃ¶r liga
Ġrealis tiskt
ĠHEL ENA
ĠMarg ot
ĠnÃ¤mn der
ĠstrÃ¤ck an
ĠÃĸsterrik e
k ningen
ĠpÃ¥ drivande
ĠM e
ĠM ON
ĠHall Ã©n
Ġom bes
ser sÃ¤ttningen
ĠfÃ¶rst Ã¥n
Ã¶ver vakning
eh amn
Ġdyrorts grupp
f varen
Ġb att
ĠT anken
Ġpl Ã¥n
sbe grÃ¤ns
Ġbit rÃ¤tt
ekonom iska
n yd
ĠfortsÃ¤tt as
ĠJÃ¶r gen
Ġupp lÃ¤ggning
Ġotill bÃ¶r
ĠEng strÃ¶m
ĠBrand t
e ffekter
Ġin effe
ĠH ELL
Ġbr ygger
rekvens en
V AR
Ġbeg ge
ĠAug ust
Ġav gÃ¥ng
Ġansvar ar
Ġlyck a
Ġveck orna
Ġpriori terade
Ġhant verks
Ġe p
ĠG Ã¶t
Ġs ne
Ġ187 8
fÃ¶rm Ã¥gan
ĠBeck man
ĠYL VA
h istori
Ġla x
Ġfost ran
Ġtr Ã¶st
Ġiakttag ande
Ġber Ã¶v
bar ligen
farts verket
Ġtemp or
C R
M arie
sdag s
Ã¤mp ande
Ġvatten fall
ĠslÃ¥ ss
gr an
Ġbek anta
ĠjernvÃ¤g en
Ġtillgodo seende
ĠrÃ¤ttvis an
Ġtex til
unn el
ĠmÃ¤nsk ligt
sbolag et
spolis en
ĠLandst ings
ĠÃ¥ liggande
Ġskrifv elser
Ġterror ist
Ġhyresg Ã¤ster
ĠfÃ¶resprÃ¥k ar
ĠÃ¶fver gÃ¥ng
Ġvari erar
ĠNIL S
Ġkalkyl er
ve ig
alis tiska
Ġtrafik utskottets
skri va
Ġfartyg en
bal ans
smÃ¤ss iga
ĠfÃ¶rtyd lig
Ġofull stÃ¤ndiga
Ġangif va
del vis
Ġhandling arne
m es
st rÃ¶
skri s
Ġhyres reglering
ĠfÃ¶rsamling arna
Ġskattebetal arnas
ĠstÃ¥ndpunkt stagande
ĠhÃ¶st ens
ĠS CH
Ġun ik
Ġsy fta
ĠbehjÃ¤r t
ĠframstÃ¤ll des
ĠfÃ¶rsÃ¤k rade
Ġengag erat
Ġbegag nade
ĠBel gien
el ag
ĠS id
Ġab s
Ġfi ende
ĠrÃ¤tt as
ĠfÃ¶rst Ã¶ra
bi a
Ġstrate gin
sam arbetet
Ġbefri ade
Ġindustrin s
Ġhemm am
n i
Ġvig sel
ĠrÃ¤d dning
ĠbÃ¤rk raf
Ġgrund at
ĠfÃ¶rvÃ¤r fva
ĠfÃ¶rt viv
Ġbedriv it
ĠHall and
ik tigt
ĠfortsÃ¤tt nings
ĠÃ¥tag ande
Ġs orter
ĠlÃ¶ne fÃ¶rmÃ¥ner
Ġfack et
ĠbehÃ¶v lig
Ġstats skulden
Ġ18 83
Ġkam rarnes
Ġgymnas i
Ġspecif ika
Ġdokum enter
vÃ¤r re
Ġsjuk kass
ĠbedÃ¶m t
ĠDahl Ã©n
ĠrÃ¤tte ligen
fÃ¶rs Ã¤m
Ġstrukture lla
ĠUtrikes ministern
ter i
ĠÃ¥ sam
Ġkr ym
Ġsats ningarna
Ġek ologiska
Ġdom en
Ġapote k
vÃ¤n ne
organisation ens
ĠS al
Ġskatter egl
ĠHammarskjÃ¶l d
st or
Ġunder gÃ¥tt
ĠKron o
Ġh or
ĠbegÃ¤r ts
Ġdirekt Ã¶r
g am
ĠtÃ¤nk bart
Ġremissytt rande
den skull
ĠR am
ĠtillkÃ¤nnagiv anden
ĠmÃ¶ da
Ġutvid gad
Ġbegag nas
Ġtand vÃ¥rds
ĠÃ¶fverens stÃ¤mmande
ĠfÃ¶rsvÃ¥ra s
ĠE inar
Ġang en
Ġinvestering savgift
ĠP lan
ul era
Ġtrafik politiska
Ġih jÃ¤l
Ġunderteck nat
elses Ã¤tt
sam mare
lÃ¥t ande
Ġhy poteks
ak terna
Ġfj ort
Ġuppl Ã¤sa
ĠsÃ¤tt es
Ġregerings makten
ĠLjus dal
ĠFort farande
Ġviss het
gar d
Ġfo ga
Ġrunt om
Ġ189 2
Ġmedlemsstat er
Ġut prÃ¤g
Ġpass us
slÃ¤k are
Ġdetalj erna
v lÃ¶
Ġav del
ĠF ÃĸR
ĠÃ¶vr ig
Ġupplys ningsverksamhet
ĠtjÃ¤nste pension
ĠÃ¶verlÃ¥t else
Ġval sÃ¤tt
Ġbef ann
Ġtelegraf verket
ĠEner oth
Ġefter gift
Ġ23 0
Ġantyd da
dra des
Ġretro aktiv
Ġg rÃ¥
Ġun ion
Ġklar lÃ¤ggande
ĠSocial fÃ¶rsÃ¤krings
Ġhistor isk
s Ã¤kerhet
Ġh eta
Ġvar g
fon dens
Ġvetenskap s
Ã¤kten skap
Ġrekre ation
Ġen hets
ĠH ill
Ġbes Ã¶ks
Ġsprit drycker
Ġmej eri
Ġo re
ĠSjÃ¶ dahl
Ġupp stÃ¤lla
ĠLind kvist
Ġpalestin ska
ĠMÃ¶r ner
Ġtv Ã¤tt
Ġfort are
por terar
Ġsamarbet ar
ĠfÃ¶rmed la
Ġstatsk yrkan
o x
fÃ¶r da
Ġupp slutning
Ġdebatt erna
Ġhandel spolitiska
Ġolyck an
ĠAl vesta
sp ris
ĠVÃ¤stt yskland
i ar
ĠSt Ã¶d
Ġfol kt
h istor
ĠD AM
Ġly fte
Ġsynner ligt
Ġavslag it
Ġfred liga
Ġnoggr anna
ĠhjÃ¤r ta
ĠPolis en
Ġut Ã¥t
Ġbry tas
ĠnÃ¤r stÃ¥ende
ĠmÃ¥l sÃ¤ttningar
Ġstan nade
Ġremitt erades
Ġenty digt
Ġinflyt andet
Ġtrygg t
Ġerbju das
ĠkÃ¤r lek
ĠBak om
Ġbem Ã¶tt
Ġsek und
Ġn Ã¤tet
Ġinte lle
ĠÃ¤g nas
ĠfÃ¶rsÃ¤l ja
ve k
Ġstor makt
Ġansvar stagande
Ġfred stid
Ġkapit el
Ġnom in
ĠHelge ands
Ġkonstru ktivt
Ġfrig Ã¶ra
rag t
Ġredogj orde
Ġstraff as
Ġgaranter as
v otering
Ġbl an
ĠDom Ã¶
Ġskattebetal are
ĠfÃ¶d d
ĠUll sten
in er
fatt ad
ĠSta aff
ĠbevÃ¤r ings
Ġvar da
ĠB es
ĠvÃ¤g nÃ¤tet
skon sul
Ġyttrande friheten
Ġvitt na
Ġimporter ade
ĠvÃ¤l kommet
ĠfÃ¶rsÃ¤m rats
Ġstr un
ĠfÃ¶rsvar as
skri ften
Ġ190 4
Ġvigtiga ste
ĠhyresgÃ¤st erna
ĠDAN IEL
ka sta
Ġregl emente
ali x
Ġa spekt
ok al
Ġ22 5
ĠtjÃ¤nst erna
ĠfÃ¶rsÃ¶ ken
ĠminderÃ¥ riga
Ġefter sk
Ġled ig
Ġdefiniti v
ĠNÃ¤rings utskottets
ĠfÃ¶rfl utna
ĠlÃ¤rom edel
t Ã¤nkande
Ġverksam t
O la
i cke
t jÃ¤nsten
Ġt vÃ¤nne
Ġparlamentar iskt
Ġvidt og
ĠMÃ¶j ligen
Ġsocialdemokrati en
Ġa ra
yd de
ĠnÃ¶d gats
verk ade
huvud mÃ¤nnen
Ġkammarledam Ã¶ter
g ingo
ar p
Ġst ress
Ġbesluts fatt
ĠskÃ¥n ska
ĠM et
Ġutbil dad
Ġo nsdagen
Ġut setts
Ġhandel sb
Ġbeskriv it
ĠvÃ¥ll a
f ve
fÃ¶r are
ĠFÃ¶r Ã¤l
Ġnonch al
v olym
ĠK all
Ġres an
ĠÃ¤mn ena
Ġpensions Ã¥lder
Ġin lÃ¤gga
Ġg ot
Ġskatt skyldiga
Ã¶ ternas
ol ver
Ã¤ck ning
ĠjÃ¤mfÃ¶r bara
Ġkol oss
ĠMaj oriteten
ĠfÃ¶rdel arna
Ġhuru dan
Ġindragnings staten
ĠhÃ¤r ifrÃ¥n
ĠfÃ¶rskjut ning
ĠfÃ¶rbÃ¤tt rar
Ġbeg rav
ĠvÃ¤sen dt
Ġkub ik
Ġutveckling sb
Ġenergi effe
Ġkor rup
Ġsvag het
- âĢĶ
Ġf ra
ĠÃ¶ver lÃ¥ta
Ġtransp orterna
Ġminoritet s
Ġdimension er
Ġmotiver as
Ġb rÃ¶st
Ġo intress
Ġbelopp en
Ġhandlings frihet
Ġb ur
Ġtv ista
ĠW IK
Ġbeklag ande
Ġdeklar erat
fÃ¶rbÃ¤tt ringar
ĠB N
ĠY v
Ġtull skydd
ĠbedÃ¶m andet
ĠframtrÃ¤ der
ar eser
Ġbe vakning
ĠbÃ¶r dan
iff ror
Ġyttrande frihet
Ġutform ad
Ġuppoff ring
Ġreg els
0 5
Ġs lar
Ġdel at
ĠR im
ĠKon sument
ĠkÃ¤r na
ĠoÃ¤nd ligt
Ġan komma
ÃĦ NG
ĠsamhÃ¤llsekonom isk
Ġsjunk ande
sk uld
ĠT ele
ĠRe gn
plan er
Ġbegag nar
Ġf av
em ellan
sp likten
ĠfÃ¶rt jÃ¤na
Ġbefolk ningens
Ġdigit ala
Ġkland ra
Ġfri sin
Ġbas eras
Ġuppseende vÃ¤ckande
ĠfrÃ¥get ecken
Ġbl om
iv ning
ĠG Ã¤r
Ġbyg den
Ġriks gÃ¤lds
Ġregerings rÃ¤tten
n ell
ĠS ystem
Ġun ika
se gare
Ġupprep ades
lid na
. ''
Ġkost ade
anskaff ning
s frÃ¥gan
ĠO D
Ġhvar emot
Ġreag erat
Ġentrepren Ã¶r
Ġi srael
Ġupp del
Ġgl id
Ġfastighets skatt
Ġbom b
ĠPet r
Ġom o
ĠN ett
Ġned sÃ¤tta
Ġskattef lykt
ĠWi jk
Ġkommunall ag
h or
de p
ĠbÃ¥ ts
ic erar
Ġkonfer ensen
ĠH ULT
ĠO ve
Ġriksm Ã¶te
till gÃ¥ng
Ġlands orten
ĠhÃ¤n fÃ¶ra
par na
ĠSk riv
Ġm akter
Ġm agt
ĠfÃ¶rhin drar
Ġtor sdagen
ĠmedlemslÃ¤n der
ĠnÃ¤r vara
sp lac
ĠCarl sham
Ġbok fÃ¶ring
Ġspecial ist
Ġindelnings verket
Ġdisponer as
Ġan sp
Ġinne har
Ġkv ot
Ġinhem sk
Ġkombin era
ĠprimÃ¤r a
vi ds
Ġminsk ats
Ġstopp as
Ġreal itet
Ġupp d
ĠBir git
Ġin verkar
Ġd amer
ĠJ Ã¶ns
Ġsystem en
Ġtjen ste
Ġbesl utit
Ġbegag nat
ĠfÃ¶ren ingarna
ĠUn ckel
Ġpass ager
ĠdÃ¶ds fall
Ġkristen dom
Ġkortsik tiga
st Ã¥t
ĠÃ¶ver tagande
Ġvilsel ed
Ġpersoner s
tra pp
Ġutrikes nÃ¤mnden
ĠnÃ¤mnde mÃ¤n
ĠmissfÃ¶r hÃ¥llande
Ġinvesterings anslag
Ġresul terat
k terna
par anda
Ġ190 3
bu den
ĠDahl gren
Ġinh Ã¤mt
ĠW il
ĠfÃ¶rklar ingar
ansp arti
Ġpedagog isk
Ġgenomt Ã¤nkt
s ligheten
an er
sk ultur
Ġbe tt
ĠfÃ¶rmÃ¥n srÃ¤tt
ĠfÃ¶rsÃ¤m rade
Ġdemokratin s
skil da
Ġhem stÃ¤lde
Ġjordbruks politik
ĠhÃ¥r dt
od larna
kon gress
Ġhvar vid
ĠpÃ¥vis at
ĠWest berg
J ER
ande lar
Ġfon derna
ĠA del
ĠfÃ¶rm id
aktig heter
Ġspri der
ĠVÃ¤ste uropa
un nen
nings skyldighet
ĠerkÃ¤n de
ĠtvÃ¥ng smedel
Ġiakttag as
ĠKristdemokraterna s
Ġfram t
ĠI N
ĠfÃ¶rÃ¤d ling
ĠfÃ¶rsÃ¶ ket
v ning
ĠB y
ĠfÃ¶rlÃ¤ng ningen
ĠBER T
Ġstar tade
ĠLor ent
Ġh ets
ĠF er
Ġvaru skatt
Ġtilldel as
Ġattity der
Ġstats anslag
for dran
Ġtillverk as
Ġlid it
Ġbu tik
Ġlagstiftning ens
Ġrespek teras
ĠÃħter upp
Ġbesvik else
ĠsammanjÃ¤m kning
infl ytande
ĠS il
Ġstyr elseledam
astro fer
ĠBeslut et
ĠbitrÃ¤d de
ĠlÃ¶ na
Ã¥l und
sbolag en
ĠbemÃ¤rk else
Ġimpl em
k te
Ġbet vif
Ġhyr an
ĠhÃ¶ger trafik
ĠtjÃ¤nsteman na
ĠG rek
Ġske p
ĠkrÃ¤ fver
ĠÃĦn dringar
Ġintegr iteten
Ġt aket
Ġut debi
Ġd jÃ¤r
Ġengag emanget
ĠPort ug
Ġaf drag
ĠK ling
ĠrÃ¥ varu
Ġmeddel ats
ĠberÃ¤tt ar
ĠTvÃ¤r Ã¥lund
ĠfÃ¶rsÃ¤m rad
stÃ¤l d
ĠfÃ¶rbju der
u a
Ã¤ng en
Ġna tionerna
Ġon d
Ġfred ag
ĠHallen gren
ĠÃ¶des dig
ig are
Ġse ss
Ġregl em
ĠCh ri
Ġfys isk
em ans
sl ott
Ġhem byg
ĠutgÃ¶r as
ĠLund kvist
Ġpartiled are
sk urser
rygg heten
Ġsamman kopp
ĠBerg slagen
Ġskri fva
iet nam
ĠArbet smiljÃ¶
Ġvalkrets ar
b oll
j ade
ĠÃ¶fver tyg
Ġsjuk vÃ¥rdens
Ġskatte pengar
Ġgransk at
Ġsinne ss
Ġound vik
Ġranson ering
Ġarbet ssÃ¤tt
ban ks
statisti ken
n sk
Ġfl a
Ġlag bestÃ¤mmelser
Ġ37 0
Ġkommun ister
Ġfort gÃ¥ende
Ġobje ktiv
skydd slagen
sspar ande
K A
Ġan lÃ¤ggningen
mÃ¥l en
ĠYv onne
Ġbil agt
Ġbevill ningen
alk yl
Ġarv oden
er andet
ĠstÃ¶d Ã¥tgÃ¤rder
ĠÃħker lund
Ġarbetstids fÃ¶rkort
ĠhÃ¤r emot
Ġavtal en
ĠberÃ¤ttig ande
princi pen
Ġin stÃ¤mmande
ĠsvÃ¥ra ste
V ALL
ol i
ri Ã¤r
ĠfrÃ¥n varo
Ġsyn vinkel
Ġrel e
Ġ% ,
ĠI B
Ġtr Ã¤tt
ĠjÃ¤m stÃ¤llda
Ġspecif ikt
ĠtÃ¤tor ter
lÃ¤g enheter
Ġlin dra
ĠavstÃ¥ tt
ĠefterstrÃ¤ var
ĠRad i
ffek terna
Ã¤ ts
ĠJ ak
I TA
ĠOl ov
Ġmeddel anden
Ġproduc enter
ĠlÃ¶nsam ma
b ytet
Ġi f
par agraf
Ġfolk skollÃ¤r
fÃ¶ret rÃ¤dare
ĠÃ¤ndamÃ¥lsen lig
ĠutvÃ¤rder ingen
Ġom sÃ¤ttning
Ġpolis vÃ¤sendet
ĠvÃ¤sent ligaste
ĠtillhÃ¶r t
ĠVÃ¥r d
Ġammuni tion
Ġs atta
Ġvid gade
Ġsven ske
ĠhÃ¥ll es
ekan sl
ĠefterstrÃ¤ va
ĠSig ur
ĠF amilj
h als
Ġom fÃ¥ng
Ġ20 5
ĠbostÃ¤ll s
v ietnam
ĠK ostnaderna
ĠlÃ¶s es
Ġtrakass erier
Ã¤ss iga
Ġinland sbanan
Ġgrund t
ĠfÃ¶rl oss
Ġfolk skolans
Ġbri tt
Ġbevis ar
ĠstÃ¤llningstag andet
Ġutomordent lig
ĠÃ¥lderdoms hem
ĠSval Ã¶v
r era
Ġbet ytt
ĠdÃ¶m as
cer nen
Ġ [
ĠÃ¶ver fÃ¶ras
Ġfrukt ansvÃ¤rda
ĠfrÃ¥ge stÃ¤llningen
ĠRo ger
Ġarbetsgif vare
Ġantag et
Ġsn Ã¶
Ġ........ ........
Ġstat slÃ¥n
Ġsti ck
ĠY r
Ġstockholm sbÃ¤nken
ĠBer glund
Ġsam ordningen
Ġmissupp fattning
Ġhomosex uella
o j
Ġsp rÃ¤ng
bef ri
Ġdess as
be stÃ¤m
Ġdri fva
ĠfÃ¶rf Ã¤kt
ĠrÃ¤ttegÃ¥ng sbalken
ĠBern d
ĠÃ¤n ke
Ġregerings form
ĠbehÃ¶v liga
Ġdep ress
ĠfÃ¶rmo da
ĠAdolf sson
Ġhvil a
Ġdemon str
Ġv agn
ĠT OMAS
fÃ¶rb udet
m ent
s as
Ġaf styrkt
Ġbost aden
Ġvatten kraften
rÃ¤ kt
ĠT OB
ĠÃħ n
Ġrevis ionen
ĠÃ¶verlÃ¤m nade
Ġkonserva tiva
Ġexek u
or det
Ġengag erar
ĠHÃ¤r i
Ġskade verkningar
Ġresul tera
Ġneder lag
Ġtort yr
sk redit
Ġupplys nings
dig ande
ĠfÃ¶rl usten
ĠsÃ¤nk ningen
fÃ¶rklar ing
i ssa
Ġb iljett
ĠÃ¶v nings
Ġilleg ala
st oden
Ġgar nis
Ġ187 6
ssekreter aren
d iska
or ona
Ġlik form
Ġbru tit
Ġdjup gÃ¥ende
ĠbitrÃ¤ den
ĠstatsrÃ¥ds bÃ¤nken
Ġst ationer
Ġka ssan
Ġregl erade
sparti er
del sel
san stal
Ġexister ande
ska pacitet
ĠSt yrelsen
ĠhÃ¤n fÃ¶ras
Ġ7 50
ĠvÃ¤g vÃ¤sendet
ĠIn get
Ġe ss
rin d
Ġsk Ã¤nka
ĠS oll
ĠB olag
pi dem
Ġprelimin Ã¤ra
Ġtill kommande
Ġjord fÃ¶rvÃ¤rv
Ġbort Ã¥t
Ġkval it
l or
kon cent
ĠJordbruks minister
Ġdifferenti ering
plac ering
Ġun drade
ĠÃ¶ver vak
ĠB ri
ĠrÃ¶r t
ĠtillhÃ¶r iga
ĠOlsson s
ĠfÃ¶ren Ã¤mnda
Ġakt ning
ny ter
ĠIng ela
ĠpÃ¥tryck ningar
Ġtull fÃ¶r
Ġverket s
Ġsid o
ĠgÃ¥r dar
Ġhopp ades
Ġremiss debatt
Ġs ens
Ġgr ym
ĠlÃ¤r arne
ĠutÃ¶k ad
Ġrepar ation
j ak
am man
Ġele ven
Ġot rygghet
ĠfÃ¶rmen ar
ĠavvÃ¤g ningen
Ġelektrifi ering
n Ã¤ra
s il
u ff
Ġsm al
ĠsÃ¥g verks
Ġdram atiskt
Ġfram fÃ¶rs
Ġkom itÃ©n
fÃ¤r ds
Ġerin ras
Ġdistribu tion
ĠslÃ¶ seri
Ġunder skatt
Ġfel et
ĠFor s
inne hav
Ġe ko
ĠK I
ste uropeiska
Ã¥l d
ĠEm il
Ġrevisorer s
Ġvar na
Ġfram skri
stud ier
Ġmode ller
Ġut rÃ¤tta
ĠM unk
ch ar
ĠlÃ¤tt vin
Ġstadga dt
journ ering
ske de
ĠC assel
ev i
Ġfred lig
ĠvÃ¤lvill iga
ĠtÃ¤ck as
styrk an
ĠBERT IL
ĠBer lin
Ġskick ade
Ġmenings f
ĠÃĸstergÃ¶t land
Ã¶ck erna
m else
ss ubven
Ġbostad still
ĠAr vids
Ġredovis ningen
Ġanal y
Ġstabil a
Ġbefin nes
Ġtillvarat ag
st Ã¥g
ĠS ved
led are
Ġrad ion
ĠInter net
Ġr elat
ĠH ud
Ġfor dring
ĠStats utskottets
Ġbrott as
ĠGe er
Ġoupp hÃ¶r
yck ning
val d
Ġskilj elin
ĠkÃ¶p kraft
Ġtaxerings vÃ¤rdet
en g
ĠSt ad
Ġkred iti
Ġminister ns
Ġsten kol
ĠelÃ¤n de
in erade
Ġenhet liga
Ġintens ifier
Ã¤r kta
Ġin delning
Ġfr ont
Ġmark Ã¤gare
Ġprocent en
iden ten
ĠutÃ¶k ade
Ġtulltax an
Ġaflem nade
p ressen
Ġupp vÃ¤rm
Ġkompetens utveckling
Ġlag d
Ġang ett
af gift
Ġra k
Ġegendom lig
alest ina
Ġav folk
ĠfÃ¶ret a
ĠÂ ½
d is
Ġbist Ã¥
Ġutgifts omrÃ¥de
ĠbekrÃ¤ft ar
Ġobestrid ligt
Ġkun nande
Ġfo gas
sproduk ter
Ġlog ik
and vÃ¥rden
OL OF
Ġot Ã¤nk
Ġass oci
inne ha
ĠfÃ¶rekom sten
aktie bolaget
ĠbÃ¤rk raft
ĠBost rÃ¶m
ĠKon junktur
ĠfÃ¶rnu ftig
Ġokunn ighet
ĠfÃ¶rst Ã¥nd
utbild nings
Ġf ry
Ġdispon i
Ġoklar het
ar ren
Ġslut Ã¤n
ĠutÃ¶ var
Ġm ult
Ġtank arna
ĠfÃ¶reskrifter na
Ġd Ã¤mpa
till verkningen
byg gas
ĠFinans utskottets
Ġsil fver
ĠSmÃ¥l and
Ġom prÃ¶v
ĠÃ¥ dÃ¶m
met od
sh Ã¤lso
lÃ¤m nade
ĠvÃ¤ga s
G O
Ġverk ade
ĠW I
vid are
art ner
Ġansl Ã¥s
Ġbin der
ĠSan ningen
et id
Ġbil ag
Ġban ks
ĠlÃ¤nsstyr else
ĠD ick
Ġkun gs
ĠgÃ¥ vo
ĠglÃ¤d ja
ĠfackfÃ¶ren ing
Ġkansli huset
ĠunderdÃ¥n iga
Ġmed ges
Ġc er
Ġflykting politik
skrÃ¤ vande
b ot
Ġt he
ĠF RID
Ġ186 9
fÃ¶rÃ¤d ling
gif vare
Ġkl Ã¤
Ġtr end
A r
Ġk m
Ġav gjorda
Ġbarn konventionen
Ġbild nings
Ġmarin en
Ġka pp
ĠaflÃ¶ ningen
sut bildningen
Ġavst yrkande
Ġmotsvar ighet
Ġm ord
ĠAnt ingen
Ġdry ga
ĠfÃ¶r un
Ġo vÃ¤n
ber ga
sb ryt
Ġod la
Ġjordbruk arnas
Ġblyg samma
ĠTobi as
ss ar
Ġoro ad
Ġhelhet ssyn
Ġutbil das
Ġafsl Ã¥s
j Ã¤ra
Ġm Ã¶dra
Ġunder fund
skatt es
ĠHam bra
Ġperio der
ĠomnÃ¤mn t
ĠSpar re
g ets
Ġan kommet
ende rÃ¥
ch er
Ġstyr ande
ĠFÃ¶rsvars maktens
Ġrestrik tiva
Ġrus drycker
Ġinvent arier
Ġskad an
Ġsolidar iskt
Ġkast ar
ĠavgÃ¥ vos
Ġfast stÃ¤lld
hand la
Ġfolkparti ster
ĠÃ¶vers vÃ¤m
Ġan stÃ¥nd
ĠA journering
Ġfram drag
ĠÃ¶f ningar
Ġra tt
Ġkil o
ĠmÃ¶tt e
Ġnatur vÃ¥rd
Ġdeklar ationen
Ġtom ter
ĠpÃ¥bÃ¶r jas
ĠbelÃ¥t en
ĠKvarn zelius
ar tat
ĠfÃ¶r dÃ¶m
Ġhem s
ĠuppbÃ¶r d
Ġg ri
Ġned bringa
Ġdepartem enten
Ġbilater ala
Ġg al
ack a
ĠbesvÃ¤r ligheter
ĠUtgÃ¥ng spunkten
ĠfÃ¶rs ur
ĠRik ets
in ans
Ġm onop
ĠS M
Ġmin ut
Ġland skap
Ġfr omma
ĠNord in
ĠLand t
Ġru sta
ĠUti frÃ¥n
ĠFil ip
Ġs ele
ĠbetÃ¤nk lig
met oden
ĠTÃ¶rn kvist
ĠHambra eus
Ġmark ant
Ġtrakt aten
Ġfantas tiska
ĠRik t
Ġbesvar at
Ġdirektiv et
Ġproc ed
spen ningar
Ġgemenskap en
Ġtu berkul
ons um
ĠPost en
Ġrele vanta
V ER
Ġt ram
ĠN U
ĠBo hus
ĠnÃ¶j e
Ġupptag et
annol ikt
Ġobserver at
> .
ĠfÃ¶r denskull
ĠÃ¥dagal agt
Ġm u
Ġlik artad
ĠNy strÃ¶m
Ġpresenter ats
Ġbok en
ĠSvan te
sprinci p
Ġfinans erna
fin na
Ġarbetsmarknads minister
ĠfolkhÃ¤l san
ĠMÃ¥rten sson
Ġut rust
ĠT e
ĠSt rind
ĠfÃ¶rsvars vÃ¤sendet
ĠfÃ¶rord nas
Ġtull satser
Ġbyggnads styrelsen
Ġbeakt at
Ġ187 7
Ġv and
Ġstats regleringen
Ġuppl Ã¤s
ĠtillÃ¤gg sbudget
am p
ts edan
Ġny f
Ġspar ar
ĠbegÃ¥tt s
ĠinskrÃ¤nk as
ĠkvÃ¤ ve
ĠR as
Ġlag lig
ĠsjÃ¶ man
bes vÃ¤r
ĠavhjÃ¤l pa
Ġut rÃ¤tt
ĠE ken
ĠÃ¶ver trÃ¤
ĠstÃ¤ll es
Ġfisk eri
Ġbo endet
Ġ186 7
ĠfÃ¤ngelse straff
stÃ¤rk ning
k ad
bet o
lighet s
ĠutanfÃ¶r skapet
ĠHolm qvist
skÃ¶ter skor
ĠSta tisti
ĠFrig ge
ar ing
ĠB ru
ans Ã¶k
ĠrÃ¤tt sp
Ġkvinn ans
ĠofÃ¶rÃ¤ndra de
k tionen
ĠS mÃ¥
ĠH Ãĸ
skon trakt
Ġ189 4
Ġavvis at
ĠfÃ¶rbl ir
ĠHa paranda
a uf
ĠNord strand
ĠLÃ¶ fven
Ġhuvud delen
Ã¤mn d
ĠfÃ¶rb ryt
Ġreplik er
Ġallvar ligaste
Ġkemikal ier
Ġfram kommer
Ġstats rÃ¥dens
ara bi
bit rÃ¤de
ĠF ar
Ġly sande
ĠJa pan
Ġhin dras
J A
Ġbostad stillÃ¤gg
ĠUpp en
Ġtillvar on
ĠbelÃ¤g en
Ġkal enderÃ¥
ĠsjÃ¶ mÃ¤n
Ġmottag ande
st ransporter
Ġg all
ĠrÃ¥d givning
Ġflytt at
ĠfÃ¶rbis ett
skrafter na
Ġfrilu ft
ĠHÃ¤r om
Ġhy ress
ĠÃĸ land
Ġpris reglerande
ĠfÃ¶rsvars vÃ¤sendets
ĠÃ¥rsk urs
Ġvar samhet
Ġtag en
Ġembets verk
ĠomhÃ¤nder tagande
ra tional
Ġfrik yrk
ĠÃĸstergÃ¶t lands
ĠNordstrand h
b orn
ĠStats fÃ¶retag
ban orna
ĠEl of
Ġaktualis eras
ĠClaes on
ĠSÃ¶der berg
Ġberednings utskottets
Ġvett igt
ĠH ov
Ġbarn stu
form ul
nÃ¤r ingens
Ġopposition spartierna
Ġdrasti skt
ĠDen ne
ju tits
Ġno terade
ĠavlÃ¶nings stat
Ġpast orat
Ġra tionella
Ġen k
Ġrad ikal
Ġcentral isering
ĠLÃ¤ns styrelsen
Ã¶t ets
ĠutfÃ¶r ts
Ġo an
Ġbil dade
Ġhuvud mÃ¤n
ĠfÃ¶rmÃ¥ tt
ĠÃ¥ ra
ĠE D
Ġir ri
ĠCarlsham re
Ġaf sked
Ġintress erar
Ġlagtex t
is erats
fÃ¶rb and
ĠfÃ¶rlor ad
Ġstruktur om
ĠenhÃ¤ll iga
ĠAg ne
ĠRein feldt
g ivet
ĠR und
ingar ne
Ġplan erat
Ġauktor it
Ġd irig
delega tion
st andarden
ss en
Ġfort bildning
eg are
Ġsubven tionerna
sbi bliote
ĠÃ¶ver fÃ¶ring
arbet slÃ¶sa
ĠfÃ¶rÃ¤n drar
Ġvin nes
ĠvederbÃ¶r lig
Ġprodu ktiv
central er
Ġsva vel
bÃ¶r da
Ġpersonal ens
ĠutgÃ¶r es
ĠfÃ¶rsamling s
ĠfÃ¶rutsatt e
arr ende
ver si
ĠvÃ¤l gÃ¶rande
Ġriksdag smÃ¤nnen
ĠM R
ĠordfÃ¶rande skapet
Ġkommersi ell
Ġseminari um
ĠlÃ¥ngvar ig
Ġall m
still skott
Ġorganis eras
spr em
ĠJordbruks ministern
Ġbe iv
Ġbi o
Ġbl andade
Ġkor por
maskin er
anal ys
ĠH ALL
Ġklar lagt
ĠC at
Ġ189 7
skontroll en
Ġjustitieminister ns
ar utbildningen
Ġvis ion
ĠBe atri
Ġen de
Ġut visa
Ġinnova tions
ĠBernd tson
ĠBeatri ce
Ġr ob
Ġhem kommun
Ġtv if
ĠnÃ¤ring spolitiken
Ġmisslyck as
m ag
Ġjem likt
ĠMeddel ades
Ġgag ne
k redit
sk ur
fÃ¶r d
ese ktorn
Ġfull gjort
ry ss
ĠberÃ¶r d
Ġlin jerna
skill nader
Ġanskaff as
Ġseri Ã¶s
stÃ¤ll are
Ġbet ryck
Ġskog slÃ¤nen
Ġkraf ttag
ĠJu stering
Ġgrunds atser
ĠomnÃ¤mn de
h alt
ĠS Ã¶dra
Ġefter tanke
ĠWi bbl
Ġryck a
Ġfrukt ansvÃ¤rt
ĠSamman fattningsvis
inrÃ¤tt ningar
Ġex pande
Ġpsyk ologiska
Ġ21 5
Ġstimul erar
Ġdiver se
ĠAn ner
Ġbeslut ats
ĠprÃ¶v ats
bÃ¥ ts
Ġval rÃ¶relse
syn ta
Ġfattig are
ska pa
Ġkl as
ĠÃ¤g arna
Ġbesk Ã¤r
fÃ¶rbin delser
Ġut flyttning
iv es
ĠrÃ¤tt shjÃ¤lp
Ãĸ L
intress ena
Ġbil der
iter ings
Ġordent liga
ĠlÃ¤g gning
ĠvÃ¤rnplik tige
ĠJÃ¤m stÃ¤lld
Ġh um
ĠA li
ĠÃ¥ter f
ĠBo sse
sav drag
Ġutbildnings utskottets
ĠWi de
ĠofrÃ¥nkom ligt
b jÃ¶rn
Ġnu lÃ¤get
Ġpris nivÃ¥n
ĠtillfredsstÃ¤ll d
b ankens
Ġr s
ST ER
Ġfack lig
IC A
ĠuppmÃ¤rksamm ats
Ġfolk skollÃ¤rare
W all
Ġmed bestÃ¤mmande
mar t
EL SSON
Ġkonta kten
fÃ¶rvalt ningens
ĠregeringsfÃ¶rklar ingen
Ġan slÃ¶
ĠstÃ¶d jande
Ġ26 0
Ġdrag er
ĠJustitie departementet
Ġordal y
ĠT ure
ĠlÃ¤s ning
Ġin l
Ġstudi es
Ġenergiska tt
s skatt
Ġmin us
ĠfÃ¶rh Ã¶r
ĠaffÃ¤r sbank
Ġskattet ryck
Ġalli ansparti
Ġsj Ã¶m
ank ar
Ġuts edde
Ġhit intills
G reta
Ġled s
Ġslut lig
ĠST A
Ġbefo gade
Ġp redik
ĠfrÃ¤m ling
Ġbruk nings
Ġvidly ftig
f ningen
sfÃ¶rb Ã¤tt
ĠWall strÃ¶m
Ã¤rende na
Ġreligi Ã¶s
Ġde bi
ord nings
ĠSocial ministern
mÃ¤t are
Ġkandid at
Ġb Ã¶tes
Ġman if
ĠC ron
Ġkopp la
organ en
Ġuppskatt as
ugo slav
o ul
Ġint enden
Ġfolk bildningen
ĠfÃ¶rdel at
Ġoffici ellt
Ġdyrtids till
ĠfÃ¶rbl i
es es
ĠS vens
ĠJ en
ĠF re
Ġc o
ĠgÃ¥r dagens
Ġveck o
Ġirr itation
Ġmult ination
Ġregem enten
b urg
Ġfram gent
Ġefter rÃ¤ttelse
Ġhan n
d Ã¶
fÃ¶r farandet
Ġcentral byrÃ¥n
Ġbefint lig
Ġav giva
Ġur val
Ġvinst erna
ĠavlÃ¤m nades
ĠfÃ¶rnu ftigt
Ġklyft or
Ġf ien
Ġt Ã¶r
ĠA fton
Ġrealis tisk
Ġbudgetunder skott
Ġstatsut gifter
on g
ĠM ilj
sb r
Ġkommunikation erna
ĠomdÃ¶m en
sfÃ¶rvalt ning
ĠinfÃ¶r da
Ġinv olver
ĠtÃ¤ck ande
Ġregl erad
ander s
Ġtjen a
Ġframtid stro
Ġsjukdom en
Ġut rÃ¶na
ĠT iden
Ġfri d
Ġkl ipp
ĠfÃ¶rklar ande
sf ient
Ġmisst anke
Ġprovisor iskt
ĠÃ¤ndamÃ¥lsen liga
Ġupp byggnad
O D
Ġom struktur
Ġslut en
ĠnÃ¤mn vÃ¤rt
Ġnord ligaste
ĠunderlÃ¤tt as
Ġvittnes bÃ¶rd
ĠWid Ã©n
Ġbos atta
Ġmuse et
i mer
Ġo Ã¶ver
sta b
Ġafslag it
inten den
Ġan on
dra t
ak er
Ġstats utskott
Ġse ger
Ġty da
ĠsÃ¤n der
ĠlÃ¶nefÃ¶r hÃ¶jning
sfÃ¶ret agen
Ġf os
Ġom vand
Ġman nens
ĠT u
Ã¶te borg
Ġjordbruk aren
Ġanvis ar
represent anter
Ġentrepren Ã¶rer
Ġan bef
ĠJ ugoslav
Ġmark ering
Ġ187 9
Ġall tefter
styr et
ĠanmÃ¤l ts
Ġkonstru ktiva
ĠLÃ¶n n
Ġblin da
ut rustning
ĠW Ã¤rn
Ġfamilj edag
Ġkyrk olag
Ġne utrala
Ġa de
Ġpre parat
Ġreserver ade
Ġrev olu
Ġo lÃ¶
on es
ĠP alestina
Ġbygg naderna
ĠmiljÃ¶ parti
Ġstud iel
Ġkontra propositionen
Ġm amma
Ġtill sÃ¤ttandet
Ġav styrka
Ġle vt
Ġstar tar
AN TZ
ĠmiljÃ¶ frÃ¥gorna
ĠTel ia
i an
st ockholm
ds en
Ġsorg ligt
h ug
Ġin bok
Ġbl unda
Ġintress erat
Ġkraft en
ĠHult qvist
Ġtve kar
Ġtradi tioner
ĠpÃ¥bÃ¶r ja
Ġexpedi tion
v ot
Ġsk revs
ĠÃ¥ skÃ¥d
iti ativ
Ġbygg des
Ġmark er
Ġupplys ningen
ĠfÃ¶rhin dras
Ġmorgon en
o od
tt al
ĠN E
ĠsmÃ¥ ska
Ġkomp an
Ġ189 1
Ġkopp lat
ĠfÃ¶r flyttning
Ġt Ã¤tt
nings mannen
Ġex cep
ĠvÃ¤r dera
Ġfri och
sats en
ĠBr Ã¤nn
Ġreflex ion
ĠJ ÃĸR
ĠR app
Ġjord Ã¤garen
ĠKommun er
Ġprem ier
ĠRiksdags ordningen
sty re
ĠLeijon borg
Ġut sÃ¤tta
Ġupp lÃ¶sning
pri ori
ĠM ALM
ĠT U
lag or
Ġja propositionen
Ġteoret isk
Ġintim t
Ġs op
in delning
trÃ¤ de
Ġpotenti al
vÃ¤r des
Ġra ka
fÃ¶ren k
ĠGÃ¶ tal
in u
om bud
st ens
Ġtra pp
Ġnation ernas
Ġsam fund
rik sdag
STR AND
Ġavvis as
Ġchef er
Ġsamord nings
Ġperm itt
Ġbiob rÃ¤n
ĠKrist in
ĠfÃ¶rhÃ¶j da
ĠskattelÃ¤tt nader
+ +
Ġb rÃ¥k
Ġfamilj ens
ĠPalm stierna
ĠKristian stads
bil den
ĠhÃ¶j ande
skri p
Ġom skol
rad ion
ĠHÃ¤rn Ã¶sand
ĠJak ob
itt ar
L ena
ĠM at
Ġunder lÃ¥t
Ġ18 84
ĠnÃ¤st lidne
var vet
ĠG ATT
Ġbak Ã¥t
ĠfrÃ¤m jas
Ġklass iska
Ġbelys ande
ĠkrÃ¤v es
Ġriksdags grupp
Ġfyll as
b Ã¶cker
ĠH ANSSON
ĠÃ¤n kor
Ġsamman taget
Ġvis ats
ĠberÃ¤k ningarna
Ġinneha fvare
ĠvÃ¤lvill ig
Ġlikvid itet
es or
ransp orterna
ĠEL I
Ġf an
Ġunder skottet
Ã¶j t
Ġpost spar
Ġindividu ellt
ĠfÃ¶rfÃ¶lj else
bru ken
ĠmiljÃ¶ politik
f tem
9 00
Ġin blandning
Ġvet at
ĠorÃ¤tt fÃ¤r
Ġkriminal vÃ¥rds
ĠDom stol
ĠIndustri ministern
Ġo ve
ol oger
Ġvar aktig
Ġmark erats
stjÃ¤n stem
ĠvÃ¤nster parti
Ġeurope iskt
R R
ĠS on
Ġunder gÃ¥
IC K
Ġunderkast ade
Ġrygg en
s ministern
Ġp lik
ĠA X
ĠtillÃ¥ ts
ĠbehÃ¶f liga
ĠhÃ¤r ordning
Ġgyn nas
Ġtonn age
entar iska
Ġledar skap
Ġnyttjande rÃ¤tt
v Ã¤ll
st oppet
ter ande
Ġexemp l
Ġformul erat
Ġbud gets
ĠvÃ¥ldsam ma
ĠPetr Ã©n
Ġn n
Ġin fri
Ġl ut
ĠM yr
Ġobe stÃ¤m
ĠKommun fÃ¶rbundet
Ġmobil tel
stull ar
Ġskattskyldig e
AT O
Ġinrikes minister
G N
sta kt
ĠMo tionerna
Ġsplitt ring
an strÃ¤ng
Ġh jul
Ġse kel
Ġhuvud man
ĠS j
ĠsjÃ¶ mans
Ġsakkunnig as
b ull
Ġned lagda
Ġavslut as
st ycke
ĠL otta
Ġge stalt
Ġbrott sbek
Ġgynnsam t
slÃ¶ ner
teck ningar
Ġgodt ycke
Ġlif ligt
Ġgrundlagsen lig
ĠlÃ¥ts as
Ġbe hÃ¥llning
ĠrÃ¶ da
ĠutfÃ¶r da
ĠÃ¥ra tal
j andet
Ġin bjud
Ġem bet
Ġteknik er
Ġexakt a
ĠBygg nads
ftem Ã¥l
Ġres ek
ĠfÃ¶re stÃ¤llningar
ĠlÃ¶neregl eringen
Ġtill frÃ¥
j ag
Ġar ter
bered skapen
ĠLarsson s
ĠÃ¥syft at
Ġgenomsnitt liga
Ġaf vik
van titet
Ġtel ef
ĠsamhÃ¤llsekonom in
ĠSkol an
sfÃ¶ren ingar
u ens
ri ft
ĠfÃ¶re komm
tag as
van n
ĠhÃ¶j de
Ġtog e
Ġfi enden
Ġmedgif vande
Ġskytt e
Ġbrottsl ingar
Ġupp skatta
Ġmin s
Ġser ie
Ġprecis era
ĠkÃ¤mp at
m use
Ġf u
Ġintag er
ĠHÃħ K
Ġ18 86
Ġbygg da
lit z
Ġorts grupp
and ras
Ġsp r
Ġbes varande
fÃ¶retag are
ĠFor sk
Ġgill ande
nings man
Ġinfl yta
ĠtvÃ¤r s
Ġa c
Ġord nar
Ġtid skrifter
ĠHern elius
ĠÃ¶fver gÃ¥
Ġlin ien
Ġav kastningen
ĠH AM
Ġ18 90
Ġflyg vapnet
Ġad minist
usent al
ĠbehÃ¶r iga
ĠfÃ¶r lagd
ut or
ĠframhÃ¥ll s
ĠtÃ¥g et
Ġregul jÃ¤ra
fÃ¶r handlingarna
ĠK yrk
upp gÃ¶relsen
skostna ds
ĠÃĸ Ã¶ver
ĠAktie bolaget
Ġen var
ĠberÃ¤k nings
fÃ¶retag et
Ġinled ningen
c a
ĠN yg
Ġkon ver
Ġfl otta
ĠhÃ¤nsyn stagande
Ġsti l
Ġarbetsl injen
Ġkompens eras
ĠPET TERSSON
Ġtillvarat a
B ORG
Ġinterpellation erna
Ġkronoegen domar
ĠtillgodorÃ¤k na
ĠlÃ¤g enheten
ĠhjÃ¤lp t
ĠfÃ¶ranled da
ĠL oth
Ġned lÃ¤gga
Ġrevis or
ĠElm Ã©n
ĠKommunikations minister
Ġminist rar
ĠfÃ¶redÃ¶m e
Ġt era
Ġst Ã¶tande
Ġgenom dri
ĠÃ¥lig ganden
d andet
Ġskriv ningen
ĠaffÃ¤rs drivande
fÃ¶rbin delse
h err
Ġt rÃ¥n
ĠH ÃĦ
ĠH yres
os ov
hÃ¥ll its
ĠmiljÃ¶ politiken
fÃ¶rslag en
Ġdeltag are
ĠLind holm
ĠmÃ¤nsk ligheten
ĠÃ¥tag it
ĠÃ¥ter betalning
ĠÃ¥ter stoden
Ġtapp ar
Ġkorr es
p ningen
Ġupp kall
ĠfÃ¶rslag s
ĠFor slund
Ġdefiniti va
Ġs akt
eg na
Ġliv sl
peri od
ĠDer fÃ¶r
ĠHer litz
Ġb Ã¤nk
Ġo oo
Ġint rÃ¤d
Ġutskott sfÃ¶rslaget
Ġbeakt ar
Ġbibliote ket
Ġsk ra
Ġut fallet
Ġbe vak
Ġmot stÃ¥ndet
Ġbel Ã¥
ĠhÃ¶r n
reg ionerna
ĠkÃ¶p et
ĠbestÃ¤md het
Ġensi dig
ĠRing holm
Ġis Ã¤r
Ġoviss het
Ġins inu
ĠlÃ¤rar utbildning
Ġorik tiga
h o
Ġti t
ĠGÃ¶r el
Ġinstitu tionerna
Ġassist ans
Ġtviv lar
Ġb id
ĠÃ¤ t
Ġsjuk husen
Ġgener Ã¶sa
Ġpass erat
ĠjÃ¤tt ev
Ġav fattning
ĠvÃ¤g rat
ĠjÃ¤m na
Ġakt Ã¶r
ĠNor ling
Ġfabrik s
stjÃ¤nst gÃ¶ring
rapp orten
Ġvar dagen
Ġakti erna
Ġoptim ism
p al
Ġav regl
ĠhÃ¤n delserna
Ġtrygg are
Ġregelb undet
Ġer kÃ¤nn
Ġkam rat
ĠVar ken
ĠÃ¶versti ga
Ġundandrag a
Ġsj Ã¶l
lÃ¤g set
Ġing er
Ġreg ement
Ġtills vidare
orp s
Ġkv ick
ĠH EN
ĠvÃ¤r dighet
sekreter are
ĠL Ã¶vd
Ġborts ett
spen gar
Ġska das
Ġener gif
Ġsub sid
inspekt Ã¶r
Ġvi ta
ĠCh ile
Ġkap ten
at et
adem ien
Ġf ans
Ġc e
gen da
ĠSkol a
ĠChrist ina
Ġav lÃ¤gsna
stÃ¤ll de
Ġse parat
Ġskol gÃ¥ng
Ġskatte hÃ¶jning
Ġins Ã¥g
Ġkontin enten
Ġdyg n
o gad
Ġan gÃ¥
Ġd am
Ġ27 0
ĠupptrÃ¤ dde
Ġr op
ĠM unde
Ġutbetal ning
ĠUng efÃ¤r
ĠtillfÃ¶rsÃ¤k ra
ĠGem ensam
ĠWir tÃ©n
Ġframskri den
Ġtyp iskt
Ġliber aler
fisk e
0 7
Ġaktualis erats
Ġmuse er
Ġem ig
Ġgod ta
ĠAr vika
Ġstud ium
Ġreform era
ĠmÃ¥ng t
Ġfamilje politiken
c s
Ġmed ling
ĠH Ã¤gg
verk as
ĠtillhÃ¶r ig
ĠSV AN
Ġprem ie
ĠutfÃ¤st elser
ol ja
ĠH jÃ¤l
sm Ã¤nnens
Ġavva ktar
ĠfaststÃ¤ll des
Ġfunktionsned sÃ¤ttning
ĠLoth ig
Ġtill skap
ĠÃ¶ver befÃ¤l
ĠL ill
Ġstad splan
sav gifterna
ĠdÃ¶m da
ĠJugoslav ien
ĠK lar
alis men
Ġunderord nad
Ġbl y
ĠPro fess
Ġkat ek
ĠSten berg
Ġintegra tionen
ĠÃ¥terin fÃ¶ra
ĠFrigge bo
ĠWibbl e
Ġut krÃ¤
ĠomvÃ¥rd nad
sta ben
Ġstud ierna
Ġkart lÃ¤gga
ĠkrÃ¥ng el
ĠDAM BERG
sb est
Ġuppman ingar
Ġopera tion
T V
Ã¤d da
alis erade
ĠnÃ¶j t
Ġide ologisk
berÃ¤tt else
Ġpassiv itet
Wall Ã©n
Ġb rin
ĠÃ¤r a
Ġst ag
ĠB os
Ġny till
Ġhem lÃ¤n
vÃ¤rde ras
ĠPr inci
Ġinbok ade
Ġf Ã¥nga
Ġut reder
ĠP il
Ġsp ion
gÃ¶r anden
Ġins ikten
Ġmotiver ingar
Ġmoral isk
ĠGran skning
ĠnaturvÃ¥rds verket
Ġtving ades
Ġteleg ram
ber t
ĠKon sekvens
Ġsm uggl
fÃ¶ren ingens
Ġskrift ligt
Ġdrift budgeten
ĠbekÃ¤mp ningsmedel
Ġgymnasti k
F ORS
Ġungdom ars
Ġtele verket
'' .
Ġjournal ister
ĠdÃ¤r uppe
Ġhem ort
Ġel fte
ĠlÃ¤ro verket
ĠmÃ¶r ka
Ã¤r ernas
Ġre ala
ĠG ar
ona tional
skyldig e
Ġtilll Ã¤mp
ĠLEI F
ĠfÃ¤der nesl
ĠInvand rar
ĠM A
ĠkÃ¤n dt
Ġintag en
Ġskattefri het
Ġskatteint Ã¤kter
ol and
Ġ18 88
Ġansvar ighet
Ġby te
Ġbibliote ks
sbek Ã¤nn
ĠLiv smedel
Ġan lÃ¤ggande
ĠfÃ¶retag shÃ¤lso
san stalt
EL M
Ġ186 6
Ġbefar as
ĠbehÃ¶r ig
ĠjÃ¤mn t
Ġogill ande
ĠLothig ius
ĠVi ola
Ġdag lig
ĠlÃ¶ pa
Ġide ologi
Ġunderka stad
Ġci terat
Ġrealis era
ĠT ob
im um
rest rik
Ġprisstegr ingar
S B
ss ess
Ġ20 8
Ġkrig sh
Ġtax eringen
Ġannor stÃ¤des
fÃ¶rl ust
Ġtillsk yn
ĠHelgeands holmen
Ġut spel
ft al
ĠnÃ¤ring spolitiska
Ġuppm juk
ĠÃ¶fverenskomm else
du bb
Ġmilj Ã¶r
mer ande
Ġtaxerings vÃ¤rde
bryt ande
ĠBri tta
Ġm Ã¶nst
Ġv est
ĠK EN
Ġkl im
Ġkrig skonjunktur
sin stitutet
Ġavslut ade
Ġsock nar
Ġobje ktivt
ĠM ora
posi tions
Ġord nandet
upp fattning
frÃ¥gan s
Ġavdrag et
Ġdevalver ingen
tift elsen
ĠtillmÃ¤ tas
Ġin stÃ¤lla
Ġkar olinska
Ġtax e
ĠRU NE
ĠGl Ã¶m
Ġkvadrat meter
P P
ĠberÃ¤k nades
ĠNord strÃ¶m
Ġch ock
Ġdit hÃ¤n
Ġtor v
Ġum gÃ¤ng
f yller
Ġsp Ã¥ra
ĠKonstitutions utskottet
ĠJON AS
d het
Ġs ab
ĠR Ã¥d
ĠhÃ¶j den
res urserna
ĠBo o
rapp orter
ĠfÃ¶renk lingar
gi ver
bered ning
ĠRos Ã©n
Ġom yndig
ad d
Ġutom stÃ¥ende
Ġengag erad
Ġyr ket
Ġvoteringssedlar ne
C AR
Ġar ten
Ġned lagt
ĠsmÃ¥ brukare
ĠkÃ¤r nan
Ġfjort on
hel m
Ġokl okt
ĠSk Ã¥r
ĠerhÃ¶ll e
Ġparall ellt
ĠRing aby
ĠlandshÃ¶vd ing
Ġpolem ik
Ġkr y
ĠIn frastruktur
at Ã¶r
Ġdel aktiga
sp o
ĠC a
ĠrÃ¤ttegÃ¥ng s
ĠS une
ĠskolÃ¶ver styrelsens
Ġskand inaviska
0 4
Ġv ol
Ġmots Ã¤gelse
mÃ¤kti g
kl ubb
Ġfinansi erings
ĠfÃ¶reskri va
Ġ189 6
Ġkrigs makten
Ġamb ul
Ġoffens iv
ssak kunniga
Ġreflek tera
ĠL ud
Ġundvik er
f ack
Ġkl ient
Ġunderst Ã¶ds
ĠuppmÃ¤rksamm ade
Ġs ill
ĠrÃ¥ vara
alis eras
Ġalko holk
Ġparlamentar iker
Ġkonstru ktiv
anvÃ¤n dningen
ĠÃ¶fverlem nas
ĠutjÃ¤m na
Ġen igheten
Ġvet skap
Ġ20 2
ĠdÃ¶m d
Ġbilda des
Ġpen d
ĠbekrÃ¤ft at
ĠnÃ¤t verk
ĠbristfÃ¤ll ig
Ġl eta
ĠavlÃ¶ ningar
ĠFrid olin
Ġdemonstra tion
ĠtillvÃ¤gagÃ¥ng ssÃ¤tt
Ġl arm
Ġ20 6
Ġminoritet er
ĠfÃ¶r teckning
Ġin sam
Ġkultur utskottets
Ġhandling sprogram
n Ã¤st
Ã¶ vare
ĠS of
Ġfastighet erna
ĠÃ¥ vil
Ġkonkurrens ut
ĠtrÃ¤ff ades
Ġkomplettering spropositionen
ĠHenrik sson
Ġmarknadsekonom i
sk ogs
ĠS enast
Ġung e
ĠanstÃ¤ll ande
Ġafs Ã¶n
Ġposi tioner
ĠvÃ¥rdnads bidraget
Ã¤ro verken
ĠN Ã¤
Ġaf gÃ¶ras
Ġutveckling ssamarbete
ob liga
Ġdr Ã¤g
Ġuppn Ã¥r
Ġtill it
var ens
Ġstudie cir
Ġupptag er
grund ande
Ġskif t
skass or
spersonal en
ĠutlÃ¥ ning
Ġt rÃ¥ng
ĠA SS
und om
spro centen
ĠBo ktryck
ĠBe stÃ¤mm
ĠuppnÃ¥tt s
fÃ¶rÃ¤ndring arna
Ġeg are
Ġtryck er
Ġafs es
Ġkonkurrenskraft en
ĠCron vall
Ġupp ta
Ġsvar ades
Ġplan erad
ĠKrono bergs
Ġb of
ĠR S
ĠT T
Ġstor finans
ĠrÃ¶r elser
Ġdram atiska
Ġt Ã¥la
sl Ã¤rare
ĠSk and
Ġfru kta
Ġhandel savtal
ĠrÃ¤tts lig
s und
Ġ20 7
Ġuteslut as
ĠHall ands
ĠspÃ¤n ning
ĠvÃ¥ldt Ã¤kt
Y D
t ull
be stÃ¤mmelse
ĠHall sta
Ġutred aren
ĠW alden
ij ser
l j
ti ta
eg g
ĠmiljÃ¶ balken
OL IN
Ġhandels och
Ġreakt orer
Ġutrikes handel
Ġrel ationerna
Ġverl den
ĠvÃ¤r m
Ġutveck lad
ĠDÃ¤r av
Ġslut at
ĠlÃ¤r dom
pen ningen
Ġek ologisk
Ġakadem ien
Ġisol ering
ĠL app
ĠundersÃ¶k er
skom itÃ©
Ġsakkunskap en
Ġupp gÃ¶ra
Ġslut ligt
ori er
Ġfast landet
Ġfarh Ã¥ga
ĠKa ijser
Ġstor stads
ĠÃ¥ter ge
ĠpÃ¥bÃ¶rj at
Ã¤nd ningar
ĠÃ¥klag ar
Ġinty gas
ĠGrek land
ĠPortug al
b ron
d rott
v igt
Ġt je
ĠR OLF
ĠSand ler
Ġbeting elser
inrikt ning
ti gas
Ġbe hÃ¥ller
Ġtax or
ĠomÃ¶j liga
Ġhej da
st Ã¤ng
sb edÃ¶m
Ã¶f ningar
Ġhufvud staden
Ġansvars full
Ġb us
Ġ20 30
ĠÃħ S
Ġbrott en
ĠtillÃ¤mp at
Ġlever erar
nivÃ¥ er
Ġprelimin Ã¤r
ĠFisk esjÃ¶
ĠE j
sp rid
Ġfor na
ĠlÃ¥ngsik tighet
ĠFÃ¶rsvars ministern
ĠmÃ¤ ktiga
ss r
ĠfÃ¶rsÃ¤k rar
ĠlÃ¤ns styrelsens
ĠvidstrÃ¤ck ta
ĠSigur dsen
f Ã¤ng
ĠÃ¶ver tagit
bil e
ĠinvÃ¤n ta
Ġvarier ande
Ġa journ
in te
ak an
ĠÃ¶ver skÃ¥dlig
ĠlÃ¤ro anstalter
ĠarbetsfÃ¶r hÃ¥llanden
ĠÃ¤ventyr s
ĠF RI
Ġfabrik en
slin jer
ĠSp Ã¥ng
ĠH ess
styr ning
ĠlÃ¤r jung
Ġfem in
Ġarrendat orerna
ĠofÃ¶rm Ã¶g
Ġt yn
bru ka
ĠstÃ¶r ningar
Ġjord Ã¤gare
Ġorgan en
ĠÃ¥terupp togs
ĠjemfÃ¶relse vis
Ġexploat ering
ĠlÃ¶ft et
k nings
Ġa lar
ats erna
Ġerfar a
Ġtillstyr kta
Ġkommun s
Ġviktiga st
Ġsti fts
ĠpÃ¥tal a
Ġvett ig
monopol et
Ġank nyta
f astigheter
Ġbl o
Ġpro cen
ĠKarl sborg
hand lade
Ġbok stav
ĠJon Ã¤ng
Ġhufvudsak liga
ĠInterna tionellt
ĠfÃ¶rknipp ade
Ġajourn era
k orts
Ġb ytt
ĠfÃ¶rs vann
ĠC am
ĠW as
Ġbil dar
lÃ¥t enskap
Ġenhet ligt
Ġmedlemsstat erna
Ġkvan titeter
Ġ18 87
Ġav reglering
Ġskick at
as in
sti ska
Ġanled ningarna
ĠC las
kl ang
Ġfem tio
Ġinvestering savgiften
ĠfÃ¶relÃ¤g ga
Ġolycksfall s
Â» ;
Ġgranska s
tsam mans
Ġs ortens
st Ã¥l
ga ser
ok k
ist ad
Ġkri stiden
ĠjÃ¤mfÃ¶r elsen
ĠbekrÃ¤ fta
ĠprissÃ¤tt ningen
s vik
ĠF OR
Ġgrund skatterna
Ġkom vux
ĠCarl son
ĠHar ald
Ġin struktioner
Ġ$ .
Ġgra der
ĠbostÃ¤ll en
ĠGull an
Ġd Ã¶v
Ġar f
Ġarbet skonf
Ġent r
kommittÃ© ns
ĠfÃ¶r frÃ¥gan
Ġer satt
be bygg
ĠÃħ sb
ĠanmÃ¤l er
mo tioner
ĠavvÃ¤g ningar
ĠbeklÃ¤m mande
re akt
Ġned re
Ġfort fara
ĠMo ts
Ġgo de
Ġdyg net
Ġr om
ĠmiljÃ¶ fÃ¶rstÃ¶r
Ġinvester ar
reg istret
Ġy pp
der skap
ĠK Ã¶p
Ġmo g
ĠO TT
ĠInne hÃ¥ll
ĠMog Ã¥rd
belopp en
Ġrepar ationer
an lÃ¤ggning
Ġm Ã¶ts
Ġsy ftemÃ¥l
Ġnatur ligen
alt ull
ĠlÃ¥n ar
Ġbostadsb risten
ĠJem t
s v
ĠrÃ¶r lig
van ter
ĠberÃ¶r ing
ĠfÃ¶rl Ã¥t
ĠfÃ¶rberedel ser
Ġmultination ella
in ter
fÃ¶r stÃ¥
Ġor dag
ĠsÃ¤ll synt
Ġsamling spartiets
ĠS pe
ĠM ol
ĠK ENN
Ġprogram men
ĠvÃ¤rnplik tig
Ġjustitie ombudsmannen
Ġsuccess iv
ĠLÃ¶v gren
Ġlad u
sspar andet
ĠK ostna
ĠÃ¶v ning
Ġstimul eras
berÃ¤ttig ad
Ġtal ades
Ġarbets fÃ¶rmÃ¥ga
Ġc ell
ĠlÃ¥ngvar iga
Ġin stall
Ġkr Ã¤nkningar
ĠlÃ¶nsam heten
k ring
ĠbitrÃ¤ der
ĠsvÃ¤l t
Ã¶ ket
ĠN N
Ġskog ens
ier at
Ġorganisation ernas
sin stitut
Ġberedskap en
Ġgeneral post
Ġtiller kÃ¤nnas
Ġav verkning
ĠlÃ¤r ande
Ġtving ade
ĠSjÃ¶ holm
ĠÃ¶m mande
Ġmulti lat
ĠfÃ¶rb jud
Ġfundera t
p at
ĠÃ¤ ter
Ġfr an
ĠÃ¤l d
splan erna
Ġproduc enterna
Ġklag ar
Ġklok are
Ġru in
Ġteat ern
Ġbekl Ã¤d
or k
em arknaden
ĠâĢĶ ,
ĠÃ¥syft as
ĠLÃ¤g et
Ġtiot usentals
ĠfÃ¶r kÃ¶p
ĠfÃ¶rdel aktiga
Ġkyrk of
Ġefterly ste
Ġutsk Ã¤nkning
Ġlag ligt
Ġarbets rÃ¤tten
andel en
Ġut dÃ¶m
ĠO SSE
Ġfull mÃ¤gtige
Ġbesitt ning
ĠNÃ¤ring sliv
C h
Ġg ed
ĠR oland
ĠhÃ¶r da
Ġomfatt ade
Ġremiss behand
skatte verket
Ġbesitt er
ĠSil fver
Ġeg o
ĠdomÃ¤n verkets
go ds
ĠlÃ¤roplan en
ĠNett el
Ġs unt
Ã¤g t
ĠG unnel
Ġsamman fattning
rad t
Ġkraft verk
minist rar
Ġbrutt onational
ĠLÃ¶vd Ã©n
Ġhy ste
ĠfÃ¶rtyd liga
m os
kon troller
Ġkvar talet
struktur en
Ġerbju ds
Ġmeningsskilj aktighet
ĠOTT O
ck ar
ĠStockholm somrÃ¥det
Ġbred vid
Ġmotions yrkanden
Ġunderkast as
ĠÃ¶vertyg ande
ĠT im
ĠPer sonal
ĠmÃ¶r k
Ġuppmunt ran
Ġkortt ids
Ġmonop olis
i derna
val ific
Ġbespar ingarna
Ġfattig domen
ĠBal tik
f ru
Ġl of
veck an
ĠfÃ¶red rar
Ġskick liga
Ġtolk at
Ġensi diga
ĠfÃ¶rse gl
ĠfÃ¶ref unn
ĠAsp ling
Ġ18 81
cent ra
Ġbostads rÃ¤tter
stekn ik
as pek
Ġren od
Ġkommunikations minister
begrepp et
Ã¤tt ande
ĠF i
ĠF RE
ĠbÃ¶r d
ĠlÃ¤r arnas
Ġmedel san
Ġstuden tex
j ent
bl Ã¥
Ġsocial istisk
slÃ¶n erna
ĠFortsatt es
S N
Ġdel Ã¤gare
ĠframstÃ¤ll d
ĠfÃ¶rklar ligt
Ġtransp ortera
Ġhundra tal
Ġspring a
n in
Ġin struktionen
ĠT yd
Ġskyd dar
stv ister
Ġapote ks
Ġd unk
ĠpÃ¥ gick
Ġall er
ĠK Ã¶n
Ġsak nat
ĠReser vationen
Ġ )
ĠÃ¶ver vaka
Ġgenom l
Ġsvar s
Ġgran ne
ĠfÃ¶ranled as
Ġmenings fullt
Ġomarbet ning
Ã¤ ft
upp draget
ĠPerson ligen
0 6
Ġ20 4
Ġanslag ets
ĠY stad
Ġskattel in
ĠLorent zon
ĠSven ingsson
tor p
ĠBo hlin
Ġhot a
brott et
Ġ189 5
ĠFran sson
flyg et
D Ã¥
an tal
ĠS jÃ¶n
Ġprincip beslut
ĠfÃ¶rny ade
osov o
K r
ĠarbetslÃ¶shet ens
Ġanpass ad
sint ressen
Ġarran ger
ĠNe w
an ordningar
Ġen ats
Ġut pl
var es
ĠDÃ¤r i
ĠtillfÃ¤ll ighet
ĠfÃ¶redrag as
sbidrag et
ĠErfar enheten
ĠDick son
ĠMunde bo
M ed
Ġsk rÃ¤ck
at orium
fÃ¶r med
Ġupp vÃ¤xt
ĠH ild
Ġkammar rÃ¤tten
ĠW itt
ĠFin n
ĠTh age
Ġregional politiskt
Ġ189 3
stegr ingen
ĠBO D
Ġenergik Ã¤llor
Ġst rÃ¥
ĠÃ¥ter spe
Ġskydda d
Ġfoster land
ĠslutÃ¤n dan
Ġupp visa
ast Ã¥ende
Ġfakta promemori
Ġgrundval en
Ġhandel spolitik
Ġarbetsgivar avgifterna
un dens
Ġmuse um
ĠVin del
Ġfal sk
ĠFrid olf
ĠFÃ¶r teckning
kl amen
Ġdrag its
Ġuttag as
T O
Ġ18 89
skrid it
ĠNettel brand
ĠtillÃ¥t na
ĠpÃ¥bÃ¶rj ats
M A
Ġavs ak
Ġkor s
ĠbevÃ¤r ing
Ġskattefri a
h Ã¥l
sa pparat
itu ationer
Ġavst Ã¤ng
Ġtur k
Ġextrem a
Ġoaccep ta
Ġbem Ã¤stra
Ġgynnsam mare
Ġi slam
Ġu rakt
ĠR agnar
fall en
skriv else
ĠbekÃ¤mp as
ĠfrÃ¥ge stÃ¤llning
ĠHelsing fors
Ġin fordra
ĠN ATO
ĠAr r
ĠfÃ¶retrÃ¤d arna
Ġuppt ogs
egor ier
s frÃ¥gor
Ġaf sett
ĠgodkÃ¤n ts
sfÃ¶ren ing
Ġp in
Ġfram lÃ¤gger
ĠB ot
Ġbostad slÃ¥n
Ġrehabil iterings
Ġtill kÃ¤nna
Ġenskil das
Ġarbetar skydds
ĠfÃ¶rfog ar
ĠlÃ¶ nande
Ġ18 82
ĠAll deles
ĠEr sÃ¤ttning
Ã¤ss jÃ¶
Ġlantbruks nÃ¤mnderna
ĠInd ones
ĠHAG BERG
K U
ĠJ ANSSON
Ġ20 3
Ġ20 9
Ã¶verenskomm else
Ġkomm itt
Ġsjuk skrivning
pension en
Ġjustitie utskottets
Ġh ol
Ġsamman hÃ¥llen
ĠundersÃ¶k as
ĠansÃ¶k ning
ĠpÃ¥bÃ¶rj ade
Ġsyn s
ĠW ist
ĠCh arl
Ġsn Ã¤ll
ĠKonkur rens
ĠfÃ¶r plik
sam mas
Ġdebatt eras
sin satser
Ġuppe hÃ¥llande
ĠfÃ¶rsÃ¤m rar
Ġlokalisering spolitiken
ĠÃ¥ter stÃ¥
Ġkri stids
kunn ig
Ġflykt ingarna
ĠÃħng strÃ¶m
S R
em ots
Ġny heter
akti vt
ĠLÃĸ V
Ġutnyttj at
Ġtiller kÃ¤n
Ġcenterparti ster
char ge
Ġjag a
ĠÃ¶ver h
Ġlag Ã¤ndringar
ran ter
b eln
ĠS ell
komm ission
Ġjustiti er
ĠHel and
ĠfÃ¶rvÃ¥ nade
Ġbeteck nande
Ġfys iskt
ĠvÃ¥lds brott
ĠWÃ¤rn berg
Ġm juk
Ġh jer
ĠJ ENS
Ġall o
Ġfor n
Ġsl ump
Ġstyr s
Ġfolkpension erna
Ġv enti
ĠR en
Ġtro sbekÃ¤nn
v agn
ĠfÃ¶r skaffa
Ġn Ã¤
ĠR ober
Ġta kten
hem met
vill igt
Ġefterly st
ĠERIC SON
Ġtill delning
Ġock u
ĠvÃ¥ll at
hal ten
statisti k
ĠErn st
ĠHÃ¶k mark
Ġklag an
anpass ning
Ġmeningsf rÃ¤nder
ĠS nar
ĠL U
Ġkur sen
Ġko ali
ark ivet
Ġpropor tioner
Ġogynnsam ma
ĠfÃ¶rdelaktig are
Ġsexual brott
Ġv v
Ġkan ten
ĠÃ¤ndring arna
led ig
ĠfÃ¶rdel ade
Ġstruktur er
ĠframtrÃ¤ da
ĠfÃ¶rkort a
ĠfÃ¶rtjen a
Ġvattenfalls styrelsen
Ġtill sÃ¤tter
ĠD it
Ġbeslut ades
ĠvÃ¤r dt
ĠrÃ¶r ligheten
Ġsekreter aren
Ġkontro versi
auf fÃ¶r
ĠS U
Ġfram tving
ĠE der
mer s
Ġprakti ser
ĠsjÃ¶ ss
ĠfÃ¶rf oga
Ġstat ernas
ĠJohan nes
ĠÃ¥lder dom
Ġrust och
Ġradik ala
an mÃ¤l
Ġh alt
Ġt ok
Ġmed givit
Ġvar ven
Ġun if
Ġkun d
ĠO ff
Ġer s
ĠUt bildning
Ġtull frihet
ĠfÃ¶rt ur
Ġintag ning
Ġanteck ning
Ġbarna vÃ¥rd
i ernas
Ġuttal ad
vet y
nÃ¤mn de
e ligt
Ġkonjunktur erna
Ġindrag na
Ġliber alerna
Ġyttra ts
ĠbefÃ¤l et
Ġborttag a
al ning
Ġom stÃ¤llnings
Ġverksamhet erna
ĠanmÃ¤l ningar
ĠN eder
Ġbel yser
rÃ¶r elser
ob el
ĠWist rand
f arna
h Ã¤st
Ġtill tagande
Ġall emans
mar gin
ĠgrÃ¤ns Ã¶verskridande
ĠKristin ehamn
b Ã¶n
er Ã¶relsen
yl an
Ġmodern isering
ĠhÃ¥llbar het
ĠIndones ien
ol v
Ġpar ad
Ġanslag na
Ġtve ka
ĠtillmÃ¤ ta
ĠkÃ¶par en
Ġsocial isering
Ġkonf ron
Ġgymnas ium
Ġanstal terna
Ġfinan spolitik
Ġten derar
s fonden
Ġrik are
ĠO d
ĠT um
Ġefter gifter
arbet ets
sbe vis
vÃ¤n d
ĠÃĸ B
skill iga
ĠBol und
Ġunderofficer are
Ġlag fart
ĠsÃ¤r stÃ¤llning
ĠofÃ¶r del
ĠL ands
Ġkon cern
Ġbarn bidraget
Ġmissbruk are
ĠsamhÃ¤ll sutvecklingen
Ġrote hÃ¥ll
ĠanfÃ¶r es
Ġka paciteten
industrin s
ĠS Ã¤kerhet
Ġsp ets
pro cent
Ġtrafik politiken
lin je
Ġbild andet
vÃ¥r igheterna
Ġinled ning
Ġungdoms vÃ¥rds
ĠbekrÃ¤ft else
ĠspannmÃ¥l s
Ġgeneraldirekt Ã¶ren
is tik
ym d
Ġunderst undom
Ġgrunda v
Ġh Ã¥g
Ġhuvud staden
Ġ21 2
Ġfinansi erar
ĠtillÃ¤ggs direktiv
i terade
or isk
Ġmed ie
tig heten
ĠhjÃ¤r t
Ġbostadsb rist
direkt Ã¶r
ĠofÃ¶rm Ã¥ga
Ġneddrag ningar
ĠpÃ¥ yrka
ĠK ol
ilj etter
sb egrepp
van gel
ĠmilitÃ¤r tjÃ¤nst
Ġbas erad
ĠfrÃ¥gest und
ĠHÃ¤lsing borg
Ã¥r igt
Ġunder lÃ¥tit
Ġkun g
Ġdemokrati minister
ĠOr d
ĠvalfÃ¶rrÃ¤tt ningens
0 8
Ġupp gÃ¶relser
ĠE NER
sfÃ¶r delningen
Ġreform erna
ĠDisk uss
st ak
Ġb n
ĠLin n
Ġ! /,
sk red
ĠD i
ĠnÃ¤r omrÃ¥de
Ġbed r
Ġsamling slokaler
ansÃ¶k an
ĠriksfÃ¶rsÃ¤krings anstalten
h ing
k ollegi
Ġom l
stÃ¤ll das
ĠâĢ ĳ
enom en
olk ning
iss ioner
Ġc orona
Ġbety delsel
ĠmiljÃ¶ omrÃ¥det
ytt an
Ġprester a
Ġantag ligt
Ġkapital budgeten
Ġuppe hÃ¤lle
Ġfantas tisk
ĠJÃ¤m fÃ¶r
Ġin lem
rÃ¥ da
Ġkan aler
Ġsynner liga
Ġkval ifikationer
Ġbetrakt elsesÃ¤tt
Ġsocker bets
Ġkontrakt et
Ġdug g
ĠBaltik um
Ġ23 5
ĠEuropa parlamentet
pote k
Ġundvik ande
Ġt yg
Ġin stÃ¤lld
Ġl anser
Ġall tsammans
Ġmen ligt
ĠlÃ¤ng sta
tik var
ĠEx port
ĠfÃ¶rkort ning
Ġpreven tiv
Ġhem mans
Ã© e
Ġpenning politiken
ark Ã¥ren
ĠLant bruks
Ġretor ik
Ġn ag
Ġut hyr
ĠnÃ¤ring arna
ĠDal arne
Ġkvan tita
ĠBill ing
Ġarbetsb Ã¶rda
E E
ĠÃ¶ver t
Ġfinansi ell
Ġter mer
ĠENER OTH
Ġv ant
um m
chef ens
Ġjakt en
Ġbos Ã¤ttning
Ġinterpellations debatten
institu tionen
ĠbrÃ¥d skande
Ġs ov
ik s
Ġall e
Ġdel gif
ĠL Ã¥n
ĠframgÃ¥ng ar
Ġlek man
Ġbuss ar
ĠBifÃ¶ll s
Ã¤ de
ĠÃ¤r liga
IN K
Ġstads full
ĠBag ge
u ell
Ġm att
ire g
CH T
ĠRÃ¶ ing
Ġefterm id
ĠR Ã¶n
ĠKomm unal
ĠbelÃ¤g enhet
ĠÃ¶verklag a
ĠrÃ¤nt orna
Ġut el
ĠH ER
Ġaf gÃ¥
ĠB Ã¤r
ĠIn t
ĠbegrÃ¤ns ningen
ĠDahl berg
ĠprÃ¤g lar
ĠhÃ¤m mande
Ġflexi bel
sÃ¤ ter
i ma
ĠMo sk
Ġkyrk lig
Ġbeskriv s
berÃ¤k ningen
Ġutlov ade
redo visning
Ã¶ ten
ĠS u
enter ade
Ġbil arna
ĠMo tiver
Ġot vety
Ġbeskaff ad
Ġbro ar
ĠK alix
Ġkont anta
ĠNor ra
Ġfullkom lig
Ġsparbank erna
an ol
Ġin ord
Ã¤tt ningar
ĠK och
Ġpl Ã¤
ĠlÃ¤m par
Ġutarbet as
ĠLi ssa
ĠfullfÃ¶l jer
ĠLjung berg
Ġslutgil tigt
ĠÃ¶vervÃ¤l digande
ĠOtto sson
Ġutskyl der
Ġvilseled ande
ĠA k
ĠÃ¶ver taga
Ġstyr kt
Ġkonjunktur er
p rakti
ra batt
man n
ĠjÃ¤rnvÃ¤g sn
IL A
Ġstimul erande
Ġrationalisering ar
ĠÃ¤venty ras
Ġge stalta
Ġtull verket
Ġinrikt ade
Ġstift else
ĠÃ¥tstram ning
ĠTure sson
ĠSjÃ¶n ell
iv i
Ġtalar ne
ĠlÃ¤mp ade
sbygg andet
dri ften
Ġtjenstem Ã¤nnen
ĠSamman taget
Ġgens aga
gran skning
Ã¤nk ningarna
ĠfÃ¶reskri ver
Ġlokal erna
ĠanslÃ¶ t
kon trakt
Ġdebatt erat
Ġstar tat
ĠÃ¤g da
Ġhus mÃ¶
Ġavvik er
ĠBIRG ER
Ġtidig arelÃ¤g
nings fÃ¶retag
ĠsjÃ¤lv styrelsen
Ġstraff arbete
Ġfal ska
ĠotÃ¤nk bart
Ġadministra tivt
Ġskyn da
r emiss
ed sson
Ġvar sl
ist yrelsen
Ġsp ill
Ġansvar a
chef erna
Ġorsak ar
ĠY GE
Ġutvid gningen
ĠSTR AND
ĠSof ia
ĠYGE MAN
ger na
sh andel
ĠskÃ¤r gÃ¥rds
Ġterrit orium
Ġt rÃ¥d
Ġmiss visande
Ġhu sen
ĠHvar fÃ¶r
ĠHag Ã¥rd
Ġdetalj erade
ĠvÃ¤st kusten
ĠHild ing
ĠO lika
Ġc yn
ĠtjÃ¤nst ledighet
ÃĦ CK
ĠNorg es
lid ande
Ġbeto nas
ĠpÃ¥yrk at
pp en
Ġviss o
inspek tionens
Ġkonstitu tion
procents mÃ¥let
ĠvÃ¤xt hus
v Ã¥g
Ġd il
Ġ21 8
Ġblyg sam
d ok
Ġver ks
ĠgÃ¥r dagen
ĠW ID
ĠsÃ¤kerhets rÃ¥det
Ġaccepta bel
Ġj ur
led ningar
kon sekvens
ier ad
ĠomrÃ¶st ningar
Ġavslut at
ĠutÃ¶k at
Ġdialog en
ĠLissa bon
o c
Ġfolk och
Ġroll en
Ġuppman ar
ĠHÃ¥ stad
ĠÃ¤venty ra
modell en
ti pend
Ġstats skick
Ġfolk skola
Ã¶n erna
regl erade
direkt Ã¶ren
ĠÃ¤ndrings fÃ¶rslag
i tionen
Ġk op
Ġp ant
ĠMen ingen
stu derande
Ġtele vision
ĠEd strÃ¶m
skass ans
ĠKommunikations ministern
in je
are gl
med borg
Ġperson ella
ktor er
ĠberÃ¤tt elser
Ġuppt rÃ¤tt
Ġgrunds yn
Ġmenn iskor
lÃ¤gg are
ĠfÃ¶rsÃ¤lj as
produ kten
Ġgren ar
Ġelimin era
ĠA hr
dr en
ĠR ich
ĠsjÃ¶ ar
ĠrÃ¤tts medvet
ĠSjÃ¤l va
ĠfÃ¶ror saka
ĠFR AN
Ġframkom lig
regl emente
sbygg nad
kom ster
bild ningar
Ġhvil ar
nam n
ĠÃ¶verl Ã¤mnande
ĠverkstÃ¤ll da
bolag ets
Ġst ode
Ġdebatt erade
ĠmÃ¥ngf al
iar itet
ĠSoll efteÃ¥
s holm
Ġregl erings
Ġtillg ripas
ĠfÃ¶rstÃ¤rk ningar
export en
ĠÃ¶d mjuk
Ġkaff et
y fta
ĠM or
Ġrik e
sam hÃ¤lle
Ġresoner at
Ġtryg gad
Ġn en
Ġtre parti
Ã¶ver styrelsen
Ġgrann laga
Ġflykting politiken
f oder
ĠG ri
bil der
Ġsamman fatta
Ġtack nÃ¤m
Ġsamling s
Ġskulds Ã¤ttning
ll ig
Ġarbet stidens
ti sm
Ġpro spek
ĠÃ¶ver flyttning
Ġel produktion
Ġlek manna
ĠVÃ¤rlds banken
E SS
Ġt jÃ¤nat
ĠS yssel
Ġol ov
rÃ¤d d
fÃ¶rsÃ¶rj nings
Ġmat en
ĠenhÃ¤ll ig
bit rÃ¤den
Ġutvis ade
Ġtid skrift
Ġbry t
ĠfÃ¶rstÃ¤rk er
Ġlott erier
NU SSON
w all
Ġbu tiker
ĠHugo sson
Ġrutin er
Ġut budet
ĠI frÃ¥ga
Ġklar gÃ¶rande
Ġfull god
Ġvidare utbildning
Ġgrundlag ar
ĠbehÃ¶v es
sbehov et
ham ns
c ens
ik ationen
ĠN ationerna
ĠV v
ĠF rit
Ġvid d
ĠDÃ¤r est
Ġundantag en
Ġlef nads
Ġbe stÃ¤llt
Ġfull bord
Ġvig tigt
ĠutvecklingslÃ¤n derna
Ġh Ã¤mt
ĠvÃ¥r das
ĠLag utskottets
vlÃ¶ nade
ĠN ik
ĠK y
Ġfast slag
Ġfack ligt
bjud ande
Ã¶ ken
ĠAn tag
et al
Ġl ing
le y
ĠMAG NUSSON
ĠSw art
rÃ¥ ks
Ġunder stÃ¤llas
Ġvet or
Ġobef int
g enom
ĠI D
ĠSt ina
Ġhy st
Ġafs edd
Ġutarbet ade
ĠRÃ¤tt en
amer ik
Ġpassager are
er cis
Ġl igt
Ġskatte skal
Ġtex ti
ĠgrÃ¤nsdrag ning
far ligt
Ġkom plik
Ġned lÃ¤ggningen
Ġregel fÃ¶renk
ĠHolm strÃ¶m
ning ssÃ¤tt
Ġom gÃ¥ende
Ġfr on
Ġkontinuer lig
Ã¥ng en
ord ningsfÃ¶rslag
ĠÃ¥berop ats
ĠfÃ¶r ring
ĠW etter
Ġned sÃ¤ttas
ĠprÃ¶v ad
Ġsyft ning
Ġsparbank er
n ien
Ġav t
Ġfolk liga
Ġhandel sh
Ġombuds man
Ġmil dra
Ġkvar lÃ¥tenskap
Ġakt Ã¶rerna
ĠRO GER
ĠfÃ¶ruts Ã¤g
ĠZetter berg
Ġsuver Ã¤n
Ġk arl
ĠsÃ¥l t
ĠÃħsb rink
erings val
Ġrefer erade
Ġrestaur anger
Ġinstitut ets
Ġtapp at
ĠfrÃ¥n trÃ¤
ĠT ot
Ġpri ss
Ġ21 9
Ġkont akterna
Ġgod taga
be vakningen
ĠinrÃ¤tt ades
Ġkorre kta
Ġvall Ã¶
Ġobeh Ã¶f
u en
Ġny etabl
Ġhvar ifrÃ¥n
ĠmiljÃ¶ problem
t rar
Ġg ram
att im
Ġmotarbet a
ĠNettelbrand t
Ġkr Ã¤nkande
Ġny e
Ġproduk terna
Ġtjen ster
Ġpensions rÃ¤tt
Ġgra den
Ġrealis ations
ĠJustitie utskottets
Ġst yrkan
ĠS h
ĠbetÃ¤nk liga
ĠkrÃ¤ fva
ĠING VAR
Ġpl ural
Ġned rustnings
astig hets
ĠSvensson s
Ġbeskaff enheten
Ġpenning e
ĠLÃ¶ ne
Ġalkoholk onsum
k vat
sp artner
Ġfast are
Ġfj or
Ġspar sam
Ġkostnad seffe
Ġpromemori an
Ġd a
Ã¤ll er
le den
ars ch
Ġbefatt ningen
ĠmilitÃ¤r er
Ġstudentex amen
am a
Ã© ll
[...]
