{"<|endoftext|>":0,"!":1,"\"":2,"#":3,"$":4,"%":5,"&":6,"'":7,"(":8,")":9,"*":10,"+":11,",":12,"-":13,".":14,"/":15,"0":16,"1":17,"2":18,"3":19,"4":20,"5":21,"6":22,"7":23,"8":24,"9":25,":":26,";":27,"<":28,"=":29,">":30,"?":31,"@":32,"A":33,"B":34,"C":35,"D":36,"E":37,"F":38,"G":39,"H":40,"I":41,"J":42,"K":43,"L":44,"M":45,"N":46,"O":47,"P":48,"Q":49,"R":50,"S":51,"T":52,"U":53,"V":54,"W":55,"X":56,"Y":57,"Z":58,"[":59,"]":60,"_":61,"`":62,"a":63,"b":64,"c":65,"d":66,"e":67,"f":68,"g":69,"h":70,"i":71,"j":72,"k":73,"l":74,"m":75,"n":76,"o":77,"p":78,"q":79,"r":80,"s":81,"t":82,"u":83,"v":84,"w":85,"x":86,"y":87,"z":88,"{":89,"|":90,"~":91,"¡":92,"¢":93,"£":94,"¤":95,"¥":96,"¦":97,"§":98,"¨":99,"©":100,"ª":101,"«":102,"¬":103,"®":104,"¯":105,"°":106,"±":107,"²":108,"³":109,"´":110,"µ":111,"¶":112,"·":113,"¸":114,"¹":115,"º":116,"»":117,"¼":118,"½":119,"¾":120,"Â":121,"Ã":122,"Ä":123,"Å":124,"Ç":125,"È":126,"Ì":127,"Ï":128,"á":129,"â":130,"ï":131,"Ġ":132,"Ģ":133,"ģ":134,"Ĥ":135,"ĥ":136,"Ħ":137,"ħ":138,"ĩ":139,"Ī":140,"ī":141,"Ĭ":142,"ĭ":143,"į":144,"ĳ":145,"Ĵ":146,"ĵ":147,"Ķ":148,"ĸ":149,"Ĺ":150,"ĺ":151,"Ļ":152,"ļ":153,"Ľ":154,"ľ":155,"Ŀ":156,"ŀ":157,"Ł":158,"ł":159,"Ń":160,"de":161,"Ã¤":162,"Ġs":163,"Ã¥":164,"en":165,"er":166,"Ġa":167,"Ã¶":168,"tt":169,"in":170,"Ġf":171,"an":172,"ar":173,"ll":174,"Ġde":175,"Ã¶r":176,"om":177,"Ġm":178,"et":179,"ti":180,"Ġv":181,"Ġh":182,"Ã¤r":183,"Ġatt":184,"st":185,"ag":186,"Ġb":187,"ĠfÃ¶r":188,"ing":189,"Ġo":190,"ig":191,"Ġi":192,"Ġk":193,"na":194,"Ġp":195,"on":196,"Ġu":197,"or":198,"Ġoc":199,"sk":200,"ed":201,"Ġoch":202,"ra":203,"Ġti":204,"ning":205,"Ġn":206,"Ã¤n":207,"Ġdet":208,"Ġt":209,"Ġsom":210,"Ġr":211,"Ġin":212,"Ġvi":213,"Ġg":214,"Ġl":215,"Ġe":216,"Ġen":217,"Ġtill":218,"Ġav":219,"Ġden":220,"Ġsk":221,"ande":222,"ĠÃ¤r":223,"lig":224,"ck":225,"Ġan":226,"al":227,"ss":228,"Ġst":229,"Ġom":230,"Ġj":231,"un":232,"Ġut":233,"Ġd":234,"ĠpÃ¥":235,"at":236,"am":237,"ĠD":238,"rÃ¥":239,"ter":240,"ik":241,"Ġhar":242,"es":243,"Ã¥r":244,"der":245,"el":246,"Ġmed":247,"tion":248,"te":249,"Ġ1":250,"pp":251,"ver":252,"ga":253,"Ã¤tt":254,"Ã¤ll":255,"it":256,"fÃ¶r":257,"ĠsÃ¥":258,"ro":259,"ol":260,"het":261,"Ġvar":262,"da":263,"em":264,"il":265,"Ġjag":266,"Ġbe":267,"Ġinte":268,"ĠS":269,"all":270,"re":271,"ĠfrÃ¥":272,"ĠJ":273,"sl":274,"Ġman":275,"ri":276,"ska":277,"omm":278,"ĠM":279,"ut":280,"Ã¤l":281,"ade":282,"Ã¤g":283,"Ġett":284,"Ã¤m":285,"ĠDet":286,"ens":287,"as":288,"Ã¥n":289,"ad":290,"err":291,"kt":292,"ĠÃ¶":293,"var":294,"is":295,"and":296,"Ġupp":297,"ĠH":298,"ull":299,"Ġkan":300,"Ġall":301,"are":302,"tta":303,"ts":304,"ott":305,"ĠJag":306,"Ã¥g":307,"Ġkomm":308,"man":309,"Ġun":310,"ĠA":311,"ĠÃ¥":312,"Ġre":313,"ks":314,"att":315,"ot":316,"bet":317,"skott":318,"ligt":319,"Ġsam":320,"den":321,"ur":322,"yck":323,"slag":324,"ĠN":325,"ĠV":326,"ats":327,"ger":328,"Ġaf":329,"if":330,"va":331,"ell":332,"ĠnÃ¥g":333,"Ġtal":334,"se":335,"dag":336,"ram":337,"cke":338,"ulle":339,"Ġicke":340,"Ġ2":341,"skottet":342,"ĠF":343,"ka":344,"Ġskulle":345,"ven":346,"Ġbl":347,"erna":348,"ĠK":349,"ĠÃ¤n":350,"ningen":351,"Ã¥ll":352,"Ġdetta":353,"ingen":354,"Ġar":355,"ru":356,"dig":357,"Ġpro":358,"Ġunder":359,"ĠhÃ¤r":360,"Ġsig":361,"Ġfram":362,"del":363,"Ġ19":364,"dra":365,"ĠdÃ¤r":366,"ster":367,"ent":368,"âĢ":369,"sdag":370,"Ġ(":371,"Ġvid":372,"Ġrik":373,"ak":374,"Ġmen":375,"Ġnu":376,"Ġkun":377,"ĠmÃ¥":378,"Ġha":379,"ssa":380,"yr":381,"ĠnÃ¤r":382,"ende":383,"stÃ¤ll":384,"Ġfin":385,"os":386,"rÃ¤":387,"ĠI":388,"dr":389,"ĠE":390,"Ġherr":391,"ĠfÃ¥":392,"Ġvill":393,"Ġmo":394,"Ġskall":395,"ĠfrÃ¥n":396,"ste":397,"Ġarbet":398,"ligen":399,"vis":400,"Ġdel":401,"sta":402,"Ġvara":403,"Ġbet":404,"Ġmin":405,"Ã¶j":406,"mar":407,"ĠHerr":408,"ĠÃ¶ver":409,"isk":410,"00":411,"Ġdenna":412,"hÃ¥ll":413,"ĠâĢ":414,"ĠÃ¥r":415,"ort":416,"dan":417,"ma":418,"Ġtalman":419,"liga":420,"ft":421,"ĠO":422,"ksÃ¥":423,"ĠocksÃ¥":424,"yn":425,"sp":426,"ller":427,"iv":428,"ĠAn":429,"ser":430,"ne":431,"ningar":432,"nat":433,"tionen":434,"ns":435,"ĠVi":436,"ĠL":437,"Ġres":438,"yg":439,"Ã¥ng":440,"kti":441,"ord":442,"ĠfÃ¶rslag":443,"ff":444,"Ġeller":445,"Ġkon":446,"ĠgÃ¶r":447,"gl":448,"ĠB":449,"Ġju":450,"ĠâĢĶ":451,"esl":452,"lar":453,"gan":454,"ĠdÃ¥":455,"fter":456,"Ġor":457,"ds":458,"iti":459,"red":460,"Ġbeh":461,"enom":462,"og":463,"sdagen":464,"ĠR":465,"ĠÃ¥t":466,"itt":467,"Ã¤k":468,"ycket":469,"ci":470,"era":471,"Ġandra":472,"aj":473,"nings":474,"ans":475,"Ġ3":476,"lik":477,"edan":478,"ĠT":479,"min":480,"ĠfÃ¶rs":481,"det":482,"Ġska":483,"ĠgÃ¤ll":484,"sson":485,"Ġsin":486,"ok":487,"ĠvÃ¤l":488,"Ġver":489,"ilj":490,"Ġmycket":491,"ĠsÃ¥dan":492,"Ġsj":493,"Ġber":494,"Ġkommer":495,"Ġhel":496,"Ġfl":497,"osi":498,"ytt":499,"ĠfrÃ¥ga":500,"terna":501,"ta":502,"Ġreger":503,"Ġkunna":504,"Ġvil":505,"Ġutskottet":506,"andet":507,"Ġdessa":508,"sti":509,"Ġlag":510,"par":511,"ve":512,"ĠÃ¤":513,"ĠnÃ¥gon":514,"Ġutan":515,"arna":516,"ĠfÃ¶re":517,"Ġkr":518,"ĠDe":519,"ĠMen":520,"und":521,"Ġtr":522,"ĠP":523,"ken":524,"gÃ¥":525,"ion":526,"oliti":527,"ĠmÃ¥ste":528,"posi":529,"Ġbli":530,"ĠU":531,"Ġgenom":532,"ation":533,"ammar":534,"Ġvad":535,"ill":536,"Ġgr":537,"ĠbÃ¶r":538,"ister":539,"Ġstor":540,"ch":541,"Ġmig":542,"ling":543,"ĠrÃ¤tt":544,"Ġstats":545,"ber":546,"lighet":547,"ĠsÃ¤tt":548,"ket":549,"ĠmÃ¶j":550,"Ġer":551,"Ã¤nn":552,"led":553,"Ġbar":554,"sÃ¤tt":555,"ud":556,"Ġefter":557,"ost":558,"Ġfinns":559,"ĠvÃ¥r":560,"la":561,"gÃ¤r":562,"Ġhan":563,"Ġmot":564,"Ġny":565,"itet":566,"ĠlÃ¤n":567,"Ġse":568,"des":569,"ĠstÃ¤ll":570,"..":571,"yd":572,"ĠDen":573,"ĠFÃ¶r":574,"ĠfÃ¥r":575,"tig":576,"Ġmotion":577,"skil":578,"Ġ4":579,"Ġdag":580,"Ġfor":581,"Ġhem":582,"Ġsl":583,"ĠnÃ¥got":584,"ĠgÃ¤ller":585,"Ã¤nk":586,"ul":587,"som":588,"Ġhade":589,"ĠMaj":590,"gif":591,"ĠhÃ¶":592,"unkt":593,"ĠG":594,"Ġex":595,"Ã¶l":596,"Ã¥t":597,"Ġbif":598,"Ġalla":599,"Ġinom":600,"ĠÃ":601,"ja":602,"od":603,"bl":604,"rÃ¶":605,"Ġhur":606,"vÃ¤n":607,"vÃ¤r":608,"tal":609,"fatt":610,"ĠmÃ¥n":611,"ĠgÃ¶ra":612,"frÃ¥":613,"verig":614,"ock":615,"Ã¤ga":616,"Â»":617,"Ġfall":618,"tag":619,"lÃ¤g":620,"Ġstat":621,"else":622,"ĠSverig":623,"Ġdem":624,"Ã¶d":625,"varande":626,"ist":627,"eslut":628,"le":629,"Ġta":630,"minister":631,"sen":632,"um":633,"cial":634,"Ġinne":635,"iska":636,"Ġproposi":637,"bru":638,"drag":639,"Ġ5":640,"Ġreser":641,"je":642,"Ġper":643,"vÃ¥r":644,"stÃ¤m":645,"digt":646,"Ã¤mn":647,"rik":648,"Ġsak":649,"Ġanled":650,"Ġnr":651,"nas":652,"yrk":653,"ĠSt":654,"utskottet":655,"ĠsÃ¤ga":656,"sb":657,"ocial":658,"ĠlÃ¶":659,"sa":660,"du":661,"gÃ¥ende":662,"olk":663,"Ġytt":664,"ĠhÃ¤n":665,"komm":666,"pa":667,"ĠÃ¤ven":668,"for":669,"lag":670,"Ġhand":671,"kon":672,"ĠfrÃ¥gan":673,"Ġanledning":674,"Ġregeringen":675,"Ġkammar":676,"Ġtror":677,"ksam":678,"Ġint":679,"Ġverk":680,"heten":681,"Ã¥l":682,"orde":683,"ering":684,"ĠAnf":685,"Ġpar":686,"ygg":687,"Ġkron":688,"Ġsven":689,"opp":690,"Ġbifall":691,"ĠmÃ¥nga":692,"Ġriksdagen":693,"Ġeg":694,"Ġvarit":695,"Ġlik":696,"bil":697,"ĠNr":698,"tid":699,"raf":700,"Ġem":701,"veck":702,"Ġbeslut":703,"rÃ¤tt":704,"ĠfÃ¶ret":705,"Ġsp":706,"ĠSverige":707,"Ġmilj":708,"Ġgj":709,"mÃ¤n":710,"ĠbehÃ¶":711,"anden":712,"ner":713,"ĠvÃ¤r":714,"riv":715,"rÃ¥det":716,"ets":717,"ĠKun":718,"eller":719,"Ġsyn":720,"id":721,"Ġ6":722,"Ġkomma":723,"ĠgÃ¥":724,"nan":725,"Ġsy":726,"ingar":727,"sam":728,"lika":729,"Ġland":730,"ĠKungl":731,"Ġutt":732,"Ġtyck":733,"Ġskol":734,"ĠhemstÃ¤ll":735,"ek":736,"Ġskatt":737,"nad":738,"ĠfÃ¶l":739,"ĠvÃ¤":740,"gor":741,"Ġled":742,"Ġkronor":743,"ĠfÃ¶rst":744,"Ġord":745,"ĠUt":746,"ĠsjÃ¤l":747,"nar":748,"okra":749,"ĠhÃ¶g":750,"ress":751,"ast":752,"us":753,"bb":754,"gr":755,"Ġallt":756,"Ã¶k":757,"Ġtv":758,"gÃ¶r":759,"Ġblir":760,"Ġvikti":761,"Ġsocial":762,"ef":763,"ellan":764,"Ġsi":765,"ĠsÃ¤r":766,"Ġutred":767,"iga":768,"Ġsamman":769,"Ġ8":770,"Ġtid":771,"skap":772,"Ġhv":773,"arbet":774,"Ġgrund":775,"ĠlÃ¤g":776,"iss":777,"heter":778,"Ġkommun":779,"ĠhÃ¥ll":780,"son":781,"Ġolika":782,"000":783,"ĠdÃ¤rfÃ¶r":784,"Ġreserva":785,"ades":786,"Ġans":787,"lÃ¤gg":788,"konom":789,"Ġannat":790,"gi":791,"ĠOm":792,"kom":793,"ĠmÃ¶jlighet":794,"Ġtag":795,"ĠMan":796,"edel":797,"ĠnÃ¥gra":798,"ant":799,"Ã¤ger":800,"Ġsamt":801,"ĠstÃ¶r":802,"ĠÃ¥tgÃ¤r":803,"ĠfÃ¶resl":804,"Ġutl":805,"Ġmer":806,"ĠsÃ¤rskil":807,"Ġriksdag":808,"nal":809,"Ġ7":810,"Ġvet":811,"Ġoss":812,"ov":813,"oll":814,"Ġsedan":815,"ella":816,"Ġvissa":817,"Ġyrk":818,"igt":819,"Ġbara":820,"org":821,"orts":822,"ĠfÃ¶retag":823,"ĠfÃ¶rhÃ¥ll":824,"ĠanfÃ¶r":825,"stem":826,"hÃ¤ll":827,"far":828,"ministern":829,"Ġutveck":830,"ĠvÃ¤g":831,"Ġmellan":832,"ĠallmÃ¤n":833,"ĠEn":834,"Ġutskottets":835,"Ġnat":836,"Ġarbets":837,"Ġstora":838,"av":839,"Ã©":840,"Ġsitt":841,"derna":842,"bar":843,"Ġklar":844,"Ġc":845,"batt":846,"Ã¥nd":847,"Ġnatur":848,"Ġenda":849,"ĠÃ¶k":850,"vÃ¤g":851,"ings":852,"dem":853,"Ġpoliti":854,"ske":855,"med":856,"Ġfull":857,"ĠfÃ¶lj":858,"rÃ¤ff":859,"Ġjord":860,"skt":861,"Ġtycker":862,"skatt":863,"Ġmar":864,"ĠangÃ¥ende":865,"Ġproposition":866,"dre":867,"ĠsÃ¤ger":868,"ĠÃ¥ter":869,"Ġder":870,"pr":871,"ĠC":872,"Ġpl":873,"bild":874,"Ġsamma":875,"klar":876,"uv":877,"ĠmÃ¤nn":878,"get":879,"):":880,"ĠDÃ¤r":881,"Ġvis":882,"Ġekonom":883,"Ã¤st":884,"akt":885,"verk":886,"Ġsvenska":887,"Ġkammaren":888,"jÃ¤n":889,"gÃ¥ng":890,"ĠÂ»":891,"Ġ198":892,"ĠbestÃ¤m":893,"elsen":894,"blem":895,"dom":896,"ick":897,"ank":898,"Ġfolk":899,"Ã¤ng":900,"ĠrÃ¶":901,"han":902,"ult":903,"ĠfÃ¶rut":904,"Ġbarn":905,"Ã¤mp":906,"Ġ9":907,"Ġ20":908,"styr":909,"demokra":910,"Ġhela":911,"Ġslut":912,"ĠmÃ¤nnisk":913,"ĠDetta":914,"ĠÃ¶f":915,"mer":916,"Ġsina":917,"ĠfÃ¶rb":918,"ĠnÃ¤m":919,"Ġsvar":920,"ari":921,"Ġenligt":922,"anska":923,"Ġhelt":924,"ala":925,"ĠgÃ¥r":926,"pro":927,"ĠbetÃ¤nk":928,"Ġtillf":929,"ĠRik":930,"Ã¤ker":931,"ĠsamhÃ¤ll":932,"Ġej":933,"Ġdess":934,"land":935,"Ġkanske":936,"ĠfrÃ¥gor":937,"Ġing":938,"ce":939,"Ġredan":940,"ĠlÃ¥ng":941,"fva":942,"ĠfÃ¶rsta":943,"Ġty":944,"Ġnya":945,"Ġviktig":946,"vin":947,"Ġ18":948,"ĠanvÃ¤n":949,"ĠIn":950,"Ġang":951,"ĠsÃ¥som":952,"Ġkom":953,"tsÃ¥":954,"tigt":955,"Ġser":956,"parti":957,"Ã¥ra":958,"ĠmÃ¤nniskor":959,"ksamhet":960,"ĠNÃ¤r":961,"Ġperson":962,"ĠUtskottet":963,"Ġ10":964,"Ġval":965,"ĠskÃ¤l":966,"Ġpr":967,"Ġinneb":968,"Ġanslag":969,"Ġbehand":970,"Ġintress":971,"Ġjordbru":972,"ĠalltsÃ¥":973,"Ġanser":974,"ĠbÃ¥":975,"Ġgod":976,"ĠÃ¥tgÃ¤rder":977,"Ġdisk":978,"nen":979,"Ġdebatt":980,"stÃ¥":981,"digare":982,"Ġ197":983,"fall":984,"mark":985,"Ġannan":986,"ring":987,"Ġbi":988,"ĠÃ¤ro":989,"hol":990,"ĠFru":991,"im":992,"ganis":993,"Ġmaj":994,"uk":995,"be":996,"rÃ¤ck":997,"tem":998,"ĠlÃ¤r":999,"ĠÃ¤nd":1000,"ten":1001,"unk":1002,"utskottets":1003,"Ġbes":1004,"ĠgÃ¥ng":1005,"ĠstÃ¶rre":1006,"ĠlÃ¤ng":1007,"Ġingen":1008,"skol":1009,"ĠsÃ¥dana":1010,"ĠDÃ¥":1011,"ĠsjÃ¤lv":1012,"Ġuppfatt":1013,"Ġviss":1014,"Ġsag":1015,"val":1016,"plik":1017,"gar":1018,"ĠvÃ¥rt":1019,"Ġtidigare":1020,"ostna":1021,"ĠifrÃ¥":1022,"ati":1023,"delse":1024,"Ġproblem":1025,"sm":1026,"enter":1027,"Ġkra":1028,"Ġpunkt":1029,"Ġbef":1030,"ĠW":1031,"Ġge":1032,"Ġdock":1033,"Ġfri":1034,"rad":1035,"ligare":1036,"stat":1037,"ras":1038,"fÃ¶rs":1039,"ĠsvÃ¥r":1040,"Ġbra":1041,"ĠomrÃ¥":1042,"Ġdisku":1043,"ĠnÃ¤mligen":1044,"dust":1045,"Ġreservation":1046,"Ġkunde":1047,"ellertid":1048,"syn":1049,"Ġendast":1050,"emp":1051,"mÃ¤r":1052,"ĠKon":1053,"Ġytter":1054,"ĠbegÃ¤r":1055,"ĠinnebÃ¤r":1056,"Ġpri":1057,"till":1058,"fv":1059,"Ġle":1060,"Ġnaturligt":1061,"berg":1062,"ktiv":1063,"ĠutlÃ¥t":1064,"....":1065,"ON":1066,"politi":1067,"seende":1068,"ĠfÃ¶rh":1069,"ĠhemstÃ¤llan":1070,"ĠfÃ¥tt":1071,"ĠtvÃ¥":1072,"jÃ¤l":1073,"Ġvor":1074,"nsdagen":1075,"udget":1076,"Ġregering":1077,"Ġsen":1078,"ension":1079,".)":1080,"Ġdels":1081,"ivit":1082,"sÃ¤ttning":1083,"ĠsÃ¥dant":1084,"dagen":1085,"ĠOnsdagen":1086,"ĠÃ¶fver":1087,"ĠinfÃ¶r":1088,"Ġforts":1089,"Ġganska":1090,"Forts":1091,"dring":1092,"gÃ¥r":1093,"Ġur":1094,"Ġmindre":1095,"ĠfÃ¶rm":1096,"Ġparti":1097,"ER":1098,"Ġjust":1099,"Ã¶m":1100,"ry":1101,"ĠrÃ¶r":1102,"Ġlig":1103,"Ġkl":1104,"Ġborde":1105,"Ġ11":1106,"ĠSk":1107,"ĠfÃ¶rsvar":1108,"unda":1109,"hÃ¥lla":1110,"holm":1111,"Ġexemp":1112,"Ġsm":1113,"Ã¶ter":1114,"och":1115,"Ġ15":1116,"onal":1117,"ĠsÃ¤ker":1118,"Ġ12":1119,"Ġkri":1120,"Ġned":1121,"Ġhvar":1122,"Ġbed":1123,"talet":1124,"Ġhvil":1125,"Ġemellertid":1126,"ĠvÃ¥ra":1127,"yndig":1128,"Ġtro":1129,"lingen":1130,"unn":1131,"elser":1132,"Ã¤ttre":1133,"vs":1134,"est":1135,"ĠÃĸ":1136,"Ġledam":1137,"eri":1138,"ĠfÃ¶reslag":1139,"ĠrÃ¥":1140,"ĠbÃ¤ttre":1141,"Ġbety":1142,"cent":1143,"Ġal":1144,"ej":1145,"ĠÃĦ":1146,"rupp":1147,"Ġske":1148,"Ġvidare":1149,"Ġung":1150,"aren":1151,"Ġbek":1152,"Ġarbete":1153,"op":1154,"ĠjÃ¤m":1155,"Ġlandet":1156,"slÃ¶":1157,"ĠÂ":1158,"ĠKammar":1159,"nu":1160,"ĠstatsrÃ¥det":1161,"Ġpen":1162,"stift":1163,"Ġutredning":1164,"Ġexempel":1165,"ĠstÃ¥r":1166,"Ġbel":1167,"Ġred":1168,"fl":1169,"hÃ¶r":1170,"Ġgjort":1171,"punkt":1172,"form":1173,"ĠmÃ¶jligt":1174,"Ã¶ll":1175,"SS":1176,"Ġpropositionen":1177,"dera":1178,"ryck":1179,"rafik":1180,"Ġansvar":1181,"Ġblif":1182,"Ġuttal":1183,"Ġhuv":1184,"pen":1185,"ĠtillfÃ¤ll":1186,"Ġvilka":1187,"nes":1188,"Ġfr":1189,"Ġnaturligtvis":1190,"partem":1191,"vid":1192,"tro":1193,"Ġbudget":1194,"Ġenskil":1195,"naden":1196,"Ġvilja":1197,"ĠnÃ¶d":1198,"ĠframstÃ¤ll":1199,"Ġ13":1200,"Ġsjuk":1201,"ĠNu":1202,"Ġ14":1203,"Ġbost":1204,"Ġsagt":1205,"erade":1206,"stad":1207,"Ġvore":1208,"gifter":1209,"sten":1210,"yl":1211,"tu":1212,"ting":1213,"rott":1214,"els":1215,"Ġvilket":1216,"akti":1217,"van":1218,"ĠstÃ¶d":1219,"ĠtjÃ¤n":1220,"dt":1221,"ĠÃ¶n":1222,"Ġreplik":1223,"ĠnÃ¤mn":1224,"ĠhÃ¶r":1225,"spro":1226,"enhet":1227,"Ã¤rn":1228,"ire":1229,"kÃ¤n":1230,"ĠVad":1231,"Ã¶n":1232,"deles":1233,"Ġskola":1234,"verket":1235,"tera":1236,"its":1237,"olag":1238,"Ġgen":1239,"Ġytterligare":1240,"Ã¶ka":1241,"Ġbered":1242,"Ġutbild":1243,"Ġ000":1244,"tering":1245,"Ġhafva":1246,"terp":1247,"ĠbehÃ¶ver":1248,"Ã¤sta":1249,"fven":1250,"Ġna":1251,"ganisation":1252,"Ġsade":1253,"ĠbetrÃ¤ff":1254,"atser":1255,"partiet":1256,"Ġnog":1257,"ĠvÃ¤ck":1258,"oritet":1259,"Ġhaft":1260,"Ġka":1261,"ellt":1262,"ju":1263,"ĠbÃ¥de":1264,"Ġfinans":1265,"Ġly":1266,"Ġstar":1267,"Ġviktigt":1268,"tions":1269,"ĠrÃ¶st":1270,"nads":1271,"SSON":1272,"Ġ-":1273,"tioner":1274,"oner":1275,"ningarna":1276,"orna":1277,"vÃ¤":1278,"rÃ¶m":1279,"Ġmera":1280,"Ġsocialdemokra":1281,"ĠmÃ¥tt":1282,"vet":1283,"stÃ¤n":1284,"dustri":1285,"itu":1286,"Ġskog":1287,"Ġinkom":1288,"ĠlÃ¥":1289,"ockholm":1290,"Ġfatt":1291,"ĠÂ§":1292,"Ġfler":1293,"Ġhon":1294,"AN":1295,"ĠVid":1296,"samma":1297,"Ġegen":1298,"inci":1299,"Ġ16":1300,"ĠframfÃ¶r":1301,"ĠvÃ¤n":1302,"ĠfÃ¶rÃ¤n":1303,"Ġbygg":1304,"vÃ¤l":1305,"mÃ¤l":1306,"Ġvin":1307,"sett":1308,"ighet":1309,"sfÃ¶r":1310,"Ġbil":1311,"ori":1312,"borg":1313,"ĠÃ¶v":1314,"ĠJo":1315,"Ġstaten":1316,"Ġtyd":1317,"Ã¤ns":1318,"ivet":1319,"ĠbestÃ¤mm":1320,"Ġbort":1321,"ĠhÃ¶j":1322,"ĠMed":1323,"AR":1324,"spoliti":1325,"under":1326,"ĠOch":1327,"Ġform":1328,"ic":1329,"ĠfÃ¶rklar":1330,"ĠfÃ¶relig":1331,"bi":1332,"Ġverkligen":1333,"Ġhvad":1334,"Ã©n":1335,"ĠbÃ¶rj":1336,"ionen":1337,"gas":1338,"ĠsÃ¤rskilt":1339,"ĠÃ¤ndÃ¥":1340,"nade":1341,"per":1342,"ĠStockholm":1343,"Ġni":1344,"yrka":1345,"Ġutveckling":1346,"Ġfa":1347,"Ġve":1348,"ĠÃ¤nnu":1349,"ĠSÃ¥":1350,"Ġkunnat":1351,"Ġsida":1352,"bygg":1353,"fÃ¤r":1354,"Ġalldeles":1355,"Ġverksamhet":1356,"Ġmotionen":1357,"Ġbostad":1358,"Ġpra":1359,"Ġfast":1360,"ultat":1361,"Ġhos":1362,"entet":1363,"Ġmitt":1364,"andel":1365,"ĠÃ¥rs":1366,"Ġligger":1367,"slut":1368,"ikt":1369,"ĠfÃ¶rslaget":1370,"Ġreg":1371,"iskt":1372,"ĠnÃ¶dvÃ¤n":1373,"Ġtar":1374,"lÃ¶":1375,"Ġsammanhan":1376,"duk":1377,"Ġkostna":1378,"EN":1379,"Ġmedel":1380,"Ġregl":1381,"erar":1382,"Ġmark":1383,"Ġekonomiska":1384,"Ġlika":1385,"Ġkvin":1386,"Ġhandlar":1387,"ĠmÃ¥tte":1388,"Ġvarje":1389,"tiska":1390,"komma":1391,"Ġheller":1392,"Ġ17":1393,"ernas":1394,"Ġstort":1395,"ĠbetÃ¤nkande":1396,"stÃ¥nd":1397,"Ġpension":1398,"upp":1399,"Ġ196":1400,"Ġlagstift":1401,"ĠledamÃ¶ter":1402,"Ã¤ck":1403,"Ġkonk":1404,"Ġuppfattning":1405,"Ġgl":1406,"ĠÃ¤fven":1407,"Ġmening":1408,"Ġmots":1409,"ĠHÃ¤r":1410,"Ġkommit":1411,"ĠÃħ":1412,"Ġderas":1413,"ĠÃ¶nsk":1414,"ationen":1415,"ĠutlÃ¥tande":1416,"tok":1417,"rag":1418,"arl":1419,"ĠstÃ¤llet":1420,"Ġutskott":1421,"tokoll":1422,"Ġeff":1423,"ĠkÃ¤n":1424,"Ġmotioner":1425,"unkter":1426,"Ġfar":1427,"ĠKammaren":1428,"ĠRe":1429,"ĠfortsÃ¤tt":1430,"ĠsmÃ¥":1431,"ĠJa":1432,"Ġuppl":1433,"ĠÃ¶vr":1434,"Ġra":1435,"Ġjo":1436,"mare":1437,"Ġflera":1438,"Ġherrar":1439,"Ġkommu":1440,"Ġbev":1441,"ĠfÃ¶ljande":1442,"nor":1443,"ĠSedan":1444,"Ġinterp":1445,"Ġkammarens":1446,"Ġbland":1447,"nÃ¤mn":1448,"ĠomrÃ¥de":1449,"skri":1450,"ĠmÃ¥l":1451,"vt":1452,"ĠKongl":1453,"Ġprinci":1454,"Ġmoti":1455,"Ġtiden":1456,"Ġbak":1457,"Ġstad":1458,"pl":1459,"ĠlÃ¤m":1460,"ĠfÃ¶rdel":1461,"Ġklart":1462,"pe":1463,"ĠvÃ¤ldigt":1464,"Ġoff":1465,"pril":1466,"ystem":1467,"igenom":1468,"diga":1469,"Ġpolitik":1470,"Ġhuvud":1471,"styrelsen":1472,"Ġbehov":1473,"Ġbyg":1474,"fÃ¶ra":1475,"strÃ¶m":1476,"Ġfort":1477,"Ġtre":1478,"Ġkort":1479,"Ġlitet":1480,"ellation":1481,"utom":1482,"ĠlÃ¤nder":1483,"ĠHan":1484,"rikes":1485,"Ġprocent":1486,"ĠhjÃ¤l":1487,"ĠÃ¤g":1488,"Ġsitu":1489,"ĠallmÃ¤nna":1490,"das":1491,"uro":1492,"gift":1493,"vit":1494,"Ġmyndig":1495,"Ġli":1496,"Ġskatte":1497,"orr":1498,"ym":1499,"Ġplan":1500,"ann":1501,"ung":1502,"Ġmiljoner":1503,"Ġblivit":1504,"ledes":1505,"ĠstÃ¥nd":1506,"Ġtalmannen":1507,"Ġdom":1508,"ĠfÃ¶rhÃ¥llande":1509,"agen":1510,"Ġreservationen":1511,"bart":1512,"enden":1513,"lunda":1514,"ĠbetrÃ¤ffande":1515,"ier":1516,"Ġdelar":1517,"ĠStats":1518,"Ġresultat":1519,"Ġframti":1520,"eg":1521,"andling":1522,"ĠAng":1523,"rÃ¤n":1524,"Ġbor":1525,"ĠberÃ¶r":1526,"ĠRiksdagen":1527,"Ġfakti":1528,"hets":1529,"Ġskri":1530,"ĠstÃ¤llning":1531,"ĠkrÃ¤":1532,"kor":1533,"ember":1534,"Ġnuvarande":1535,"Ġarbetsmark":1536,"ĠhÃ¤nsyn":1537,"trÃ¤":1538,"ĠmiljÃ¶":1539,"fta":1540,"tiga":1541,"ĠifrÃ¥ga":1542,"ba":1543,"ars":1544,"ĠfrÃ¤m":1545,"visa":1546,"alt":1547,"slÃ¶s":1548,"ĠlÃ¤ngre":1549,"Ġ195":1550,"Ġbetydelse":1551,"Ġhopp":1552,"Ġyttra":1553,"Ġyrka":1554,"jer":1555,"Ġdire":1556,"Ġrikt":1557,"ĠAtt":1558,"Ġskriv":1559,"ĠEU":1560,"Ġjobb":1561,"Ġsaken":1562,"Ġriksdagens":1563,"Ġkam":1564,"Ġ>":1565,"full":1566,"rakt":1567,"Ġstatens":1568,"rar":1569,"Ġmiss":1570,"Ġpersoner":1571,"Ġvilken":1572,"Ġpre":1573,"Ġregeringens":1574,"ĠAnder":1575,"ĠfÃ¶rutsÃ¤tt":1576,"ĠrÃ¤k":1577,"Ġuttryck":1578,"olis":1579,"Ġtalar":1580,"Ġins":1581,"raft":1582,"âĢĶ":1583,"Ġger":1584,"elÃ¤g":1585,"Ġlagen":1586,"Ã¶ver":1587,"rist":1588,"Ġ25":1589,"ĠsjÃ¤lva":1590,"gs":1591,"ĠfÃ¶rord":1592,"Ġliv":1593,"drar":1594,"Ġriktigt":1595,"Ġantag":1596,"Ġomfatt":1597,"Ġminst":1598,"Ġhans":1599,"eter":1600,"Ġbidrag":1601,"Ã¤d":1602,"Ġindustri":1603,"ĠmÃ¶jligheter":1604,"pit":1605,"chef":1606,"ĠvÃ¤rl":1607,"Ġja":1608,"Ġsyss":1609,"departem":1610,"bÃ¶r":1611,"Ġfaktiskt":1612,"emot":1613,"ĠlÃ¥ngt":1614,"Ġpunkten":1615,"ĠfÃ¶rl":1616,"erat":1617,"pres":1618,"lem":1619,"ĠsÃ¥ledes":1620,"stitu":1621,"ksamheten":1622,"eras":1623,"otering":1624,"skning":1625,"Ġeffe":1626,"Ġemot":1627,"Ġungdom":1628,"ge":1629,"rÃ¶st":1630,"Ġfy":1631,"ĠgÃ¤llande":1632,"ĠfÃ¶rbÃ¤tt":1633,"Ġkonstat":1634,"Ã¶t":1635,"ĠlÃ¤tt":1636,"ĠPÃ¥":1637,"ĠÃ¤ndra":1638,"Ġsystem":1639,"Ġ30":1640,"Ġbetyd":1641,"Ġsammanhang":1642,"Ãĸ":1643,"dringar":1644,"Ġpengar":1645,"ĠlÃ¤mp":1646,"ĠanstÃ¤ll":1647,"IN":1648,"vester":1649,"tit":1650,"alis":1651,"Ġviktiga":1652,"Ġtorde":1653,"Ġfinnas":1654,"gande":1655,"ĠprÃ¶":1656,"Ã¤nner":1657,"kel":1658,"ĠÃ¤ndring":1659,"kten":1660,"ĠfÃ¶ren":1661,"ĠfÃ¶rra":1662,"Ã¶p":1663,"ĠnÃ¥gonting":1664,"arbete":1665,"Ġprotokoll":1666,"Ġpris":1667,"skomm":1668,"Ġol":1669,"ĠlÃ¶s":1670,"Ã¥s":1671,"Ã¤ra":1672,"Ġjordbruks":1673,"Ġkomp":1674,"fri":1675,"Ġegent":1676,"endet":1677,"dens":1678,"Ġenskilda":1679,"Ġmotiver":1680,"Ġ194":1681,"ĠfÃ¶rhÃ¥llanden":1682,"lla":1683,"Ġtrafik":1684,"ĠhÃ¶gre":1685,"igheter":1686,"stru":1687,"tidigt":1688,"ĠLin":1689,"Ġorganisation":1690,"ĠanfÃ¶rande":1691,"ev":1692,"ĠstÃ¥":1693,"Ġeftersom":1694,".,":1695,"ha":1696,"ĠtÃ¤nk":1697,"Ġsvensk":1698,"Ġfick":1699,"Ġena":1700,"Ġbelopp":1701,"of":1702,"Ġlok":1703,"fp":1704,"ĠbifÃ¶ll":1705,"ass":1706,"Ġgem":1707,"ĠUn":1708,"Ġblifvit":1709,"ran":1710,"Ġrisk":1711,"ĠDÃ¤rfÃ¶r":1712,"Ġfru":1713,"ĠtÃ¤n":1714,"port":1715,"Ġinterpellation":1716,"Ġ21":1717,"Ã¤rk":1718,"Ġundan":1719,"ĠTill":1720,"amilj":1721,"Ġtull":1722,"Ġsnar":1723,"tionella":1724,"one":1725,"ĠSveriges":1726,"jen":1727,"hl":1728,"ĠlÃ¥n":1729,"Ġdra":1730,"aste":1731,"Ġkrig":1732,"Ġsats":1733,"sonal":1734,"ika":1735,"ĠfÃ¶red":1736,"Ġdiskuss":1737,"ĠAr":1738,"Ġmars":1739,"Ġskyd":1740,"ST":1741,"Ġmil":1742,"ĠsvÃ¥rt":1743,"Ġslag":1744,"Ġyttr":1745,"ĠSven":1746,"Ġ$":1747,"ida":1748,"nande":1749,"Ġdebatten":1750,"Ġsett":1751,"Ġbrott":1752,"vens":1753,"Ġallvar":1754,"positionen":1755,"vÃ¤rt":1756,"fÃ¶rande":1757,"rÃ¥n":1758,"ensam":1759,"Ġavs":1760,"Ġfinna":1761,"Ġtillg":1762,"minst":1763,"Ġkonkur":1764,"farande":1765,"hus":1766,"minstone":1767,"Ġfun":1768,"oende":1769,"sin":1770,"ĠUtskottets":1771,"ĠjÃ¤rn":1772,"sÃ¶k":1773,"Ġantal":1774,"ĠâĢĿ":1775,"ĠlÃ¤":1776,"Ġ199":1777,"grÃ¤ns":1778,"Ã¤v":1779,"Ġsidan":1780,"las":1781,"Ġfel":1782,"Ġprakti":1783,"Ġsenare":1784,"Ġkvar":1785,"Ġhoppas":1786,"Ġtaga":1787,"Ġ22":1788,"Ġspe":1789,"astig":1790,"ett":1791,"Ġgrupp":1792,"ĠÃ¶verens":1793,"ĠsÃ¥lunda":1794,"Ġnytt":1795,"Ġdy":1796,"rÃ¥k":1797,"gÃ¶ra":1798,"ĠhÃ¤nvis":1799,"spl":1800,"Ġstra":1801,"ĠNej":1802,"ral":1803,"strÃ¤ck":1804,"fin":1805,"hÃ¥ller":1806,"ĠfÃ¶rstÃ¥":1807,"Ġmotionerna":1808,"Ġinnan":1809,"tor":1810,"alm":1811,"Ġgam":1812,"Ġrepres":1813,"dighet":1814,"Ġalltid":1815,"Ġresur":1816,"Ġunderst":1817,"Ġinterna":1818,"lÃ¤ggningen":1819,"uds":1820,"Ġyrkande":1821,"sent":1822,"ĠÃ¥tminstone":1823,"Ġprincip":1824,"ĠPro":1825,"ĠstÃ¤lla":1826,"Ġ.":1827,"Ġkall":1828,"Ġinkomst":1829,"vare":1830,"Ã¤nd":1831,"Ġgemensam":1832,"iff":1833,"mÃ¤":1834,"Ġmenar":1835,"Ġdemokra":1836,"fÃ¶rslag":1837,"ĠII":1838,"Ġkrav":1839,"ĠsamhÃ¤llet":1840,"rid":1841,"Ġ200":1842,"Ġvotering":1843,"efter":1844,"ĠnÃ¤rvarande":1845,"stÃ¥r":1846,"stol":1847,"departementet":1848,"Ġtack":1849,"Ġinvester":1850,"nader":1851,"Ġapril":1852,"bidrag":1853,"Ġkons":1854,"Ġerin":1855,"Ġhandel":1856,"Ġville":1857,"ĠrÃ¶rande":1858,"Ġakt":1859,"ĠReger":1860,"Ġansett":1861,"Ã¶rdagen":1862,"âĢĿ":1863,"Ġstyr":1864,"nala":1865,"eringen":1866,"ĠtillrÃ¤ck":1867,"ĠangelÃ¤g":1868,"ust":1869,"Ġvisar":1870,"mans":1871,"skaff":1872,"Ġgjorde":1873,"Ġtagit":1874,"res":1875,"Ġdri":1876,"skon":1877,"ĠÃ¤mn":1878,"ĠÃ¶pp":1879,"ĠberÃ¤k":1880,"Ġintresse":1881,"Ġsna":1882,"elat":1883,"tra":1884,"ĠtillÃ¤mp":1885,"Ġpolis":1886,"ĠmotionÃ¤r":1887,"ĠÃ¥s":1888,"ĠLÃ¶rdagen":1889,"Ġel":1890,"erad":1891,"fÃ¶rsÃ¤k":1892,"ĠgodkÃ¤n":1893,"cis":1894,"Ġdu":1895,"Ġutrikes":1896,"ĠfÃ¶reslagit":1897,"Ġofta":1898,"Ġ24":1899,"ultur":1900,"Ġproduk":1901,"Ġegentligen":1902,"ĠvÃ¤sent":1903,"ĠarbetslÃ¶s":1904,"ty":1905,"ĠifrÃ¥n":1906,"Ġ23":1907,"Ġvan":1908,"reds":1909,"ĠsÃ¤rskilda":1910,"demokraterna":1911,"ĠDenna":1912,"gram":1913,"ĠnÃ¤ring":1914,"ret":1915,"ĠgÃ¥tt":1916,"atten":1917,"Ġdirekt":1918,"Ġele":1919,"Ġsyssel":1920,"Ġsnabb":1921,"Ġutbildning":1922,"Ġbolag":1923,"Ġminska":1924,"ĠÃ¥ret":1925,"ex":1926,"frÃ¥gan":1927,"ktor":1928,"emiss":1929,"Ġ26":1930,"Ġ201":1931,"arnas":1932,"ĠlÃ¤nge":1933,"Ġtillba":1934,"punkter":1935,"drig":1936,"ĠjÃ¤rnvÃ¤g":1937,"Ġhonom":1938,"Ġtillbaka":1939,"Ġoffent":1940,"ĠNorr":1941,"Ġerfar":1942,"Ġbehandling":1943,"sek":1944,"ĠBer":1945,"Ġfallet":1946,"Ġsynes":1947,"Ġmajoritet":1948,"Ġkonkurr":1949,"erligen":1950,"ĠHur":1951,"uni":1952,"ĠvÃ¤rde":1953,"Ġ28":1954,"ys":1955,"pital":1956,"ĠomrÃ¥den":1957,"rikt":1958,"ĠJohan":1959,"Ġob":1960,"Ġbank":1961,"sut":1962,"ĠMo":1963,"Ã¤der":1964,"ĠÃ¥stad":1965,"kl":1966,"stÃ¤mm":1967,"ĠomrÃ¶st":1968,"verka":1969,"lÃ¤ggning":1970,"gÃ¶rande":1971,"ĠÃ¥ren":1972,"ĠSocial":1973,"ĠPer":1974,"Ġredo":1975,"jut":1976,"Ġhu":1977,"ĠhÃ¥lla":1978,"uari":1979,"amÃ¥l":1980,"tik":1981,"ateri":1982,"fÃ¶rb":1983,"ĠuppmÃ¤r":1984,"enheter":1985,"regl":1986,"Ġegna":1987,"ĠhÃ¤l":1988,"frÃ¥gor":1989,"anken":1990,"ĠmÃ¤n":1991,"ĠfÃ¶rt":1992,"ĠbedÃ¶m":1993,"ĠvÃ¥rd":1994,"lass":1995,"ĠgÃ¤r":1996,"ĠAndersson":1997,"Ġsynner":1998,"Ġaldrig":1999,"rÃ¥d":2000,"anuari":2001,"stÃ¥ende":2002,"satt":2003,"troll":2004,"Ġlin":2005,"ĠVar":2006,"Ġkvinnor":2007,"rin":2008,"ĠtillÃ¤g":2009,"stiti":2010,"ĠutstrÃ¤ck":2011,"ĠTor":2012,"Ġrim":2013,"ĠfÃ¶rsÃ¶k":2014,"tar":2015,"Ġhin":2016,"ĠUnder":2017,"Ġgo":2018,"Ġ27":2019,"fte":2020,"Ġyttrande":2021,"ĠSam":2022,"ĠsÃ¤ttet":2023,"ĠlÃ¶ne":2024,"ĠEuro":2025,"Ġhelst":2026,"Ġvice":2027,"ie":2028,"ĠbudgetÃ¥r":2029,"Ã¶g":2030,"ĠbÃ¶ra":2031,"ena":2032,"ĠAv":2033,"Ġframtiden":2034,"ĠSom":2035,"Ġsenaste":2036,"Ġpersonal":2037,"Ġfortfarande":2038,"Ã¤lj":2039,"vÃ¥rd":2040,"Ġsti":2041,"skill":2042,"ĠbÃ¶rjan":2043,"ĠanvÃ¤nda":2044,"orda":2045,"Ġkommunerna":2046,"Ġavseende":2047,"ĠEtt":2048,"kÃ¤nn":2049,"kommit":2050,"kommer":2051,"ligheten":2052,"yt":2053,"gad":2054,"ub":2055,"ĠnÃ¤st":2056,"eman":2057,"bruk":2058,"rÃ¤d":2059,"Ġsamb":2060,"ĠanmÃ¤r":2061,"ĠtillfÃ¤lle":2062,"Ġlagstiftning":2063,"Ġpos":2064,"Ġlyck":2065,"ĠlÃ¤gga":2066,"Ġsv":2067,"valt":2068,"ĠhjÃ¤lp":2069,"rÃ¶r":2070,"Ġfem":2071,"stag":2072,"unden":2073,"Ġfamilj":2074,"redje":2075,"vist":2076,"ĠdÃ¤rmed":2077,"Ġarbetet":2078,"ĠstÃ¶rsta":2079,"Ġener":2080,"men":2081,"Ã¶te":2082,"eck":2083,"tyg":2084,"uvida":2085,"ĠÃĦr":2086,"Ġarbetar":2087,"Ġfinnes":2088,"Ġbru":2089,"Ġtek":2090,"Ġsituation":2091,"giv":2092,"jande":2093,"Ġsker":2094,"Ġhus":2095,"Ġreservan":2096,"Ġlandst":2097,"Ġbr":2098,"Ġbesk":2099,"Ġriksdags":2100,"emÃ¥l":2101,"Ġbord":2102,"Ġstatliga":2103,"Ġpositi":2104,"Ġtank":2105,"ebru":2106,"Ġfunn":2107,"Ġmiljar":2108,"ĠÃ¶vrigt":2109,"Ġutvecklingen":2110,"Ġvelat":2111,"pÃ¥":2112,"ĠEfter":2113,"ebruari":2114,"hÃ¤n":2115,"ĠfÃ¤r":2116,"ug":2117,"Ġmest":2118,"Ġfullt":2119,"Ġmom":2120,"Ġkraft":2121,"ĠfÃ¶lja":2122,"Ġtala":2123,"Ġ29":2124,"Ġpriv":2125,"lade":2126,"hem":2127,"io":2128,"Ġkommuner":2129,"Ġregi":2130,"ĠÃ¤l":2131,"ĠÃ¶ka":2132,"Ġrad":2133,"Ġdec":2134,"Ġsynpunkter":2135,"Ġtaget":2136,"Ġblev":2137,"ko":2138,"ĠfÃ¶redrag":2139,"ien":2140,"dat":2141,"Ġjanuari":2142,"Ġfj":2143,"ĠNil":2144,"Ġborger":2145,"Ġens":2146,"ĠhÃ¤rmed":2147,"Ġhuru":2148,"stÃ¤llning":2149,"iljÃ¶":2150,"Ġnor":2151,"vitt":2152,"Ġock":2153,"Ġlite":2154,"taga":2155,"position":2156,"ir":2157,"Ġklara":2158,"san":2159,"Ġsamtidigt":2160,"Ġhitt":2161,"Ġuppdrag":2162,"ument":2163,"ĠLind":2164,"Ġmilit":2165,"ĠFÃ¶red":2166,"Ġskapa":2167,"slagen":2168,"redsstÃ¤ll":2169,"ĠlÃ¶n":2170,"Ġfunger":2171,"Ġyrkar":2172,"skolan":2173,"Ġhvilka":2174,"Ġva":2175,"ĠfÃ¶rsÃ¤k":2176,"ĠifrÃ¥gavarande":2177,"me":2178,"Ġjordbruk":2179,"arbetet":2180,"ĠFÃ¶redro":2181,"ĠsÃ¥vÃ¤l":2182,"ĠbestÃ¤mmelser":2183,"Ġpolitiska":2184,"Ġcent":2185,"ĠkÃ¶":2186,"ĠnÃ¤rma":2187,"Ġskyl":2188,"ĠÃ¤ndamÃ¥l":2189,"ĠnÃ¶dvÃ¤ndigt":2190,"kning":2191,"vÃ¥rds":2192,"ĠbÃ¥da":2193,"politik":2194,"rÃ¥de":2195,"ĠinstÃ¤m":2196,"ĠrÃ¥d":2197,"Ġkultur":2198,"Ġhandling":2199,"ĠOl":2200,"app":2201,"Ġgif":2202,"Ġ50":2203,"ĠlÃ¤mna":2204,"Ġhuruvida":2205,"ĠgÃ¤rna":2206,"Ġutom":2207,"ess":2208,"ĠFred":2209,"propositionen":2210,"ĠkÃ¤nner":2211,"elserna":2212,"ern":2213,"Ġhava":2214,"ĠfÃ¶rsÃ¶ka":2215,"ĠlÃ¥ta":2216,"ĠbehÃ¶vs":2217,"Ġbeg":2218,"terar":2219,"Ġjuni":2220,"ĠAll":2221,"Ġprecis":2222,"visning":2223,"Ġnej":2224,"dent":2225,"Ġgrad":2226,"ĠRiksdag":2227,"ĠgenomfÃ¶r":2228,"chefen":2229,"grupp":2230,"Ġtredje":2231,"Ġrum":2232,"Ġkonsek":2233,"jÃ¤m":2234,"ills":2235,"Ġveder":2236,"Ġbakom":2237,"Ġfol":2238,"ĠderfÃ¶r":2239,"olle":2240,"Ġvisserligen":2241,"Ġskogs":2242,"Ġafseende":2243,"Ġordet":2244,"Ġtrots":2245,"gren":2246,"Ġtekn":2247,"efÃ¤r":2248,"ĠfÃ¶rstÃ¥r":2249,"ĠbetÃ¤nkandet":2250,"Ġsamband":2251,"ĠVidare":2252,"af":2253,"ĠAndra":2254,"Ġuppgift":2255,"Ġ\"":2256,"Ġlit":2257,"ĠfÃ¶ran":2258,"ND":2259,"Ġantalet":2260,"ikation":2261,"Ġgener":2262,"ĠTy":2263,"utbild":2264,"tiv":2265,"Ġspar":2266,"ob":2267,"cess":2268,"ĠfÃ¶rsvars":2269,"ĠâĢĵ":2270,"Ġblott":2271,"Ġliksom":2272,"Ã¥nger":2273,"Ġuppgifter":2274,"ĠfÃ¶rhandling":2275,"anter":2276,"ĠsÃ¶ka":2277,"Ġuti":2278,"Ġmina":2279,"ĠfÃ¶reslagna":2280,"Ġfastig":2281,"Ġbetala":2282,"vik":2283,"ĠfÃ¶rv":2284,"Ġrepresent":2285,"ĠgÃ¶ras":2286,"Ġgamla":2287,"fÃ¶ret":2288,"ĠhemstÃ¤llt":2289,"Ġprivat":2290,"Ġalls":2291,"ĠbegrÃ¤ns":2292,"Ġmedlem":2293,"Ġbevilj":2294,"ĠungefÃ¤r":2295,"rÃ¤tten":2296,"Ġkar":2297,"ĠEnligt":2298,"gen":2299,"Ġfakt":2300,"ĠgÃ¥nger":2301,"Ġkyrk":2302,"Ġskett":2303,"forma":2304,"Ġavslag":2305,"Ġanses":2306,"sak":2307,"Ġblifva":2308,"Ġsaker":2309,"Ġstraff":2310,"kar":2311,"ĠvÃ¤ckt":2312,"mera":2313,"stÃ¤ndig":2314,"Ġenkel":2315,"likt":2316,"Ġresurser":2317,"Ġvatten":2318,"kta":2319,"Ġute":2320,"ssystem":2321,"Ġfinner":2322,"ĠnÃ¥":2323,"ĠtjÃ¤nst":2324,"Ġdiskussion":2325,"ĠutstrÃ¤ckning":2326,"Ã¶v":2327,"ĠÃ¶kad":2328,"ĠfÃ¶ljd":2329,"met":2330,"ĠMÃ¥n":2331,"ĠfÃ¶religger":2332,"pek":2333,"atta":2334,"ningens":2335,"Ġtog":2336,"ĠnÃ¤sta":2337,"ĠFin":2338,"Ġ193":2339,"repp":2340,"Ġerinra":2341,"Ġmodera":2342,"Ġutredningen":2343,"Ġkommunala":2344,"fÃ¶l":2345,"ĠvÃ¤ckta":2346,"Ġdrabb":2347,"ĠverkstÃ¤ll":2348,"Ġ40":2349,"ĠlÃ¤k":2350,"ĠhÃ¥r":2351,"Ġveta":2352,"ĠanmÃ¤l":2353,"ĠfÃ¶rÃ¤l":2354,"Ġmeddel":2355,"ĠvarfÃ¶r":2356,"Ã¤t":2357,"ĠtillfredsstÃ¤ll":2358,"ĠbifÃ¶lls":2359,"ivÃ¥":2360,"Ġvisst":2361,"ĠjÃ¤mfÃ¶r":2362,"Ġdensamma":2363,"Ġdecember":2364,"Ġkapital":2365,"Ġbeskatt":2366,"Ġnyss":2367,"Ġbesvar":2368,"eln":2369,"Ġhittills":2370,"by":2371,"ĠfÃ¶religgande":2372,"Ġfo":2373,"Ġsvaret":2374,"ĠvÃ¤x":2375,"Ġsiff":2376,"Ġbygga":2377,"Ġuppen":2378,"Ġsynpunkt":2379,"ĠÃ¥l":2380,"ivil":2381,"Ġoro":2382,"ĠhÃ¥ller":2383,"ĠbudgetÃ¥ret":2384,"anns":2385,"ĠnÃ¤ringsl":2386,"Ġinfl":2387,"EL":2388,"Ġant":2389,"ĠrÃ¶star":2390,"ĠprÃ¶v":2391,"20":2392,"Ġtalaren":2393,"Ġstu":2394,"Ġstud":2395,"vÃ¥rden":2396,"Ġyttrade":2397,"Ġingenting":2398,"ften":2399,"RI":2400,"ĠfortsÃ¤tta":2401,"Ġskill":2402,"ĠrÃ¤n":2403,"igen":2404,"Ġmedborg":2405,"Ġgoda":2406,"ternas":2407,"Ġkraf":2408,"vÃ¤x":2409,"ĠundersÃ¶k":2410,"ĠfÃ¶regÃ¥ende":2411,"Ġdessutom":2412,"19":2413,"Ġsista":2414,"Ġavser":2415,"ĠlÃ¥g":2416,"Ġremiss":2417,"cep":2418,"Ġvillkor":2419,"Ġlydelse":2420,"Ġkommunal":2421,"politiken":2422,"Ġne":2423,"Ġplats":2424,"ĠÃ¤rade":2425,"lÃ¤gga":2426,"ĠÃ¥tskill":2427,"ĠJohansson":2428,"ĠRegeringen":2429,"ĠÃ¶kade":2430,"olog":2431,"Ġpass":2432,"Ġakti":2433,"ĠÃĦven":2434,"emligen":2435,"istern":2436,"ĠberÃ¤tt":2437,"satta":2438,"Ġfly":2439,"Ġuttalande":2440,"ĠÃ¶r":2441,"ĠnÃ¤rmare":2442,"Ġkval":2443,"Ġriks":2444,"ĠlÃ¤ns":2445,"pk":2446,"Ġjordbruket":2447,"orter":2448,"ĠSvar":2449,"ktivt":2450,"Ġkonsekvens":2451,"ĠersÃ¤ttning":2452,"arne":2453,"Ġet":2454,"inge":2455,"Ġjustiti":2456,"skyd":2457,"kÃ¶p":2458,"ĠtÃ¤nker":2459,"Ġim":2460,"ĠtÃ¤nka":2461,"Ġmiljarder":2462,"Ġsyfte":2463,"Ġutskotts":2464,"ĠfÃ¶revarande":2465,"ĠframstÃ¤llning":2466,"ĠTorsdagen":2467,"Ġkunskap":2468,"napp":2469,"ents":2470,"nytt":2471,"Ġkost":2472,"ordningen":2473,"int":2474,"gj":2475,"erings":2476,"ander":2477,"dning":2478,"ĠalltfÃ¶r":2479,"iteten":2480,"Ġind":2481,"bel":2482,"Ġtanke":2483,"sammans":2484,"esta":2485,"lin":2486,"ĠbÃ¤sta":2487,"Ġid":2488,"Ut":2489,"Ġvisa":2490,"Ġdepartem":2491,"Ġinsatser":2492,"ansp":2493,"ĠomrÃ¥det":2494,"Ġhyr":2495,"Ġbetrakt":2496,"ĠDessa":2497,"Ġfebruari":2498,"ĠJu":2499,"Ġuppe":2500,"ĠsjÃ¶":2501,"Ġoer":2502,"Ġbevill":2503,"still":2504,"Ġkonstatera":2505,"ny":2506,"Ġspeci":2507,"Ġvisat":2508,"lÃ¥":2509,"ĠsÃ¤tta":2510,"Ġgar":2511,"Ġ100":2512,"Ġbetal":2513,"Ġdemokrati":2514,"ktur":2515,"Ġhvilken":2516,"sÃ¤ttningen":2517,"Ġ31":2518,"ĠutgÃ¥":2519,"Ġih":2520,"Ġgivet":2521,"ssss":2522,"Ġtalare":2523,"Ġavslut":2524,"Ġtydligt":2525,"Ġmyndighet":2526,"Ġam":2527,"ĠutgÃ¥ng":2528,"Ġfolket":2529,"sbyg":2530,"Ã¤pp":2531,"Ġcivil":2532,"organisation":2533,"Ġveck":2534,"lat":2535,"iet":2536,"sh":2537,"ĠBo":2538,"--":2539,"ĠCarl":2540,"inner":2541,".Â»":2542,"Ġborgerliga":2543,"Ġhal":2544,"ĠoerhÃ¶r":2545,"verksamhet":2546,"ĠvederbÃ¶r":2547,"Ġtillgod":2548,"Ġ....":2549,"Ġkontroll":2550,"ĠKarl":2551,"vÃ¤s":2552,"spolitik":2553,"Ġsist":2554,"jÃ¶r":2555,"Ġflyg":2556,"udsak":2557,"ĠÃ¥tgÃ¤rd":2558,"enskap":2559,"Ġknapp":2560,"ĠstÃ¥ndpunkt":2561,"ĠtillrÃ¤ckligt":2562,"pri":2563,"gat":2564,"ĠÃ¶vriga":2565,"jur":2566,"emin":2567,"gifterna":2568,"stitutions":2569,"ĠpÃ¥stÃ¥":2570,"spe":2571,"ĠvÃ¤rlden":2572,"ĠÃ¶kat":2573,"ĠtillgÃ¥ng":2574,"Ġregerings":2575,"ovember":2576,"skatten":2577,"arti":2578,"Ġtillsammans":2579,"lands":2580,"Utskottet":2581,"ĠGu":2582,"Ġbrist":2583,"gade":2584,"Ġextra":2585,"bolag":2586,"Ã¶rj":2587,"Ġegendom":2588,"ĠbehÃ¶va":2589,"Ġaktu":2590,"ĠsammantrÃ¤":2591,"Ã¶kt":2592,"mÃ¥l":2593,"Ã¶ta":2594,"Ġnemligen":2595,"Ġfisk":2596,"sorg":2597,"rÃ¤ng":2598,"hÃ¶ll":2599,"Ġordning":2600,"ĠFredagen":2601,"Ġskolan":2602,"ĠtillhÃ¶r":2603,"ĠÃ¥stadkomma":2604,"hand":2605,"ĠsÃ¤rskild":2606,"ĠÃ¤mnet":2607,"Ġspel":2608,"vÃ¤gande":2609,"iver":2610,"fver":2611,"Ġliten":2612,"Ġkostnader":2613,"verkan":2614,"Ġfyra":2615,"Ġgav":2616,"ĠTis":2617,"ĠfÃ¶rutsÃ¤ttningar":2618,"Ġfanns":2619,"lagda":2620,"Ġskrivelse":2621,"Ġnovember":2622,"Ġallra":2623,"jekt":2624,"ĠnÃ¶j":2625,"ĠvÃ¤gen":2626,"ĠTisdagen":2627,"Ġund":2628,"ogs":2629,"ĠansÃ¥g":2630,"kall":2631,"Ġavtal":2632,"Ġarbeta":2633,"ĠFÃ¶redrogs":2634,"so":2635,"Ġenergi":2636,"Ġpropositioner":2637,"),":2638,"ĠNilsson":2639,"Ġkont":2640,"Ġregel":2641,"hÃ¥llande":2642,"Ġinsk":2643,"skraft":2644,"lÃ¥t":2645,"ĠrÃ¤tta":2646,"ĠStatsrÃ¥det":2647,"ĠsÃ¤kerhet":2648,"ĠinrÃ¤tt":2649,"ccep":2650,"ĠÃ¤rende":2651,"tagit":2652,"splan":2653,"ĠsÃ¥vitt":2654,"ĠGÃ¶te":2655,"ĠallmÃ¤nhet":2656,"Ġgran":2657,"ĠfÃ¶rhÃ¥llandet":2658,"Ġbefolk":2659,"ĠÃ¤ldre":2660,"verks":2661,"bland":2662,"ĠFÃ¶rsta":2663,"unt":2664,"kraft":2665,"ĠstÃ¤ller":2666,"Ġtot":2667,"ĠÃĸver":2668,"Ġforsk":2669,"Ġinv":2670,"smÃ¥l":2671,"ĠnÃ¤stan":2672,"Ġinforma":2673,"Ġrel":2674,"ĠMin":2675,"ĠsÃ¤n":2676,"Ġhy":2677,"ĠVÃ¤n":2678,"Ġmis":2679,"Ġ192":2680,"pande":2681,"sÃ¤tta":2682,"Ġarbetsgi":2683,"ĠLÃ¥t":2684,"Ġredovis":2685,"Ġsnart":2686,"bered":2687,"frÃ¥n":2688,"Ġsocialdemokratiska":2689,"ĠArbet":2690,"ĠutanfÃ¶r":2691,"Ġutnytt":2692,"ĠtillÃ¥":2693,"Ã¥ga":2694,"Ġbist":2695,"ĠÃ¥lder":2696,"ĠlÃ¤ge":2697,"ĠingÃ¥":2698,"ordning":2699,"Ġma":2700,"fÃ¶ren":2701,"Ġno":2702,"medel":2703,"sbe":2704,"ttag":2705,"Ġtransp":2706,"ĠfÃ¶rmÃ¥n":2707,"Ġ191":2708,"Ġundantag":2709,"Ġuppfattningen":2710,"Ġdetsamma":2711,"Ġmakt":2712,"sik":2713,"Ġlandsbyg":2714,"Ġdelen":2715,"tiva":2716,"Ġlant":2717,"teck":2718,"Ġfack":2719,"lÃ¤n":2720,"agraf":2721,"Ġab":2722,"Ġinternationella":2723,"ĠvederbÃ¶rande":2724,"ĠfÃ¶rsÃ¤lj":2725,"ĠavgÃ¶rande":2726,"adt":2727,"ĠkÃ¤nna":2728,"Ġenkelt":2729,"stra":2730,"Ġelever":2731,"ĠSocialdemokraterna":2732,"Ġsituationen":2733,"Ġci":2734,"lam":2735,"Ġop":2736,"ĠvÃ¥g":2737,"ĠkÃ¤rn":2738,"Ġarbetsmarknaden":2739,"lÃ¤m":2740,"junkt":2741,"Ġtax":2742,"Ġmateri":2743,"delning":2744,"ĠGÃ¶teborg":2745,"Ġalterna":2746,"vi":2747,"Ġreform":2748,"jÃ¶":2749,"Ġsteg":2750,"ĠRiksdagens":2751,"ĠnÃ¤ra":2752,"Ġsex":2753,"fon":2754,"Ġ35":2755,"fallet":2756,"vÃ¤rr":2757,"Ġarg":2758,"Ġstark":2759,"emang":2760,"ĠdÃ¤rvid":2761,"Ġdomstol":2762,"Ġos":2763,"ĠsvÃ¥righeter":2764,"Ġdyr":2765,"fÃ¶retag":2766,"Ġiniti":2767,"arie":2768,"Ġbakgr":2769,"klart":2770,"ĠframhÃ¥ll":2771,"Ġkolle":2772,"ĠnÃ¤mnda":2773,"Ġeng":2774,"Ġsynnerligen":2775,"Ġkammare":2776,"ĠfÃ¶reslÃ¥r":2777,"Ġregler":2778,"ĠanfÃ¶rt":2779,"Ġroll":2780,"ĠsamhÃ¤lle":2781,"Ġolyck":2782,"ĠfÃ¶rhÃ¥llandena":2783,"dde":2784,"ĠÃ¤m":2785,"Ġkonsum":2786,"ren":2787,"Ġsjel":2788,"Ã¶der":2789,"Ġuppre":2790,"ĠutgÃ¶r":2791,"imat":2792,"li":2793,"Ġpres":2794,"ĠupprÃ¤tt":2795,"Ġvare":2796,"Ġad":2797,"Ġleda":2798,"ĠfÃ¶rÃ¤ndring":2799,"Ġrent":2800,"Ġbetydande":2801,"ĠMiljÃ¶":2802,"ĠfÃ¶ranled":2803,"bara":2804,"Ġbesluta":2805,"ker":2806,"Ġverksamheten":2807,"dras":2808,"andets":2809,"fÃ¶rsÃ¤kr":2810,"lades":2811,"stal":2812,"Ġdiskutera":2813,"Ġbo":2814,"Ġkonf":2815,"Ġinga":2816,"handling":2817,"ĠhÃ¶ger":2818,"ĠinnebÃ¤ra":2819,"Ġkonkurrens":2820,"ĠanvÃ¤ndas":2821,"gt":2822,"ĠskÃ¤r":2823,"Ġanslut":2824,"ĠsÃ¤kert":2825,"Ġmyndigheter":2826,"Ġtrygg":2827,"ĠgÃ¤lla":2828,"spolitiken":2829,"smedel":2830,"Ġbetydligt":2831,"Ġbeklag":2832,"dade":2833,"Ġyrkes":2834,"tional":2835,"Ġavse":2836,"Ġdagar":2837,"ĠbÃ¶rja":2838,"ĠhÃ¶ra":2839,"ativ":2840,"Ġexempelvis":2841,"Ġbit":2842,"ĠhÃ¤v":2843,"ĠnÃ¤mnde":2844,"Ġstarkt":2845,"Ġbem":2846,"ĠpÃ¥pek":2847,"ĠlÃ¤gre":2848,"Ġomk":2849,"ĠoerhÃ¶rt":2850,"Â».":2851,"tygad":2852,"Ġtving":2853,"former":2854,"orer":2855,"junktur":2856,"tids":2857,"Ġflesta":2858,"vande":2859,"utred":2860,"Ġfinansministern":2861,"Ġon":2862,"politiska":2863,"faller":2864,"ĠGusta":2865,"ĠlÃ¶sning":2866,"dustrin":2867,"ittÃ©":2868,"ĠordfÃ¶rande":2869,"Ġsan":2870,"ĠfÃ¶ra":2871,"Ġlandsting":2872,"ĠEuropa":2873,"Ġbred":2874,"sav":2875,"Ġskilj":2876,"ĠomÃ¶j":2877,"ack":2878,"Ġaccep":2879,"andra":2880,"Ġbevillnings":2881,"betal":2882,"Ġsociala":2883,"ĠfÃ¶rvalt":2884,"Ġham":2885,"Ġutbildnings":2886,"stit":2887,"Ġgivetvis":2888,"Ġopp":2889,"ĠÃ¥tskilliga":2890,"skriv":2891,"ĠintrÃ¤ff":2892,"Ġexport":2893,"Ġerfor":2894,"Ġsamarbete":2895,"Ġgrundlag":2896,"ĠmÃ¤rk":2897,"Ġsamtliga":2898,"ĠMalm":2899,"ĠmÃ¶jligheten":2900,"ĠfÃ¶retagen":2901,"lÃ¤ggande":2902,"ĠbegÃ¤rde":2903,"Ġtjen":2904,"Ġbostads":2905,"Ġlever":2906,"sol":2907,"bruks":2908,"ĠVÃ¤nster":2909,"Ġ=":2910,"Ġskick":2911,"Ġberoende":2912,"skyl":2913,"Ġkring":2914,"Ã¤rka":2915,"Ġstatsutskottet":2916,"ĠerkÃ¤n":2917,"ĠlÃ¶sa":2918,"Ġerfarenhet":2919,"erande":2920,"ĠaffÃ¤r":2921,"ĠKomm":2922,"sats":2923,"Ġfinansi":2924,"ĠbesvÃ¤r":2925,"enskomm":2926,"Ġram":2927,"Ġparagraf":2928,"Ġminsk":2929,"ĠfrÃ¥gorna":2930,"tisk":2931,"Ġoffentliga":2932,"Ġhvilket":2933,"Ã¤lt":2934,"Ġfortsatt":2935,"Ġstatsutskottets":2936,"Ġorganis":2937,"Ġekonomisk":2938,"ĠÃ¶re":2939,"ĠDess":2940,"maj":2941,"Ġkommunikation":2942,"ĠtrÃ¤ff":2943,"Ġrapp":2944,"ĠfÃ¶rbÃ¤ttra":2945,"ĠlÃ¤rare":2946,"ĠsÃ¶k":2947,"ĠKammarens":2948,"Ġpartier":2949,"unds":2950,"ligheter":2951,"ĠProt":2952,"ina":2953,"ivers":2954,"jÃ¤nst":2955,"Ġdetal":2956,"Ġberedd":2957,"ĠvÃ¤rn":2958,"Ġgott":2959,"Ġdrag":2960,"serna":2961,"Ġligga":2962,"ĠÃ¥ber":2963,"dar":2964,"majoritet":2965,"ioner":2966,"ĠfrÃ¤mst":2967,"ĠLag":2968,"Ġreson":2969,"ĠLars":2970,"Ġdr":2971,"Ġpost":2972,"ĠfÃ¶rhopp":2973,"ober":2974,"stitut":2975,"Ġklass":2976,"sy":2977,"aga":2978,"Ġdiskuter":2979,"Ã¤nnen":2980,"giften":2981,"Ġanslaget":2982,"Ġunderstry":2983,"AL":2984,"Ġtas":2985,"Ġprodu":2986,"ĠÃ¶fr":2987,"ror":2988,"OR":2989,"anser":2990,"gÃ¥tt":2991,"Ã¤nkning":2992,"vÃ¤rtom":2993,"vad":2994,"isering":2995,"ĠanstÃ¤llda":2996,"ittÃ©n":2997,"Ġeven":2998,"ĠvÃ¥l":2999,"ĠofÃ¶r":3000,"ktiva":3001,"ĠomrÃ¶stning":3002,"Ġkonstitutions":3003,"Ġhot":3004,"Ġintressen":3005,"ĠanfÃ¶rde":3006,"Ġsyft":3007,"Ġprogram":3008,"ĠUpp":3009,"vill":3010,"elsens":3011,"ĠLund":3012,"Ġdagens":3013,"lett":3014,"emori":3015,"ban":3016,"dande":3017,"Ġ|":3018,"Ġintressant":3019,"byggnad":3020,"entar":3021,"ĠhÃ¶ga":3022,"anti":3023,"ringar":3024,"Ġorsak":3025,"Ġtim":3026,"Ġgick":3027,"ĠframgÃ¥r":3028,"Ġ60":3029,"Ġberor":3030,"reg":3031,"tas":3032,"ĠomstÃ¤ndig":3033,"Ġgjorts":3034,"stÃ¤lla":3035,"Ã¶tt":3036,"net":3037,"ĠfÃ¶rÃ¤ndringar":3038,"Ġkompet":3039,"kter":3040,"ĠErik":3041,"Ġreservanterna":3042,"Ġunivers":3043,"ĠrÃ¤ttigheter":3044,"Ġhyres":3045,"ĠAnmÃ¤l":3046,"Ġtel":3047,"Ġskatter":3048,"ĠFrÃ¥":3049,"Ġbill":3050,".;":3051,"Ġ33":3052,"ĠMar":3053,"Ġmotsvarande":3054,"kommande":3055,"ĠfÃ¶rtro":3056,"Ġeventu":3057,"debatt":3058,"ĠBerg":3059,"Ġforskning":3060,"Ġutform":3061,"Ã¶ma":3062,"kunn":3063,"Ġmet":3064,"sÃ¤ttnings":3065,"Ġtryck":3066,"Ġhist":3067,"ĠtjÃ¤nstem":3068,"Ġban":3069,"ĠKonung":3070,"rr":3071,"Ġeget":3072,"ĠVarfÃ¶r":3073,"Ġkvinn":3074,"frihet":3075,"undet":3076,"Ġhufv":3077,"Ġtve":3078,"Ġfi":3079,"Ġgym":3080,"ĠY":3081,"Ġpolitiken":3082,"Ġprof":3083,"ĠrÃ¤ck":3084,"mannen":3085,"ĠanmÃ¤rk":3086,"Ġsatt":3087,"Ġinget":3088,"ĠfÃ¶rste":3089,"ĠlÃ¤mpligt":3090,"Ġmedan":3091,"Ġfred":3092,"Ġomfattande":3093,"Ġopposi":3094,"ĠarbetslÃ¶shet":3095,"sel":3096,"Ġanse":3097,"Ġskrifv":3098,"fÃ¶lj":3099,"ktober":3100,"Ġtalade":3101,"Ġkostnaderna":3102,"hÃ¶j":3103,"Ġinf":3104,"mo":3105,"Ġmedvet":3106,"Ġ32":3107,"ĠfÃ¶rf":3108,"ingarna":3109,"ĠCh":3110,"tionell":3111,"ĠutfÃ¶r":3112,"ĠdÃ¤remot":3113,"ron":3114,"ĠberÃ¶rda":3115,"ĠBet":3116,"Ġigenom":3117,"Ã¶det":3118,"Ġcentral":3119,"ĠmÃ¤nsk":3120,"ĠbegÃ¤rt":3121,"vpk":3122,"mande":3123,"bott":3124,"ab":3125,"ĠvÃ¤gar":3126,"Ġklimat":3127,"Ġdis":3128,"Ġ--":3129,"ĠÃ¤renden":3130,"stÃ¤lld":3131,"ĠvÃ¥gar":3132,"Ã¤ndska":3133,"Ġgjorda":3134,"Ġfatta":3135,"rev":3136,"rust":3137,"skostna":3138,"Ġuttala":3139,"Ġ38":3140,"ĠmÃ¥nad":3141,"ĠPunkt":3142,"Ġslutad":3143,"Ġby":3144,"ĠFolk":3145,"oden":3146,"Ġcenter":3147,"Ġlands":3148,"juk":3149,"Ġomkring":3150,"Ġbehovet":3151,"ĠnÃ¤rmast":3152,"tionellt":3153,"ERG":3154,"Ġ34":3155,"IL":3156,"ĠOlsson":3157,"ĠutgÃ¥ngsp":3158,"Ã¤s":3159,"ĠTh":3160,"ĠStockholms":3161,"nÃ¤mnda":3162,"ĠnÃ¤rings":3163,"frÃ¥ga":3164,"Ġstatsministern":3165,"verkets":3166,"ers":3167,"ux":3168,"Ġuppn":3169,"ĠfÃ¶rfatt":3170,"Ġring":3171,"ĠpÃ¥gÃ¥r":3172,"byg":3173,"ĠfÃ¶rvÃ¤r":3174,"undra":3175,"Ġledamot":3176,"ĠÃ¶kar":3177,"Ġbespar":3178,"Ġoktober":3179,"spr":3180,"ĠLar":3181,"stÃ¥n":3182,"ĠhÃ¶gst":3183,"vÃ¤rd":3184,"Ġstatsbidrag":3185,"SA":3186,"yft":3187,"Ã¤gg":3188,"Ġ36":3189,"ĠsÃ¤m":3190,"mÃ¤kti":3191,"Ġkonkret":3192,"ktorn":3193,"Ġsnabbt":3194,"iva":3195,"aler":3196,"Ġbefatt":3197,"Ġlandets":3198,"ĠerhÃ¥lla":3199,"Ġplatser":3200,"vÃ¤sendet":3201,"por":3202,"ĠrÃ¤tts":3203,"ĠFN":3204,"ĠÃ¶vervÃ¤gande":3205,"Ġbetyder":3206,"ard":3207,"ĠDan":3208,"partiets":3209,"Ġrimligt":3210,"ĠstÃ¤n":3211,"ĠvÃ¤lfÃ¤r":3212,"Ġinitiativ":3213,"Ġrespe":3214,"pas":3215,"fÃ¤ll":3216,"Ġuts":3217,"ĠPersson":3218,"lund":3219,"ĠrÃ¶sta":3220,"rÃ¤da":3221,"Ġskydd":3222,"Ġinrikt":3223,"ĠupplÃ¤st":3224,"Ġupplys":3225,"ĠlÃ¤get":3226,"ĠFÃ¶rs":3227,"rym":3228,"ĠfÃ¶remÃ¥l":3229,"eder":3230,"ĠDessutom":3231,"stÃ¤ndigt":3232,"ĠBjÃ¶r":3233,"ĠhÃ¶gsta":3234,"Ġbri":3235,"ĠFrÃ¥n":3236,"ĠfÃ¶refaller":3237,"Ġskil":3238,"ĠmÃ¶jligen":3239,"omrÃ¥det":3240,"Ġproblemet":3241,"Ġpunkter":3242,"ĠlÃ¶ner":3243,"ĠlÃ¥ngsik":3244,"ĠrÃ¤kna":3245,"Ġregional":3246,"sprÃ¥k":3247,"eser":3248,"ator":3249,"ĠBen":3250,"slÃ¶sa":3251,"ĠtillstÃ¥nd":3252,"ĠStat":3253,"Ġmotivering":3254,"lagt":3255,"ĠCenter":3256,"ĠApril":3257,"ĠbetrÃ¤ffar":3258,"Ġskaff":3259,"Ġtio":3260,"ĠinnehÃ¥ll":3261,"ĠangelÃ¤get":3262,"ĠtillvÃ¤x":3263,"ĠfÃ¶reskri":3264,"ĠKan":3265,"ĠrÃ¤d":3266,"Ġuppf":3267,"Ġarbetsmarknads":3268,"Ġ37":3269,"Ġomfattning":3270,"Ġlem":3271,"uter":3272,"ytande":3273,"Ġfm":3274,"verksamheten":3275,"Ġvapen":3276,"Ġjem":3277,"Ġbibe":3278,"Ã¶rer":3279,"Ġknappast":3280,"Ġnam":3281,"tighet":3282,"unkterna":3283,"Ġkritik":3284,"OL":3285,"dern":3286,"handel":3287,"ĠsysselsÃ¤ttning":3288,"ĠrÃ¥der":3289,"ĠMars":3290,"ĠgenomfÃ¶ra":3291,"Ġte":3292,"rum":3293,"Ġungdomar":3294,"skolor":3295,"lÃ¤ggningar":3296,"Ġdjur":3297,"ĠnÃ¤mna":3298,"ĠgÃ¥ngen":3299,"tat":3300,"ĠNord":3301,"Ġtu":3302,"ĠMalmÃ¶":3303,"rand":3304,"Ġkred":3305,"Ġbyggnads":3306,"ĠhÃ¶rt":3307,"Ġinkomster":3308,"ĠnÃ¶dvÃ¤ndig":3309,"Ġenlighet":3310,"Ġkommande":3311,"slaget":3312,"ĠhemstÃ¤lla":3313,"nsam":3314,"ians":3315,"Ġnord":3316,"qvist":3317,"Ġutgifter":3318,"Ġrevis":3319,"Ġ45":3320,"Ġsum":3321,"Ġobe":3322,"illa":3323,"ĠÃ¤ndringar":3324,"ĠbegÃ¤ran":3325,"ĠnivÃ¥":3326,"ĠfÃ¶rsÃ¶ker":3327,"ĠmilitÃ¤r":3328,"Ġalko":3329,"ĠmedfÃ¶ra":3330,"Ġtolk":3331,"ydande":3332,"slÃ¥":3333,"ĠÃ¤ndrad":3334,"Ġhuvudsak":3335,"Ġsystemet":3336,"ĠglÃ¤d":3337,"Ġinformation":3338,"ĠgÃ¤llde":3339,"kn":3340,"ĠkrÃ¤ver":3341,"ĠgrÃ¤n":3342,"ĠslÃ¥":3343,"len":3344,"ĠfÃ¶rhin":3345,"Ġjern":3346,"Ġfunnit":3347,"ĠfÃ¶rÃ¤ndra":3348,"Ġlagstiftningen":3349,"Ġleder":3350,"Ġlagutskottets":3351,"Ġafslag":3352,"ĠutlÃ¥tandet":3353,"Ġengag":3354,"ĠkrÃ¤vs":3355,"ĠhushÃ¥ll":3356,"ĠmÃ¥nader":3357,"ĠstÃ¤llt":3358,"Ġprivata":3359,"tionerna":3360,"ĠModera":3361,"Ġekonomiskt":3362,"rÃ¥den":3363,"ĠÃ¤rendet":3364,"Ġekonomi":3365,"ĠmedfÃ¶r":3366,"Ġkor":3367,"Ġbest":3368,"Ġbesked":3369,"ĠJO":3370,"Ġgymnas":3371,"Ġfartyg":3372,"ĠbehÃ¶v":3373,"Ġigen":3374,"Ġ190":3375,"ĠstatsrÃ¥d":3376,"Ã¤ster":3377,"Ġpriori":3378,"nÃ¤r":3379,"ĠfÃ¶rklarade":3380,"ĠunderstÃ¶d":3381,"mak":3382,"Ġsol":3383,"stid":3384,"Ġverket":3385,"tin":3386,"Ġbeakt":3387,"icin":3388,"ĠframhÃ¥lla":3389,"ĠlÃ¤sa":3390,"Ġflykt":3391,"Ġgemensamma":3392,"rig":3393,"ningsvis":3394,"Ã¤ngd":3395,"ĠutlÃ¥tanden":3396,"ĠmÃ¶jligheterna":3397,"ĠfÃ¶rny":3398,"Ġindiv":3399,"pass":3400,"Ġprincipi":3401,"Ġ70":3402,"kast":3403,"bo":3404,"Ġsu":3405,"Ġbevis":3406,"Ġ%":3407,"ĠÃ¶vertygad":3408,"21":3409,"Ġsvara":3410,"Ġsocialdemokraterna":3411,"ĠVÃ¤nsterpartiet":3412,"stÃ¶d":3413,"sproposition":3414,"Ġarbetare":3415,"Ġlu":3416,"Ġ80":3417,"ĠNÃ¥g":3418,"Ġordin":3419,"minist":3420,"Ġfon":3421,"ona":3422,"ĠHans":3423,"ĠNor":3424,"Ġpress":3425,"ĠNy":3426,"Ġunga":3427,"sled":3428,"issionen":3429,"ĠsjÃ¤lvklart":3430,"ĠlÃ¤gger":3431,"Ġproduktion":3432,"rÃ¤k":3433,"ĠtÃ¤nkt":3434,"Ã¥tgÃ¤r":3435,"ĠmÃ¥ng":3436,"ĠhÃ¤nder":3437,"ĠutgÃ¥r":3438,"Ġriksb":3439,"Ġkat":3440,"Ġgrupper":3441,"Ġanvis":3442,"Ġ39":3443,"Ġupptag":3444,"Ġstan":3445,"gon":3446,"Ġskattes":3447,"Ġverka":3448,"ĠAl":3449,"Ġriktning":3450,"plan":3451,"ĠLarsson":3452,"Ġnorm":3453,"ĠinfÃ¶ra":3454,"ĠFrÃ¥gan":3455,"veckling":3456,"struktur":3457,"Ã¤mpa":3458,"ĠbegÃ¤ra":3459,"ĠuppmÃ¤rksamhet":3460,"ĠsÃ¤g":3461,"ansch":3462,"ĠÃ¥n":3463,"ĠfÃ¶ljer":3464,"ĠÃ¶kning":3465,"Ġager":3466,"Ġibland":3467,"sn":3468,"Ġvitt":3469,"ĠÃĸverlÃ¤ggningen":3470,"rivill":3471,"ĠNi":3472,"ĠbrÃ¤n":3473,"ĠvÃ¤nta":3474,"nÃ¤mnden":3475,"lac":3476,"mul":3477,"formen":3478,"Ġutveckla":3479,"pension":3480,"Ġdi":3481,"Ġstarka":3482,"kÃ¤nnande":3483,"Ġbehandlas":3484,"fullt":3485,"ĠhÃ¶jning":3486,"Ġansvaret":3487,"Ġframtid":3488,"yo":3489,"Ġenbart":3490,"tiskt":3491,"Ġkompetens":3492,"abl":3493,"ĠnÃ¤ringslivet":3494,"skontor":3495,"ĠtyvÃ¤rr":3496,"Ġtydligen":3497,"dentligt":3498,"ĠtillfredsstÃ¤llande":3499,"Ġuniversitet":3500,"Ġlyss":3501,"ĠfÃ¶rordning":3502,"ET":3503,"ĠuppstÃ¥":3504,"ĠfÃ¶reslÃ¥s":3505,"Ġihop":3506,"ĠAND":3507,"Ġgrunder":3508,"Ġsju":3509,"vo":3510,"gin":3511,"ĠSvensson":3512,"ĠHel":3513,"produk":3514,"Ġresultatet":3515,"Ġredog":3516,"ĠhjÃ¤lpa":3517,"Ġblef":3518,"Ġchefen":3519,"ĠGenom":3520,"ministerns":3521,"Ġarbetskraft":3522,"utbildning":3523,"ĠlÃ¤rar":3524,"Ġdiskussionen":3525,"Ġheter":3526,"Ġlivsmedel":3527,"ĠrÃ¶ster":3528,"Ġorganisationer":3529,"Ã¶ts":3530,"ĠgodkÃ¤ndes":3531,"Ġordinarie":3532,"ĠlÃ¤ro":3533,"ĠhÃ¶ja":3534,"Ġpek":3535,"Ġvinna":3536,"ĠHar":3537,"ÃĸR":3538,"dell":3539,"Ġunderstryka":3540,"spek":3541,"ĠÃ¥nyo":3542,"Ġbry":3543,"kÃ¤nnag":3544,"ĠinvÃ¤n":3545,"Ġskillnad":3546,"Ġhelhet":3547,"Ġ90":3548,"Ġvari":3549,"Ã¤kt":3550,"ĠNorrland":3551,"BERG":3552,"ĠvÃ¤sentligt":3553,"dets":3554,"Ġlagt":3555,"rat":3556,"si":3557,"ĠfÃ¶rtroende":3558,"atur":3559,"Ġfria":3560,"Ã¤gare":3561,"ĠÃ¶verenskomm":3562,"Ġrunt":3563,"Ġarbetsgivar":3564,"ĠtillÃ¤gg":3565,"Ġinnevarande":3566,"ĠGustaf":3567,"ĠÃĸster":3568,"ĠorÃ¤tt":3569,"ĠDÃ¤remot":3570,"ERSSON":3571,"rade":3572,"ĠfÃ¶rsam":3573,"ĠmilitÃ¤ra":3574,"Ġliknande":3575,"Ġfjol":3576,"ĠmÃ¶jliga":3577,"garna":3578,"ke":3579,"ĠfÃ¶rekommer":3580,"Ġhvarje":3581,"Ġvoro":3582,"ĠberÃ¤ttig":3583,"Ġargument":3584,"Ġbal":3585,"Ġ0":3586,"Ġframtida":3587,"visningen":3588,"skola":3589,"STR":3590,"Ġparlam":3591,"Ã¤tta":3592,"Ġundrar":3593,"ĠkÃ¶p":3594,"Ġvinst":3595,"Ġvarandra":3596,"Ġsammanhanget":3597,"Ġgyn":3598,"ĠvÃ¤lja":3599,"ĠtillkÃ¤nnag":3600,"syk":3601,"ĠMom":3602,"sÃ¤ttas":3603,"Ã¶ds":3604,"Ġfrivill":3605,"solut":3606,"Ġskrifvelse":3607,"Ġvidta":3608,"bju":3609,"ly":3610,"Ġlinje":3611,"Ġsn":3612,"Ġner":3613,"lek":3614,"Ġutvid":3615,"ĠfÃ¶rsÃ¤ljning":3616,"ĠfÃ¶rlor":3617,"Ġsann":3618,"teringen":3619,"jÃ¤r":3620,"ripa":3621,"ĠinlÃ¤gg":3622,"ĠfÃ¶rutsÃ¤ttning":3623,"peiska":3624,"grÃ¤n":3625,"rÃ¤m":3626,"Ġreservationer":3627,"ĠansprÃ¥k":3628,"Ġdepartements":3629,"Ġges":3630,"skapet":3631,"ia":3632,"ĠÃ¶gon":3633,"Ġmeningen":3634,"Ġfattig":3635,"Ġtalat":3636,"Ġ41":3637,"ric":3638,"ĠfÃ¶rsÃ¤m":3639,"Ġstati":3640,"Ġbekym":3641,"ĠfÃ¶rordningen":3642,"Ġupph":3643,"ĠdÃ¤rigenom":3644,"Ġviktigaste":3645,"ĠÃ¶versyn":3646,"Ġabsolut":3647,"rÃ¶v":3648,"spolitiska":3649,"Ġindivi":3650,"ĠjernvÃ¤g":3651,"jup":3652,"Ġlikal":3653,"ĠHvad":3654,"ĠfrÃ¥gat":3655,"ĠallmÃ¤nt":3656,"rim":3657,"Ġprofess":3658,"Ġfrihet":3659,"SD":3660,"her":3661,"Ġalkohol":3662,"ĠvÃ¤rnplik":3663,"Ġsock":3664,"Ġuttalat":3665,"ĠtillfÃ¤llen":3666,"Ġ42":3667,"alen":3668,"art":3669,"Ġren":3670,"ĠMiljÃ¶partiet":3671,"Ġ........":3672,"kan":3673,"ÃĦ":3674,"emedel":3675,"Ġ1978":3676,"ĠHag":3677,"Ġ1975":3678,"aktigt":3679,"Ġtillstyr":3680,"emorial":3681,"ĠsÃ¤rskildt":3682,"Ġdriv":3683,"ĠÃ¶nska":3684,"spektiv":3685,"ĠutifrÃ¥n":3686,"Ġoav":3687,"Ġstatsverks":3688,"sbygg":3689,"ĠtÃ¤ck":3690,"Ġbesl":3691,"Ġ1985":3692,"klag":3693,"ĠtvÃ¤rtom":3694,"slÃ¤pp":3695,"ssÃ¤tt":3696,"hur":3697,"Ġinflytande":3698,"ĠÃ¥berop":3699,"Ġanord":3700,"Ġarbetsmarknad":3701,"Ġ187":3702,"Ġbedri":3703,"vÃ¤rde":3704,"Ġverkar":3705,"Ġot":3706,"Ġpositivt":3707,"unnit":3708,"ationer":3709,"Ġvux":3710,"yll":3711,"rit":3712,"Ġnumera":3713,"ĠgrÃ¤ns":3714,"stans":3715,"Ġbeslutet":3716,"ĠbÃ¶rjar":3717,"etter":3718,"Ġkvalitet":3719,"ĠhÃ¤nseende":3720,"ĠInterp":3721,"Ġuppenbart":3722,"fer":3723,"inkom":3724,"fÃ¶rsÃ¶rj":3725,"Ġavst":3726,"Ġunderl":3727,"fÃ¶rslaget":3728,"Ġstatisti":3729,"Ġvidtag":3730,"Ġtids":3731,"Ġsub":3732,"ĠutÃ¶":3733,"Ġuteslut":3734,"ĠlÃ¥ter":3735,"10":3736,"Ġpresenter":3737,"Ġch":3738,"Ġtillverk":3739,"Ġomedel":3740,"ĠfÃ¶rhandlingar":3741,"jÃ¶l":3742,"Ġleva":3743,"ningsha":3744,"Ġpensions":3745,"ĠIng":3746,"enheten":3747,"Ġministern":3748,"Ġdetalj":3749,"ĠjÃ¤mte":3750,"Ġgivit":3751,"Ġalternativ":3752,"ĠAlla":3753,"majoriteten":3754,"Ġtider":3755,"ĠsvÃ¥ra":3756,"ĠTro":3757,"ĠrÃ¤tten":3758,"edom":3759,"Ġ43":3760,"UND":3761,"Ġ1986":3762,"ĠfullstÃ¤ndigt":3763,"skjut":3764,"Ġupple":3765,"aden":3766,"stagande":3767,"vara":3768,"delningen":3769,"ĠfÃ¶rdelning":3770,"Â»,":3771,"Ġbygger":3772,"ĠkÃ¤nn":3773,"Ġanst":3774,"ssam":3775,"skydd":3776,"omsorg":3777,"vars":3778,"Ġreda":3779,"Ġstimul":3780,"ission":3781,"Ġinvesteringar":3782,"Ġbarnen":3783,"NN":3784,"ĠmÃ¤nskliga":3785,"Ġskyldig":3786,"ĠSamtidigt":3787,"ĠstrÃ¤":3788,"Ġak":3789,"ĠfÃ¶retrÃ¤d":3790,"Ġton":3791,"Ġ1979":3792,"ĠÃĦn":3793,"sparti":3794,"Ġderaf":3795,"ĠÃ¶nskemÃ¥l":3796,"ĠsÃ¤kerligen":3797,"Ġarti":3798,"50":3799,"ĠsÃ¤mre":3800,"Ġskad":3801,"Ġide":3802,"80":3803,"ĠVil":3804,"Ġavslutad":3805,"ĠRiks":3806,"Ġhandels":3807,"ester":3808,"Ã¤derna":3809,"Ġsiffror":3810,"Ġdriva":3811,"Ġbehandlingen":3812,"Ġutomor":3813,"tiser":3814,"Ġinled":3815,"ĠuppnÃ¥":3816,"ĠutgÃ¥ngspunkt":3817,"ĠbestÃ¤mma":3818,"86":3819,"ĠmÃ¶jlig":3820,"Ġskul":3821,"Ġbas":3822,"Ġbesvarad":3823,"Ġskaffa":3824,"mÃ¤ktige":3825,"ÃĸM":3826,"ĠfÃ¶rsÃ¤kring":3827,"samt":3828,"Ġarm":3829,"Ġsikt":3830,"ĠEl":3831,"ĠhÃ¥llet":3832,"Ġflertalet":3833,"Ġlandsbygden":3834,"ĠfÃ¶reslÃ¥":3835,").":3836,"agn":3837,"lad":3838,"Ġbakgrund":3839,"ĠHol":3840,"onde":3841,"ĠGÃ¶r":3842,"Ġfungerar":3843,"bets":3844,"Ġskolor":3845,"ingens":3846,"slÃ¤g":3847,"edda":3848,"Ġ44":3849,"Ġkur":3850,"Ġ'":3851,"ssystemet":3852,"Ġinvand":3853,"87":3854,"Ġformul":3855,"ĠMÃ¥nga":3856,"ahl":3857,"rycket":3858,"Ġimport":3859,"fÃ¶rsÃ¤kring":3860,"nars":3861,"hjÃ¤l":3862,"ĠfÃ¤sta":3863,"Ġantaga":3864,"rÃ¶relsen":3865,"stÃ¤mmelse":3866,"peka":3867,"Ġbanko":3868,"Ġmedicin":3869,"Ġ1988":3870,"ĠST":3871,"Ġavskaff":3872,"temot":3873,"ĠbÃ¤st":3874,"ĠomÃ¶jligt":3875,"ĠhÃ¶gt":3876,"Ġmedborgare":3877,"ĠgenmÃ¤l":3878,"Ġbrukar":3879,"erats":3880,"ĠSvenska":3881,"Ġkol":3882,"ĠundersÃ¶kning":3883,"Ġslags":3884,"ordes":3885,"Ġfinge":3886,"Ġaktie":3887,"ĠrÃ¤ttighet":3888,"styrelsens":3889,"ssan":3890,"ĠFinans":3891,"Ġkomplett":3892,"Ġstri":3893,"Ġrek":3894,"Ġanal":3895,"Ġproblemen":3896,"rÃ¤ffande":3897,"Ġhinder":3898,"ĠMÃ¥ndagen":3899,"Ġutredningar":3900,"samhet":3901,"ĠfÃ¶redragning":3902,"Ġ1987":3903,"Ġskyldighet":3904,"Ġpartierna":3905,"ald":3906,"ĠprÃ¶vning":3907,"ĠpÃ¥peka":3908,"ĠÃ¶nskar":3909,"ĠframgÃ¥ng":3910,"anda":3911,"Ġberedskap":3912,"Ġverkligheten":3913,"ĠVinner":3914,"Ġkommunikations":3915,"blick":3916,"Ġanslutning":3917,"AS":3918,"Ġ:":3919,"Ġfaktum":3920,"Ġprojekt":3921,"huru":3922,"ĠutgÃ¶ra":3923,"sterades":3924,"Ġintet":3925,"Ġvaror":3926,"ref":3927,"givit":3928,"struk":3929,"ĠmotionÃ¤ren":3930,"Ġfunk":3931,"ĠfrÃ¥gar":3932,"Ġca":3933,"Ġmat":3934,"Ġskada":3935,"ĠJOH":3936,"Ġorim":3937,"kas":3938,"Ġvon":3939,"ktivitet":3940,"vecklingen":3941,"Ã¶s":3942,"ĠVÃ¥r":3943,"Ġbedriv":3944,"Ġko":3945,"Ġuttalanden":3946,"sekonom":3947,"ativt":3948,"Ġbordlades":3949,"givna":3950,"Ġdit":3951,"flytt":3952,"ton":3953,"Ġmarknaden":3954,"ĠÃ¶ppna":3955,"Ġeuro":3956,"ĠtillgÃ¤ng":3957,"Ġtrygghet":3958,"Ġavdrag":3959,"nr":3960,"ystemet":3961,"ĠomstÃ¤ndigheter":3962,"ĠgrundlÃ¤ggande":3963,"Ġlikhet":3964,"ara":3965,"ĠinstÃ¤mma":3966,"Ġtills":3967,"lagen":3968,"stiden":3969,"Ã¶rsmÃ¥l":3970,"brott":3971,"ĠsjÃ¤lvfallet":3972,"Ġrapport":3973,"upple":3974,"ĠgenmÃ¤le":3975,"ĠfÃ¶rvÃ¤n":3976,"ĠstÃ¤rka":3977,"ĠAngÃ¥ende":3978,"ministra":3979,"ĠhÃ¶st":3980,"ĠNorg":3981,"ĠlÃ¥nga":3982,"Ġkredit":3983,"jas":3984,"Ġpo":3985,"rafiken":3986,"Ġbild":3987,"sanslag":3988,"ĠfÃ¶rel":3989,"dsam":3990,"ĠnÃ¤rmaste":3991,"ĠSÃ¶der":3992,"ĠunderhÃ¥ll":3993,"88":3994,"ĠolÃ¤g":3995,"stÃ¤llda":3996,"Ġmemorial":3997,"Ġdagen":3998,"ĠÃ¥terkomma":3999,"30":4000,"ĠlikvÃ¤l":4001,"ĠfjÃ¤r":4002,"ĠBengt":4003,"ĠEr":4004,"sf":4005,"Ġ1980":4006,"ĠarbetslÃ¶sheten":4007,"ĠfÃ¶ranleda":4008,"ĠfÃ¶rhindra":4009,"Ġinstitu":4010,"Ġnega":4011,"STRÃĸM":4012,"Ġjustitiemin":4013,"frÃ¥gorna":4014,"Ġsed":4015,"Ġsakkunn":4016,"Ġbegag":4017,"Ã¤rer":4018,"ĠstÃ¤m":4019,"ĠPeter":4020,"ĠansÃ¶k":4021,"alisering":4022,"ĠtillvÃ¤xt":4023,"ism":4024,"Ġtyp":4025,"ĠdÃ¤refter":4026,"idrag":4027,"Ġkrimin":4028,"ĠbedÃ¶ma":4029,"Ġ46":4030,"ĠPunkten":4031,"Ġkonsekvenser":4032,"Ġinskr":4033,"ĠfÃ¶rfog":4034,"Ġbekant":4035,"ĠjÃ¤mstÃ¤lld":4036,"hÃ¥llanden":4037,"delser":4038,"Ġlokala":4039,"Ġkostnads":4040,"ĠsammantrÃ¤de":4041,"Ġmedlemmar":4042,"fors":4043,"akter":4044,"ĠpÃ¥verk":4045,"bef":4046,"15":4047,"ĠBetrÃ¤ffande":4048,"ĠbedÃ¶mning":4049,"ĠfÃ¶rbud":4050,"89":4051,"gra":4052,"vall":4053,"ĠJan":4054,"orp":4055,"ligaste":4056,"Ġinnefatt":4057,"Ġnamn":4058,"Ġfullkom":4059,"uss":4060,"ĠbÃ¤r":4061,"Ġsannol":4062,"Ġreglering":4063,"Ġdelvis":4064,"Ġkraftigt":4065,"bud":4066,"ĠanfÃ¶rda":4067,"79":4068,"ĠframÃ¥t":4069,"Ġdeklar":4070,"Ġfunnits":4071,"ĠModeraterna":4072,"sla":4073,"Ġrepresentanter":4074,"ĠinnehÃ¥ller":4075,"Ġ65":4076,"Ġerforder":4077,"satser":4078,"Ġnyligen":4079,"ANSSON":4080,"gri":4081,"ĠEm":4082,"Ġskatten":4083,"ĠarbetslÃ¶sa":4084,"Ġdylika":4085,"itta":4086,"Ġsagts":4087,"Ġdist":4088,"alunda":4089,"lÃ¥ta":4090,"Ġtacka":4091,"Ġskapar":4092,"Ġ48":4093,"ĠfÃ¶rmÃ¶g":4094,"ĠhÃ¥rt":4095,"ĠkommittÃ©":4096,"Ġpsyk":4097,"Ġhemma":4098,"Ġgaranti":4099,"Ġundervisning":4100,"ĠfortsÃ¤ttningen":4101,"ote":4102,"ĠTal":4103,"Ġriktlin":4104,"ĠÃ¤ga":4105,"dÃ¶m":4106,"Ã¥tgÃ¤rder":4107,"dering":4108,"als":4109,"ĠkÃ¶r":4110,"Ġgemensamt":4111,"Ġ500":4112,"ĠsamhÃ¤llets":4113,"Ġfastighet":4114,"ĠnÃ¤ringsliv":4115,"ĠlÃ¤nderna":4116,"Ġdvs":4117,"Ġallvarligt":4118,"Ġstru":4119,"rÃ¤kning":4120,"Ġuppenbar":4121,"jel":4122,"kla":4123,"vice":4124,"Ġanvisa":4125,"...":4126,"Ġbeskaff":4127,"ĠsÃ¤l":4128,"Ġ1989":4129,"Ġjustitie":4130,"ĠkÃ¶pa":4131,"enten":4132,"eh":4133,"ĠfÃ¶rekommit":4134,"Ġpenning":4135,"ĠmÃ¤ngd":4136,"ĠonÃ¶":4137,"90":4138,"Ġandel":4139,"ĠtjÃ¤nster":4140,"ĠfÃ¶rmod":4141,"Ġmaterial":4142,"yss":4143,"Ġ47":4144,"ĠtillfÃ¤lliga":4145,"Ã¤kerhet":4146,"Ġflytt":4147,"ĠHolm":4148,"ĠSkulle":4149,"stÃ¤ndighet":4150,"Ġdubb":4151,"Ġ96":4152,"Ġkonjunktur":4153,"gick":4154,"Ġorgan":4155,"AG":4156,"Ġlagutskottet":4157,"Ã¶f":4158,"Ġriktig":4159,"Ġingalunda":4160,"ĠSJ":4161,"Ġbok":4162,"rastruktur":4163,"dri":4164,"Ã¶ks":4165,"fulla":4166,"ĠavlÃ¶":4167,"Ġsjukdom":4168,"Ġoavsett":4169,"Ġkonta":4170,"Ġpraktiska":4171,"ĠspÃ¶rsmÃ¥l":4172,"varet":4173,"Ġidrott":4174,"ĠdÃ¤rom":4175,"arat":4176,"ĠÃ¥rets":4177,"gÃ¤l":4178,"Ġsvenskt":4179,"ĠtillÃ¤mpas":4180,"ure":4181,"Ġhuvudtit":4182,"Ġhundra":4183,"tes":4184,"ĠinstÃ¤llning":4185,"ĠNorge":4186,"Ġvida":4187,"ĠInte":4188,"ĠEriksson":4189,"Ġinsats":4190,"kostna":4191,"ĠverkstÃ¤lldes":4192,"Ġstatsverkspropositionen":4193,"Ġnytta":4194,"Ġgranskning":4195,"ifrÃ¥n":4196,"Ġgrunden":4197,"Ġformer":4198,"Ġpraktiskt":4199,"Ġtol":4200,"ĠpÃ¥verka":4201,"Ġderom":4202,"ĠNorrbott":4203,"ĠtvÃ¥ng":4204,"ipp":4205,"Ã¥d":4206,"Ġfolkpartiet":4207,"Ġdjup":4208,"arin":4209,"Ġovan":4210,"RIK":4211,"marknaden":4212,"kr":4213,"skra":4214,"tagande":4215,"finans":4216,"Ġhistori":4217,"Ġytterst":4218,"Ġpengarna":4219,"edt":4220,"Ġkonst":4221,"ĠReser":4222,"ĠfÃ¶rsvaret":4223,"ĠSl":4224,"oder":4225,"Ġdefin":4226,"Ġsupple":4227,"vÃ¤ga":4228,"Ġ1982":4229,"ĠvÃ¤rld":4230,"ĠAf":4231,"ĠanhÃ¥lla":4232,"ĠdÃ¤ri":4233,"ĠfÃ¶rklarades":4234,"MAN":4235,"16":4236,"gifts":4237,"Ġbefinner":4238,"Ġadministra":4239,"Ġlo":4240,"ivna":4241,"Ġansl":4242,"ĠOhl":4243,"ĠtillÃ¥ter":4244,"Ġgentemot":4245,"Ġkro":4246,"ĠbistÃ¥n":4247,"istiska":4248,"Ã¶tes":4249,"ĠutfÃ¤r":4250,"egl":4251,"Ġkomme":4252,"Ġ1983":4253,"ĠstÃ¶dja":4254,"ĠdÃ¤rav":4255,"17":4256,"verken":4257,"Ġslutligen":4258,"rimin":4259,"istan":4260,"Ġpolitisk":4261,"ark":4262,"Ġod":4263,"Ġtekniska":4264,"Ġsocialdemokrater":4265,"Ġeffek":4266,"Ġstopp":4267,"ĠtillÃ¤mpning":4268,"Ġsatsa":4269,"stÃ¤l":4270,"Ġmyndigheterna":4271,"ĠnÃ¶dvÃ¤ndiga":4272,"Ġutrednings":4273,"lats":4274,"Ġringa":4275,"bin":4276,"ĠbestÃ¤mmelserna":4277,"ĠfÃ¶rÃ¤ldrar":4278,"ĠdÃ¤rtill":4279,"Ġrepresenter":4280,"Ġplac":4281,"Ġsta":4282,"ĠOr":4283,"12":4284,"Ġkommunen":4285,"ĠAnslag":4286,"ĠanvÃ¤nder":4287,"Ġutrym":4288,"ĠfortsÃ¤tter":4289,"ĠgÃ¶rs":4290,"ĠhÃ¤nda":4291,"Ġ75":4292,"makt":4293,"ĠKonungen":4294,"skole":4295,"ĠfÃ¶rfogande":4296,"Ġtransport":4297,"hu":4298,"ĠFri":4299,"ĠmotionÃ¤rerna":4300,"tan":4301,"ordon":4302,"ĠfÃ¶rvÃ¥":4303,"ĠhÃ¤lso":4304,"ĠredogÃ¶r":4305,"ĠupphÃ¶r":4306,"ĠallmÃ¤nheten":4307,"ubb":4308,"ĠSten":4309,"Ġemellan":4310,"ierna":4311,"bruket":4312,"Ġtycks":4313,".âĢĿ":4314,"off":4315,"ĠVÃ¤ster":4316,"Ġprocess":4317,"kÃ¶ping":4318,"Ġas":4319,"Ġpapp":4320,"ĠJord":4321,"Ġjuli":4322,"Ġunderlag":4323,"ĠutlÃ¤ndska":4324,"Ġdylik":4325,"Ġrelativt":4326,"Ã¤nkande":4327,"esi":4328,"Ġspeciellt":4329,"Ġskjut":4330,"ĠÃ¥tn":4331,"lex":4332,"Ġkostnad":4333,"Ġbeteck":4334,"rika":4335,"tim":4336,"Ġtillgodo":4337,"reger":4338,"ĠsÃ¤ll":4339,"Ġfrukt":4340,"gning":4341,"AT":4342,"gÃ¥ngen":4343,"Ã¶sa":4344,"hÃ¤nda":4345,"ĠuppmÃ¤rksam":4346,"Ġindrag":4347,"utredningen":4348,"ĠerkÃ¤nna":4349,"rustning":4350,"ĠhÃ¤lften":4351,"ĠbestÃ¤mt":4352,"Ġbifaller":4353,"Ġgjordes":4354,"ĠKam":4355,"Ġnar":4356,"ĠEG":4357,"Ġexper":4358,"ĠfÃ¶rhand":4359,"Ġmedverka":4360,"Ġ55":4361,"ĠAnmÃ¤ldes":4362,"Ġvalet":4363,"Ġnorr":4364,"Ġopin":4365,"Ġsitter":4366,"Ġdisp":4367,"ĠsÃ¥g":4368,"ĠfÃ¶rsamling":4369,"aktig":4370,"Ġexp":4371,"Ġpolisen":4372,"Ġ49":4373,"ĠmÃ¤nniskorna":4374,"Ġlokal":4375,"rÃ¤tts":4376,"Ġotill":4377,"ĠÃ¥sigt":4378,"Ġafs":4379,"Ġvetenskap":4380,"onop":4381,"industri":4382,"ĠmissfÃ¶r":4383,"Ġsjelf":4384,"mor":4385,"sprogram":4386,"Ġenskilde":4387,"ĠbostÃ¤der":4388,"Ġerbju":4389,"Ġ1984":4390,"Ġprotokollet":4391,"fÃ¶rsÃ¤kringen":4392,"Ġbrotts":4393,"hÃ¶g":4394,"ĠÃ¶frigt":4395,"fÃ¶rm":4396,"ĠfÃ¶retrÃ¤dare":4397,"ei":4398,"Ã¤nkningar":4399,"pan":4400,"Ġvisade":4401,"Ġteknik":4402,"ĠMot":4403,"enterna":4404,"ĠframhÃ¶ll":4405,"Ġavgivna":4406,"Ġuttalade":4407,"omrÃ¥de":4408,"Ġslutet":4409,"skar":4410,"ĠframhÃ¥llit":4411,"Ġstatlig":4412,"utbildningen":4413,"ĠfÃ¶rd":4414,"Ġstyck":4415,"peri":4416,"jud":4417,"Ġvikt":4418,"Ġcir":4419,"uvud":4420,"13":4421,"Ġsked":4422,"yndighet":4423,"ĠstÃ¤der":4424,"ĠSch":4425,"rala":4426,"rest":4427,"Ġskriver":4428,"Ġaktuella":4429,"ĠFÃ¶rst":4430,"Ġdylikt":4431,"Ġresonemang":4432,"Ġ186":4433,"efon":4434,"Ġfullkomligt":4435,"OT":4436,"Ġq":4437,"Ġsid":4438,"aktÃ¤r":4439,"Ġbifallit":4440,"Ġutomordentligt":4441,"Ġafgif":4442,"ĠaflÃ¶":4443,"bu":4444,"Ġeffekt":4445,"ĠrÃ¤cker":4446,"Ġehuru":4447,"Utskottets":4448,"Ġ189":4449,"Ġbehandla":4450,"Ġkonstitutionsutskottet":4451,"ĠfÃ¶rsv":4452,"ĠsÃ¤k":4453,"Ġstatsmak":4454,"lÃ¤ggas":4455,"Ġpati":4456,"ĠmÃ¥let":4457,"Ġtimmar":4458,"ĠderfÃ¶re":4459,"ĠfÃ¶rutsÃ¤tter":4460,"ĠglÃ¶m":4461,"Ġlikalydande":4462,"ĠlÃ¤kare":4463,"beroende":4464,"ikapp":4465,"skin":4466,"rÃ¶ken":4467,"ĠutÃ¶ver":4468,"kort":4469,"ĠfÃ¶rsÃ¶kt":4470,"ĠAnders":4471,"Ġmisst":4472,"tiden":4473,"gÃ¶ring":4474,"Ġenskild":4475,"irekt":4476,"Ġmajoriteten":4477,"Ġutarbet":4478,"Ġomsorg":4479,"tet":4480,"Ġtvingas":4481,"Ġparlamentar":4482,"ĠsÃ¶ker":4483,"ĠbehÃ¥lla":4484,"Ġtidpunkt":4485,"nats":4486,"Ġvanliga":4487,"Ġbifalla":4488,"Ġtur":4489,"Ġensam":4490,"jÃ¤":4491,"Ġoffentlig":4492,"Ġbeskattning":4493,"Ġben":4494,"slÃ¥n":4495,"aktiga":4496,"Ġvia":4497,"elt":4498,"Ġbefri":4499,"ĠVÃ¤r":4500,"Ġrelig":4501,"cker":4502,"organis":4503,"Ġnationella":4504,"Ġsamling":4505,"Ġgamm":4506,"ivel":4507,"revis":4508,"Ġkontakt":4509,"ĠframstÃ¤lla":4510,"ium":4511,"Ġambi":4512,"Ġ52":4513,"villkor":4514,"ĠlÃ¥t":4515,"speri":4516,"Ġgodt":4517,"kommen":4518,"MP":4519,"Ġtydlig":4520,"intress":4521,"ĠInterpellation":4522,"ĠhÃ¤nvisades":4523,"enta":4524,"igheten":4525,"ologiska":4526,"Ġannor":4527,"Ġ53":4528,"teras":4529,"Ġgett":4530,"Ġbrister":4531,"mp":4532,"ĠkÃ¤rnkraft":4533,"belopp":4534,"stÃ¤llningen":4535,"Ġsamarbet":4536,"Ġfattade":4537,"ĠanhÃ¥ller":4538,"Ġfara":4539,"dringen":4540,"ĠfÃ¶reslagits":4541,"Ġkrigs":4542,"85":4543,"ĠfÃ¶rmÃ¥ga":4544,"ĠmÃ¶ta":4545,"ĠEric":4546,"Ġsvag":4547,"Ġuppt":4548,"ĠfÃ¶rbÃ¤ttring":4549,"ĠDanmark":4550,"Ġyrkanden":4551,"bro":4552,"ĠinstÃ¤mde":4553,"beskatt":4554,"Ġhit":4555,"ions":4556,"slÃ¤n":4557,"Ġhufvud":4558,"Ġdiskuterar":4559,"Ġat":4560,"ĠhÃ¤rvid":4561,"rÃ¤de":4562,"Ġyrkandet":4563,"Ġmedelst":4564,"yng":4565,"14":4566,"troller":4567,"Ġintag":4568,"Ġmass":4569,"Ġsubven":4570,"ĠMeddel":4571,"Ġtanken":4572,"terade":4573,"ĠEftersom":4574,"ograf":4575,"ĠJusterades":4576,"Ġmedgif":4577,"ĠLAR":4578,"lit":4579,"ĠdrÃ¶j":4580,"ĠpÃ¥min":4581,"Ġvidtaga":4582,"ĠmotstÃ¥nd":4583,"Ġsnarare":4584,"Ġkungl":4585,"Ġskrift":4586,"Ġfogade":4587,"Ġspecial":4588,"proposition":4589,"Ġallians":4590,"ĠsamhÃ¤lls":4591,"Ġforsknings":4592,"skland":4593,"ater":4594,"Ġfil":4595,"Ġbestri":4596,"Ġgrann":4597,"ĠlÃ¤ggas":4598,"ĠSlut":4599,"Ġ54":4600,"Ġhitta":4601,"Ġsant":4602,"Ġobet":4603,"ĠnÃ¶":4604,"Ġmotiveringen":4605,"mÃ¤ss":4606,"Ġvarav":4607,"ĠGun":4608,"ĠsÃ¤gs":4609,"IK":4610,"Ġpositiva":4611,"ĠfÃ¶rr":4612,"Ġkonkreta":4613,"Ġ1977":4614,"Ġ300":4615,"Ġetabl":4616,"NG":4617,"sproblem":4618,"buds":4619,"Ġkap":4620,"Ġfortsatta":4621,"Ġbransch":4622,"fÃ¶rbundet":4623,"somrÃ¥de":4624,"fvande":4625,"ssons":4626,"ĠBr":4627,"Ġhen":4628,"Ġlyckats":4629,"ĠsjÃ¶far":4630,"alk":4631,"ĠtjÃ¤nstemÃ¤n":4632,"ED":4633,"utskott":4634,"Ġmandat":4635,"Ġsiste":4636,"84":4637,"Ġvem":4638,"ellationen":4639,"ega":4640,"eringar":4641,"sbeslut":4642,"Ġservice":4643,"Ġkalla":4644,"Ġtrodde":4645,"ĠlÃ¶ntag":4646,"Ġdrabbas":4647,"Ġramen":4648,"Ġfog":4649,"bergs":4650,"ĠFolkpartiet":4651,"Ġtra":4652,"ĠvÃ¤ljer":4653,"set":4654,"ĠutvÃ¤r":4655,"ĠMAR":4656,"ĠfÃ¶rekomma":4657,"Ġskydda":4658,"Ġasyl":4659,"ffe":4660,"hÃ¥llit":4661,"almar":4662,"ĠsÃ¤gas":4663,"delsen":4664,"ĠhÃ¤ndelse":4665,"Ġsaknar":4666,"Ġseder":4667,"ssyn":4668,"ĠstÃ¤llde":4669,"bestÃ¤mm":4670,"Ġvalut":4671,"ĠjÃ¤mfÃ¶relse":4672,"Ġbidra":4673,"Ġjordbrukets":4674,"staten":4675,"ĠGÃ¶ran":4676,"ĠHed":4677,"Ġting":4678,"Ġslutsats":4679,"ĠbÃ¶rjade":4680,"Ġ1981":4681,"skan":4682,"ĠbestÃ¤mda":4683,"Ġanpass":4684,"Ġreal":4685,"Ġverksam":4686,"Ġfastighets":4687,"Ġinfrastruktur":4688,"Ġavva":4689,"Ġandre":4690,"Ġbliva":4691,"Ġ1970":4692,"Ġsjelfva":4693,"Ġomedelbart":4694,"Ġsommar":4695,"ĠfjÃ¤rde":4696,"Ġrest":4697,"Ġmor":4698,"Ġlagar":4699,"vÃ¤rda":4700,"Ġtitta":4701,"ĠingÃ¥r":4702,"ĠOlof":4703,"ĠFÃ¶rsvars":4704,"brik":4705,"ĠhÃ¤rom":4706,"ĠEk":4707,"Ġreformer":4708,"AND":4709,"ĠSV":4710,"ĠtrÃ¤":4711,"ĠKrist":4712,"vika":4713,"ĠbistÃ¥nd":4714,"terat":4715,"lÃ¶s":4716,"ĠrÃ¤ttvis":4717,"ĠfÃ¶rstÃ¤rk":4718,"ĠsÃ¤tter":4719,"ĠvÃ¤sentliga":4720,"Ġinvestering":4721,"Ġ1973":4722,"Ġskap":4723,"ĠCenterpartiet":4724,"ĠstÃ¤ndigt":4725,"Ġvoteringsproposition":4726,"Ġarbetsl":4727,"ĠtillÃ¤gga":4728,"Ġrational":4729,"Ġbereda":4730,"Ã¤ss":4731,"Ġungdoms":4732,"gos":4733,"Ġannars":4734,"Ġstrid":4735,"Ġutvecklas":4736,"hÃ¤l":4737,"Ġstabil":4738,"ora":4739,"herre":4740,"ĠHam":4741,"Ġgru":4742,"rÃ¥dets":4743,"srÃ¤tt":4744,"ĠfÃ¶rrÃ¤n":4745,"hÃ¥llas":4746,"Ġfattat":4747,"gasatt":4748,"ĠkaraktÃ¤r":4749,"Ã¶dra":4750,"Ġteck":4751,"Ġsedermera":4752,"83":4753,"Ġ56":4754,"ĠZ":4755,"skif":4756,"Ġtillsatt":4757,"ĠrÃ¤knar":4758,"Ġbefolkningen":4759,"onopol":4760,"Ġmarknad":4761,"ARL":4762,"ĠÂ«":4763,"fÃ¶ras":4764,"Ġnordiska":4765,"Ġvig":4766,"ĠprÃ¶va":4767,"Ġverkliga":4768,"orn":4769,"Ġilla":4770,"Ġfamilje":4771,"Ġkonsument":4772,"hn":4773,"manna":4774,"makten":4775,"skontoret":4776,"ĠfÃ¶rmÃ¶genhet":4777,"ĠBir":4778,"byggande":4779,"Ġdepartementschefen":4780,"ansen":4781,"76":4782,"ĠutslÃ¤pp":4783,"familj":4784,"Ã¤mnar":4785,"ĠsprÃ¥k":4786,"ĠUSA":4787,"stjÃ¤n":4788,"ĠfaststÃ¤ll":4789,"Ġ&":4790,"Ġkompens":4791,"ĠupptrÃ¤":4792,"Ġeventuellt":4793,"ĠbetÃ¤nkanden":4794,"ptem":4795,"Ġstund":4796,"onala":4797,"ĠÃ¤ger":4798,"tionens":4799,"Ġpolitiker":4800,"ptember":4801,"Ġyttrat":4802,"ĠfÃ¶rmen":4803,"Ġpolitiskt":4804,"ĠSjÃ¶":4805,"Ġavsikt":4806,"Ġlif":4807,"ĠHall":4808,"stedt":4809,"eli":4810,"ĠhvarfÃ¶r":4811,"ĠlÃ¤ttare":4812,"ĠsjukvÃ¥rd":4813,"Ġbillig":4814,"ĠskÃ¤rp":4815,"Ġutreda":4816,"budget":4817,"Ġlilla":4818,"ĠfrÃ¤mmande":4819,"Ġarbetspl":4820,"mÃ¤nnen":4821,"ĠKri":4822,"Ġderi":4823,"Ġkonstaterar":4824,"stitutet":4825,"atsen":4826,"Ġbekymmer":4827,"Ġledning":4828,"Ġlandt":4829,"Ġutskottsmajoriteten":4830,"fÃ¶rvalt":4831,"NE":4832,"Ġsyftar":4833,"Ġuppenbarligen":4834,"ĠvÃ¥ld":4835,"Ġgra":4836,"Ġunders":4837,"ĠanfÃ¶rts":4838,"rafts":4839,"ĠfÃ¶rbin":4840,"ĠupplÃ¤stes":4841,"Ġklo":4842,"Ġglad":4843,"dningen":4844,"ĠÃĸsters":4845,"ĠÃ¥terr":4846,"ĠfÃ¶rsik":4847,"Ġmotsvar":4848,"Ġjustitieministern":4849,"Ġproduc":4850,"ĠsÃ¤nka":4851,"delar":4852,"Ãī":4853,"ĠrÃ¶stat":4854,"Ġmill":4855,"mÃ¤st":4856,"ĠhÃ¶rde":4857,"----":4858,"Ġbeslutat":4859,"Ġtom":4860,"Ġavgivit":4861,"ĠÃ¶verlÃ¤ggningen":4862,"sse":4863,"Ġhandikapp":4864,"22":4865,"ĠvÃ¤sentlig":4866,"ĠSjÃ¤l":4867,"Ġutrikesministern":4868,"Ġliber":4869,"Ġprinciper":4870,"fallit":4871,"Ġnarko":4872,"ĠfÃ¤ng":4873,"Ã¶kning":4874,"Ġutbyggnad":4875,"ĠfÃ¶rsÃ¶ks":4876,"ĠKommun":4877,"Ġinter":4878,"Ġart":4879,"Ġ63":4880,"Ġantingen":4881,"Ġutbildningen":4882,"Ġgifva":4883,"ĠsysselsÃ¤ttningen":4884,"Ġspeciella":4885,"Ġberedda":4886,"ĠstÃ¤llningstagande":4887,"Ġfann":4888,"Ġstrate":4889,"Ġfabrik":4890,"ĠfÃ¶retaget":4891,"ĠhemstÃ¤llts":4892,"Ġorter":4893,"ĠfÃ¶rhÃ¥ller":4894,"Ġiak":4895,"ĠfÃ¶rutsÃ¤ttningarna":4896,"ĠanvÃ¤ndning":4897,"kÃ¤nner":4898,"styrk":4899,"Ġmiljon":4900,"Ġ59":4901,"ĠkÃ¤nnedom":4902,"Ġhindra":4903,"ivÃ¥n":4904,"andard":4905,"ĠfÃ¶rklara":4906,"stiftningen":4907,"Ġsent":4908,"ĠhÃ¤nt":4909,"ĠavstÃ¥":4910,"Ġdat":4911,"ĠJon":4912,"entets":4913,"gÃ¶relse":4914,"Ġstruktur":4915,"Ġstudie":4916,"naderna":4917,"Ã¤mt":4918,"anta":4919,"sala":4920,"Ġmott":4921,"ĠfÃ¶religga":4922,"Ġderemot":4923,"Ġkopp":4924,"Ġkallade":4925,"ĠsÃ¶kt":4926,"Ġregionala":4927,"ĠUtskott":4928,"ĠrÃ¶sterna":4929,"Ġpe":4930,"Ġgrunda":4931,"Ġlov":4932,"ĠMag":4933,"Ġpersonliga":4934,"Ġskull":4935,"Ġlivet":4936,"Ġnykter":4937,"ĠFl":4938,"Ġderigenom":4939,"Ġ57":4940,"hov":4941,"arbetare":4942,"Ġterr":4943,"br":4944,"ringen":4945,"Ġtitt":4946,"Ġbudgeten":4947,"ĠidÃ©":4948,"Ġallvarliga":4949,"Ġbruk":4950,"Ġerfarenheter":4951,"ningom":4952,"ĠrÃ¤ttvisa":4953,"Ġutnyttja":4954,"vÃ¤rl":4955,"Ġbeskaffenhet":4956,"stolen":4957,"Ġstod":4958,"ĠanmÃ¤rkning":4959,"Ġdirektiv":4960,"Ġsatsningar":4961,"ĠstrÃ¤ck":4962,"ĠsmÃ¥ningom":4963,"ĠlÃ¤ra":4964,"Ġcentrala":4965,"dare":4966,"Ġflott":4967,"Ġkostar":4968,"ĠlÃ¤mnat":4969,"stÃ¤llningar":4970,"ĠgodkÃ¤nnande":4971,"Ġtypen":4972,"Ġsa":4973,"Ġreglerna":4974,"fÃ¶rsÃ¤krings":4975,"fatta":4976,"problem":4977,"vas":4978,"Ġkil":4979,"skÃ¤r":4980,"82":4981,"ĠfÃ¶rslagen":4982,"Ġkravet":4983,"Ġseptember":4984,"bring":4985,"Ġkonven":4986,"Ġenkla":4987,"jest":4988,"Ġpraktiken":4989,"ĠfÃ¶":4990,"Ã¤des":4991,"ankens":4992,"Ġgymnasie":4993,"edag":4994,"draget":4995,"radi":4996,"Ġbyggnad":4997,"Ġintagit":4998,"utral":4999,"Ġherrarna":5000,"ĠFor":5001,"ĠGU":5002,"yra":5003,"Ġstyrelse":5004,"ĠanfÃ¶ra":5005,"Ġenighet":5006,"Ġvakt":5007,"Ġhuman":5008,"ĠsjukvÃ¥rden":5009,"Ġkris":5010,"ĠdÃ¥ligt":5011,"Ġlev":5012,"Ġarbeten":5013,"Ġpositiv":5014,"Ġbevillningsutskottets":5015,"Ġmedveten":5016,"ĠMeddelande":5017,"ĠvÃ¥rden":5018,"Ġskedde":5019,"Ġvars":5020,"Ġriktiga":5021,"Ġbeslutade":5022,"ĠstÃ¤derna":5023,"skolorna":5024,"ands":5025,"Ġperspektiv":5026,"ĠEmellertid":5027,"ĠhÃ¤refter":5028,"Ġsocialt":5029,"organisationen":5030,"ĠmjÃ¶l":5031,"Ġanledningen":5032,"omÃ¥l":5033,"ĠBar":5034,"ations":5035,"ĠtillrÃ¤cklig":5036,"ĠÃ¤mne":5037,"ĠhÃ¶sten":5038,"VI":5039,"Ġutrymme":5040,"Ġupprep":5041,"Ġtillgodos":5042,"Ġkrist":5043,"Ġkritiser":5044,"Ġnoga":5045,"klass":5046,"Ġtyckte":5047,"Ã¶rd":5048,"Ġkrafter":5049,"Ġanskaff":5050,"Ġdertill":5051,"jet":5052,"Ġreserv":5053,"Ġfattiga":5054,"ĠvÃ¤lfÃ¤rd":5055,"Ġtand":5056,"ĠSlutligen":5057,"Ġinrikes":5058,"Ġminskar":5059,"Ġoppositionen":5060,"ĠpÃ¥kall":5061,"Ġter":5062,"Ġ,":5063,"sli":5064,"ligtvis":5065,"Ġlug":5066,"Ġsynnerhet":5067,"ĠfÃ¶retagare":5068,"ĠTalmannen":5069,"Ġbegrepp":5070,"ivt":5071,"rarna":5072,"Ġ67":5073,"OM":5074,"Ãħ":5075,"ĠutmÃ¤r":5076,"ĠArbets":5077,"reglering":5078,"ĠsÃ¤lja":5079,"ningss":5080,"iote":5081,"ĠbestÃ¤mmelse":5082,"Ġsamverkan":5083,"ĠfÃ¶rdelar":5084,"ĠuppmÃ¤rksamheten":5085,"unskap":5086,"prÃ¶v":5087,"Ġkv":5088,"Ġfungera":5089,"Ġro":5090,"Ġsannolikt":5091,"mt":5092,"Ġanslagen":5093,"Ġeffektivt":5094,"ĠavslÃ¥":5095,"Ġstanna":5096,"entera":5097,"ĠtillÃ¥t":5098,"fning":5099,"iel":5100,"Ġvart":5101,"Ġveckor":5102,"ĠInom":5103,"Ġsenast":5104,"ĠhemstÃ¤ller":5105,"Ġgi":5106,"ĠJustiti":5107,"rings":5108,"Ġautom":5109,"organ":5110,"Ġbevillningsutskottet":5111,"Ġses":5112,"sÃ¤ttningar":5113,"ĠTrots":5114,"stÃ¤ller":5115,"bliote":5116,"Ġemedan":5117,"ĠavsÃ¥g":5118,"ĠsÃ¶n":5119,"hjÃ¤lp":5120,"Ġfasta":5121,"ific":5122,"Ġprodukter":5123,"ĠDÃ¤rmed":5124,"nÃ¤m":5125,"ĠÃ¶vergÃ¥ng":5126,"ĠPetter":5127,"Ġannorlunda":5128,"Ã¤nken":5129,"ĠfÃ¶rsÃ¶rj":5130,"politisk":5131,"handa":5132,"Ġboende":5133,"idar":5134,"Ġlantbruks":5135,"ĠSund":5136,"Ġbehof":5137,"Ġsektorn":5138,"ĠFr":5139,"Ġkonkurren":5140,"ĠKarlsson":5141,"Ġbefattningsha":5142,"sle":5143,"Ġhandla":5144,"Ġdrift":5145,"Ġ51":5146,"sledam":5147,"Ġriktlinjer":5148,"hav":5149,"stÃ¥ndet":5150,"arbeten":5151,"Ġreserver":5152,"stegr":5153,"Ġfattas":5154,"ĠlÃ¤mpliga":5155,"amn":5156,"ivande":5157,"EC":5158,"ĠHansson":5159,"SON":5160,"gress":5161,"Ġutman":5162,"ĠgenomfÃ¶ras":5163,"stiftning":5164,"ĠbÃ¤ra":5165,"Ġega":5166,"Ġpeka":5167,"ĠÃ¤ndrade":5168,"xis":5169,"Ġekonomin":5170,"ĠÃ¤nda":5171,"Ġbordlagda":5172,"refve":5173,"Ġprote":5174,"Ġbolaget":5175,"Ġ>Â»":5176,"ĠJOHANSSON":5177,"ĠSkall":5178,"ĠÃ¶verlÃ¤m":5179,"spropositionen":5180,"ĠhÃ¤vda":5181,"ĠinfÃ¶rande":5182,"lÃ¤nder":5183,"Ġobetyd":5184,"Ġ1972":5185,"Ġrekry":5186,"ĠinkÃ¶p":5187,"icer":5188,"huvud":5189,"Ġreservationerna":5190,"Ã¶ren":5191,"Ġbakgrunden":5192,"nam":5193,"ges":5194,"ĠfÃ¶rhÃ¶j":5195,"ĠTyskland":5196,"Ġarbetsgivare":5197,"Ġsprit":5198,"Ġskade":5199,"ĠinskrÃ¤n":5200,"Ġeffektiv":5201,"ĠrÃ¤nte":5202,"ĠstÃ¶det":5203,"ĠdÃ¤rest":5204,"ĠgodkÃ¤nna":5205,"nades":5206,"Ġof":5207,"ĠDer":5208,"Ġeljest":5209,"Ġminskning":5210,"Ġklag":5211,"jerna":5212,"ĠunderlÃ¤tta":5213,"huset":5214,"Ġrespekt":5215,"komna":5216,"ĠÃ¥tta":5217,"Ġ62":5218,"ĠrÃ¶relse":5219,"mÃ¶j":5220,"anstal":5221,"Ġent":5222,"Ġ1960":5223,"ĠtillfredsstÃ¤llelse":5224,"jus":5225,"ĠhÃ¤":5226,"ĠenhÃ¤ll":5227,"egor":5228,"Ġutlandet":5229,"ĠlÃ¤mnar":5230,"ĠprÃ¤":5231,"Ġskilda":5232,"ĠskÃ¤let":5233,"skatte":5234,"Ġverkligt":5235,"sprotokoll":5236,"enti":5237,"ĠfÃ¶rvaltning":5238,"Ġfritt":5239,"agt":5240,"ĠberÃ¤knas":5241,"Ġstatligt":5242,"Ġinhem":5243,"ĠANDERSSON":5244,"Ġhantera":5245,"ĠSkÃ¥n":5246,"Ġfolkpension":5247,"Ġmissbruk":5248,"gjort":5249,"ĠframlÃ¤gga":5250,"ĠSÃ¥som":5251,"ĠtillfÃ¤llet":5252,"Ġflykting":5253,"ĠihÃ¥g":5254,"industrin":5255,"Ã¤ndring":5256,"ĠlagfÃ¶rslag":5257,"Ġ58":5258,"Ġkontroller":5259,"Ġframlagda":5260,"Ġoblig":5261,"jo":5262,"Ġskydds":5263,"ĠSjÃ¤lv":5264,"grupper":5265,"Ġdemokratiska":5266,"gn":5267,"lande":5268,"Ġtor":5269,"Ġacceptera":5270,"apparat":5271,"Ġuppskatt":5272,"Ġhuvudtiteln":5273,"Ġsumma":5274,"ĠfÃ¤rdig":5275,"Ġnoggr":5276,"ĠfrÃ¤mja":5277,"ĠÃ¶gonblick":5278,"Ġorganisationen":5279,"ĠhÃ¤nvisning":5280,"ĠRedan":5281,"nivÃ¥":5282,"Ġmenings":5283,"Ġoberoende":5284,"ĠDahl":5285,"Ġmodern":5286,"Ġtillsyn":5287,"Ġgles":5288,"ĠsvÃ¥righet":5289,"bildning":5290,"Ġhandlingarna":5291,"Ġgro":5292,"ĠIngen":5293,"Ġutgifterna":5294,"ĠslÃ¥r":5295,"tika":5296,"ĠarbetsfÃ¶r":5297,"Ġsamarbetet":5298,"Ġsocialministern":5299,"ĠangÃ¥r":5300,"ĠfÃ¶reskrifter":5301,"Ġarr":5302,"Ġsocker":5303,"Ġbin":5304,"Ġso":5305,"Ġeuropeiska":5306,"ĠtÃ¥g":5307,"Ġeffekti":5308,"ĠvÃ¤nda":5309,"Ġbeskattningen":5310,"orgon":5311,"ĠbesÃ¶k":5312,"ĠlÃ¤mnas":5313,"ĠAllt":5314,"ĠÃ¶ppen":5315,"let":5316,"ĠhÃ¤nvisa":5317,"ĠNatur":5318,"sfÃ¶rb":5319,"Ġtydliga":5320,"Ġbefog":5321,"ĠlÃ¥ga":5322,"hÃ¥llandena":5323,"Ġtotal":5324,"Ã¤renden":5325,"Ġref":5326,"enast":5327,"pac":5328,"Ġpartiet":5329,"sprung":5330,"Ġrepresentant":5331,"Ġ1976":5332,"Ġarren":5333,"ĠberÃ¶ra":5334,"ĠnÃ¥gonsin":5335,"Ġlott":5336,"bes":5337,"Ã¥ren":5338,"Ã¤rare":5339,"ĠavlÃ¤m":5340,"ĠlÃ¤mplig":5341,"ĠÃ¶nskan":5342,"ĠANN":5343,"ĠtjÃ¤nste":5344,"ĠfÃ¶rsvin":5345,"Ġstift":5346,"Ġ1974":5347,"ĠpÃ¥gÃ¥ende":5348,"sra":5349,"ĠÃ¥terigen":5350,"ĠÃ¥tnjut":5351,"ĠlÃ¶sningar":5352,"yser":5353,"ares":5354,"Ġordna":5355,"vel":5356,"Ġ150":5357,"Ġstuden":5358,"central":5359,"ĠfÃ¶rhoppning":5360,"ĠframstÃ¤llningar":5361,"Ġmargin":5362,"Ã¤rerna":5363,"ĠavvÃ¤g":5364,"Ġbarnomsorg":5365,"Ġenerg":5366,"ĠÃħr":5367,"ĠFÃ¶redrogos":5368,"Ġvikten":5369,"ĠSkatt":5370,"AM":5371,"vation":5372,"ĠbestÃ¤md":5373,"Ġuteslutande":5374,"orden":5375,"Ġkriget":5376,"Ġtidigt":5377,"Ġenhet":5378,"ĠvÃ¤nster":5379,"Ġyrkat":5380,"Ġfordon":5381,"ĠAB":5382,"ĠstÃ¤llas":5383,"ĠmÃ¥hÃ¤nda":5384,"miljÃ¶":5385,"drarna":5386,"ĠframÃ¶ver":5387,"Ġinriktning":5388,"HL":5389,"Ġjordbrukare":5390,"ING":5391,"ĠarmÃ©":5392,"pet":5393,"varor":5394,"Ġspelar":5395,"ĠsvÃ¥rare":5396,"Ġavseenden":5397,"Ġriket":5398,"ĠomstÃ¤ndighet":5399,"Ġkontra":5400,"ĠsÃ¤kerhets":5401,"Ã¶st":5402,"81":5403,"Ġvalt":5404,"ĠavgÃ¶r":5405,"Ġss":5406,"Ġflytta":5407,"ningsfÃ¶r":5408,"ĠfrÃ¶ken":5409,"Ġsnarast":5410,"Ã¤ndra":5411,"ĠuppstÃ¥r":5412,"istr":5413,"ĠÃ¶verenskommelse":5414,"Ġangivna":5415,"Ġminskat":5416,"bok":5417,"ĠLindh":5418,"tif":5419,"Ġort":5420,"Ġbetraktas":5421,"kd":5422,"TA":5423,"Ġriskerar":5424,"ĠhÃ¤nvisar":5425,"Ġlast":5426,"Ġbeskriv":5427,"spension":5428,"Ġtagas":5429,"Ġfidem":5430,"Ġtrakt":5431,"Ã¤nker":5432,"Ġ64":5433,"ĠlÃ¤nsstyr":5434,"IND":5435,"Ġriksbanken":5436,"ĠVis":5437,"ĠerhÃ¶ll":5438,"komst":5439,"ĠAnmÃ¤lan":5440,"Ġmeningar":5441,"jÃ¶n":5442,"Ġtackar":5443,"ryt":5444,"Ġuppres":5445,"Ġtalas":5446,"Ġmarknads":5447,"Ġ66":5448,"ĠÃ¶friga":5449,"Ġsignal":5450,"Ġinternationellt":5451,"ĠSverigedemokraterna":5452,"Ġpriset":5453,"Ġbesparingar":5454,"amen":5455,"ostnad":5456,"ĠFinland":5457,"use":5458,"jan":5459,"dryck":5460,"rare":5461,"Ġvidt":5462,"Ġstam":5463,"ransp":5464,"ĠlÃ¤ser":5465,"olf":5466,"Ġjobba":5467,"Ġosv":5468,"fvet":5469,"Ġsek":5470,"Ġtvivel":5471,"Ġsitta":5472,"vÃ¤gar":5473,"ĠhÃ¶ll":5474,"Ġ1990":5475,"ĠrÃ¤tte":5476,"Ġursprung":5477,"Ġmotor":5478,"emitt":5479,"Ġkompl":5480,"Ġdenne":5481,"Ã¤garna":5482,"Ġinternationell":5483,"Ġlett":5484,"ĠEngl":5485,"ĠLand":5486,"ĠslÃ¤pp":5487,"Ġhufvudsak":5488,"Ġluft":5489,"Ġense":5490,"ĠbeslÃ¶t":5491,"Ġrealis":5492,"varen":5493,"Ġtradi":5494,"ĠRyss":5495,"ĠomfÃ¶r":5496,"Ġproduktionen":5497,"ĠundersÃ¶kningar":5498,"Ġstyrelsen":5499,"Ġsluta":5500,"sutdrag":5501,"Ġindustrin":5502,"ĠmÃ¤nniskors":5503,"ĠÃ¥sik":5504,"ĠWall":5505,"Ġfok":5506,"ĠolÃ¤mp":5507,"Ġundervisningen":5508,"ĠfÃ¶rlust":5509,"tade":5510,"Ġtotala":5511,"tivt":5512,"Ġsolidar":5513,"Ġprovis":5514,"ĠjÃ¤rnvÃ¤gar":5515,"Ġkonstitutionsutskottets":5516,"ĠtrÃ¤d":5517,"Ġupptaga":5518,"Ġhalv":5519,"Ġinneha":5520,"Ġkostnaden":5521,"ĠTV":5522,"Ġobligator":5523,"Ġprincipen":5524,"Ġundvika":5525,"utin":5526,"ĠVissa":5527,"Ġskyn":5528,"sÃ¤tter":5529,"Ġavvis":5530,"ĠfÃ¶rorda":5531,"ĠfÃ¶redro":5532,"Ġmeddela":5533,"ĠomdÃ¶m":5534,"vÃ¤sende":5535,"skÃ¤l":5536,"utit":5537,"adem":5538,"Ġminoritet":5539,"ĠlÃ¶nsam":5540,"ckl":5541,"esias":5542,"Ġdig":5543,"Ġelekt":5544,"Ġleg":5545,"Ġbeho":5546,"gÃ¥rd":5547,"Ġutsatta":5548,"Ġjuster":5549,"ĠsÃ¤ttas":5550,"astro":5551,"Ġfamiljer":5552,"efen":5553,"sto":5554,"stod":5555,"vapen":5556,"Ġprotokollsutdrag":5557,"finansi":5558,"Ġresa":5559,"ĠfÃ¶rhandlingarna":5560,"Ġstarkare":5561,"ensin":5562,"Ġorimligt":5563,"Ġbetyg":5564,"ĠPettersson":5565,"Ġmorgon":5566,"ĠfÃ¶redragna":5567,"ĠanmÃ¤rkningar":5568,"Ġkommunernas":5569,"Ġkoncent":5570,"tax":5571,"ELL":5572,"edd":5573,"Ġbehandlar":5574,"age":5575,"ĠrÃ¥da":5576,"ĠfÃ¶rbered":5577,"Ġtrafiken":5578,"ĠglÃ¤djande":5579,"ĠRR":5580,"ĠHon":5581,"Ġtillgodose":5582,"banan":5583,"ons":5584,"ĠRiksb":5585,"Ġiakttag":5586,"ĠVilka":5587,"18":5588,"cklesias":5589,"Ã¤nkandet":5590,"gripande":5591,"ĠfÃ¤st":5592,"isterna":5593,"ĠsÃ¤nkning":5594,"ĠsamhÃ¤llsekonom":5595,"Ġantagande":5596,"ĠÃ¥tskil":5597,"Ġbetalar":5598,"he":5599,"grÃ¤nsa":5600,"rygg":5601,"Ġfinansier":5602,"Ġtjenst":5603,"ĠfÃ¶refin":5604,"Ġeffekter":5605,"Ġorden":5606,"ĠlÃ¤st":5607,"Ġrr":5608,"Ġ85":5609,"Ġog":5610,"Ġkriminal":5611,"mas":5612,"Ġ69":5613,"ĠMari":5614,"ĠkrÃ¤va":5615,"Ġ1971":5616,"ĠOhlin":5617,"ĠÃ¤mnen":5618,"25":5619,"ĠGunnar":5620,"uppgifter":5621,"ĠfÃ¶rfar":5622,"Ġaktivt":5623,"ĠofÃ¶rÃ¤ndra":5624,"Ġpropor":5625,"eta":5626,"Ġfundera":5627,"Ġhamnar":5628,"Ġkunskaper":5629,"Ã¶terna":5630,"givande":5631,"lid":5632,"stÃ¤des":5633,"Ġbevilja":5634,"Ġmoderata":5635,"Ġengagemang":5636,"Ġstatsmakterna":5637,"sbolag":5638,"Ġmotiv":5639,"Ġbefunn":5640,"Ġpapper":5641,"isera":5642,"regler":5643,"ĠÃ¤mbets":5644,"ĠlÃ¤genheter":5645,"Ġutb":5646,"ĠTack":5647,"Ġhe":5648,"ktive":5649,"Ġill":5650,"ĠPalm":5651,"giva":5652,"Ġinterpellationer":5653,"debatten":5654,"Ġcivila":5655,"gÃ¤ld":5656,"skyldig":5657,"ĠÃ¥syft":5658,"lÃ¤nderna":5659,"ĠÃ¶fverens":5660,"fonden":5661,"ĠskÃ¶ta":5662,"ĠHer":5663,"Ġneutral":5664,"Ġkonsekvenserna":5665,"ĠJÃ¶n":5666,"Ġutfallit":5667,"Ġbefolkning":5668,"sutlÃ¥t":5669,"Ġlyckas":5670,"Ġjurid":5671,"hÃ¤ng":5672,"Ġspri":5673,"ĠChefen":5674,"ĠmÃ¶":5675,"Ġfyll":5676,"cc":5677,"grepp":5678,"Ġutbil":5679,"ysa":5680,"skostnaderna":5681,"Ġdelta":5682,"Ã¶ld":5683,"Ġjobbar":5684,"Ġmoderaterna":5685,"nare":5686,"skommittÃ©n":5687,"ensen":5688,"Ġglob":5689,"straff":5690,"Ġbefar":5691,"ĠingÃ¥ende":5692,"ĠUtrikes":5693,"yndigheten":5694,"sÃ¥":5695,"rande":5696,"Ġinterpellationen":5697,"ĠkÃ¤r":5698,"Ġkonflik":5699,"Ġ61":5700,"ĠAllmÃ¤n":5701,"Ġchef":5702,"Ġbeloppet":5703,"Ġrespektive":5704,"ĠDag":5705,"lyck":5706,"nens":5707,"Ġpraxis":5708,"ĠfÃ¥ng":5709,"âĢĿ.":5710,"ĠfÃ¶rbju":5711,"Ġvarken":5712,"rÃ¥ng":5713,"ĠifrÃ¥gasatt":5714,"ĠsÃ¤kra":5715,"Ġstads":5716,"Ã¤rskil":5717,"Ġdryg":5718,"Ġprincipiella":5719,"ĠdÃ¶m":5720,"Ġ400":5721,"ĠLen":5722,"ĠkommittÃ©n":5723,"ĠsÃ¶dra":5724,"Ġbott":5725,"Ġgiva":5726,"jÃ¤mte":5727,"prom":5728,"Ġpol":5729,"skassan":5730,"materi":5731,"Ġuttrycka":5732,"fÃ¶ring":5733,"Ġskillnaden":5734,"ygga":5735,"cell":5736,"ĠanstrÃ¤ng":5737,"Ġskrivit":5738,"Ġbilligare":5739,"Ġstater":5740,"aket":5741,"Ġverklig":5742,"Ġinvesterings":5743,"ĠKl":5744,"Ġvilkor":5745,"ĠrÃ¤nta":5746,"ĠUl":5747,"til":5748,"ĠbegrÃ¤nsa":5749,"Ġnorra":5750,"ĠunderlÃ¥ta":5751,"ĠLi":5752,"ĠjÃ¤rnvÃ¤gs":5753,"ĠfÃ¶rne":5754,"Ġsaknas":5755,"Ġdirekta":5756,"ĠÃ¤gande":5757,"ĠupplÃ¥t":5758,"snitt":5759,"Ġintegr":5760,"Ġvarsel":5761,"ĠvÃ¤ga":5762,"Ġutbygg":5763,"Ġartikel":5764,"program":5765,"Ġglesbyg":5766,"Ġdrar":5767,"Ġprop":5768,"dal":5769,"Ġrig":5770,"Ġavgifter":5771,"derande":5772,"ĠÃ¶nskvÃ¤rt":5773,"Ġkn":5774,"Ġdraga":5775,"Ġsvarar":5776,"Ġbeklagar":5777,"vak":5778,"78":5779,"Ġinse":5780,"Ġbefint":5781,"ici":5782,"bÃ¤r":5783,"ĠÃ¶verensstÃ¤mmelse":5784,"sfall":5785,"Ġreservanter":5786,"Ġ72":5787,"Ġhistor":5788,"ĠbehÃ¶f":5789,"ĠanhÃ¥ll":5790,"ĠinrÃ¤ttande":5791,"Ġtjenstem":5792,"lÃ¤k":5793,"Ġexakt":5794,"iter":5795,"Ġargum":5796,"ĠBl":5797,"Ġuppman":5798,"Ġtillvar":5799,"Ġsatsning":5800,"ĠrÃ¤ttss":5801,"vÃ¤rdet":5802,"ĠEx":5803,"Ġintens":5804,"ĠSkol":5805,"derar":5806,"somrÃ¥det":5807,"Ġdiskrimin":5808,"Ġkallas":5809,"Ġmaskin":5810,"Ġ74":5811,"iken":5812,"ĠmÃ¥ngf":5813,"ĠÃ¥tskildes":5814,"Ġhandlingar":5815,"jÃ¤mt":5816,"Ġbro":5817,"ĠtillÃ¥ta":5818,"redningen":5819,"Ġreservanternas":5820,"ĠvÃ¥ren":5821,"ktligen":5822,"Ġrisken":5823,"sper":5824,"stÃ¶det":5825,"ĠfÃ¶rÃ¤ldra":5826,"Ġbensin":5827,"Ġarbetstill":5828,"Ġstorlek":5829,"Ġgil":5830,"ĠGot":5831,"Ġmoderater":5832,"ĠKristdemokraterna":5833,"Ġantyd":5834,"Ġbedriva":5835,"ĠFebruari":5836,"Ġsamtal":5837,"ĠlÃ¶sas":5838,"Ġcirka":5839,"vilj":5840,"driv":5841,"vent":5842,"stalt":5843,"usent":5844,"oss":5845,"skostnader":5846,"ĠVill":5847,"ĠUppsala":5848,"ĠlÃ¤mnade":5849,"ĠGustafsson":5850,"Ġtager":5851,"ĠfÃ¶rbÃ¤ttringar":5852,"Ġ68":5853,"ita":5854,"dahl":5855,"Ġmisstag":5856,"Ġdefiniti":5857,"ĠbehÃ¶fver":5858,"ĠfÃ¶rsvara":5859,"Ġmotsatt":5860,"mÃ¤nn":5861,"skog":5862,"ĠskÃ¤":5863,"ĠfÃ¶rverk":5864,"ĠpÃ¥bÃ¶r":5865,"Ġdermed":5866,"Ġminister":5867,"Ġ2020":5868,"Ġuppresning":5869,"jar":5870,"Ġvpk":5871,"Ġklarar":5872,"kat":5873,"ĠÃ¥rligen":5874,"Ġsagdt":5875,"omrÃ¶st":5876,"ĠstatsrÃ¥dsprotokoll":5877,"ĠunderrÃ¤tt":5878,"cp":5879,"Ġpu":5880,"bal":5881,"Ġstudier":5882,"ĠLe":5883,"merik":5884,"Ġupps":5885,"atiskt":5886,"arens":5887,"ĠprÃ¤g":5888,"Ġ73":5889,"Ġallenast":5890,"Ġsym":5891,"Ġvanligt":5892,"REN":5893,"Ġuppm":5894,"Ġrimlig":5895,"ĠlÃ¤kemedel":5896,"Ġ88":5897,"ĠjÃ¤tt":5898,"stjÃ¤nst":5899,"plats":5900,"Ġplanering":5901,"etag":5902,"Ġstudi":5903,"Ġstig":5904,"jung":5905,"rona":5906,"ĠÃ¤kten":5907,"ĠJonsson":5908,"ĠdÃ¶":5909,"ĠSÃ¥dan":5910,"Ġkorta":5911,"ĠfÃ¶rstÃ¥else":5912,"dor":5913,"Ġgammal":5914,"ang":5915,"ĠgrÃ¤nsen":5916,"Ġslipp":5917,"ovjet":5918,"Ġmisslyck":5919,"pote":5920,"Ġpriser":5921,"ingo":5922,"sattes":5923,"Ġgransk":5924,"sbidrag":5925,"ĠhÃ¤st":5926,"ĠstÃ¤llen":5927,"ssynpunkt":5928,"LUND":5929,"nart":5930,"Ġpersonalen":5931,"ĠhÃ¤rvidlag":5932,"Ġfylla":5933,"Ġ76":5934,"Ġkollektiva":5935,"orten":5936,"ĠStatens":5937,"uti":5938,"ĠutskottsutlÃ¥t":5939,"ĠrÃ¥dande":5940,"Ġbefattningshavare":5941,"ĠpÃ¥stÃ¥ende":5942,"Ġverklighet":5943,"MAR":5944,"hin":5945,"erades":5946,"Ġavsl":5947,"Ġmoment":5948,"ĠjÃ¤mstÃ¤lldhet":5949,"stu":5950,"ĠinstÃ¤mmer":5951,"Ġparter":5952,"Ã¶tet":5953,"kra":5954,"ĠbÃ¶rjat":5955,"Ġolje":5956,"ĠhÃ¤rtill":5957,"strÃ¤":5958,"ĠalltjÃ¤mt":5959,"Ġsektor":5960,"ĠstÃ¥tt":5961,"tter":5962,"ningsapparat":5963,"Ġanteck":5964,"ĠdÃ¥lig":5965,"Ġgiven":5966,"budgeten":5967,"ĠfÃ¶retrÃ¤":5968,"Ġanstal":5969,"ĠfÃ¶rmenande":5970,"ĠavgÃ¶ra":5971,"rek":5972,"Ġtotalt":5973,"dist":5974,"ĠLÃ¶":5975,"Ġpekar":5976,"Ġecklesias":5977,"vÃ¤gen":5978,"hÃ¥llning":5979,"ĠStor":5980,"friheten":5981,"ĠNÃ¥gon":5982,"Ġrestrik":5983,"ĠbegrÃ¤nsning":5984,"ĠCarlsson":5985,"ĠhÃ¶gern":5986,"ĠTyvÃ¤rr":5987,"Ġskar":5988,"sprinci":5989,"Ġbostadsbygg":5990,"Ġaktiebolag":5991,"Ġjakt":5992,"present":5993,"Ġuppsk":5994,"Ġfungerande":5995,"ĠRyssland":5996,"erner":5997,"Ġ1968":5998,"Ġstudera":5999,"klam":6000,"ĠfÃ¤ll":6001,"Ġerfordras":6002,"Ġblefve":6003,"opa":6004,"alog":6005,"ĠutfÃ¶ra":6006,"ĠhÃ¤m":6007,"slÃ¤get":6008,"ĠanvÃ¤nds":6009,"IA":6010,"ĠolÃ¤genheter":6011,"ĠrÃ¶strÃ¤tt":6012,"ĠvÃ¤rlds":6013,"Ġtvekan":6014,"eminari":6015,"ĠstÃ¤mp":6016,"Ġskriva":6017,"ĠNils":6018,"Ġlemna":6019,"ĠEngland":6020,"spekt":6021,"enn":6022,"Ġbilda":6023,"Ġgranska":6024,"Ġfemte":6025,"olu":6026,"Ġparagrafen":6027,"Ġavgivits":6028,"Ġsynas":6029,"ĠÃ¶ppet":6030,"Ġminim":6031,"Ġveckan":6032,"Ã¥ret":6033,"ĠÃ¥terremiss":6034,"Ġ$$":6035,"Ġmenade":6036,"orerna":6037,"Ġdeltaga":6038,"Ġvinter":6039,"ĠÃ¶vervÃ¤ga":6040,"omrÃ¥den":6041,"Ġbetona":6042,"Ġminsta":6043,"Ġvigt":6044,"Ġmateriel":6045,"Ġstyrka":6046,"Ġskattef":6047,"steg":6048,"ĠfÃ¶rklaring":6049,"Ġkyrkan":6050,"Ġallvarlig":6051,"ĠSVEN":6052,"uc":6053,"ement":6054,"ĠbehÃ¶fva":6055,"ĠintrÃ¤ffat":6056,"Ġredovisas":6057,"ĠOs":6058,"hÃ¶jning":6059,"Ġbalans":6060,"Ġsakkunniga":6061,"urit":6062,"Ã¤rkt":6063,"nÃ¤mnd":6064,"Ġbefin":6065,"ager":6066,"Ġupprepa":6067,"ĠfÃ¶rmodar":6068,"Ã¤ren":6069,"Ġbryta":6070,"500":6071,"Ġjordbruksministern":6072,"Ġdriver":6073,"Ġkategor":6074,"Ġfinan":6075,"Ġtillstyrka":6076,"Ġdrygt":6077,"ĠBe":6078,"RA":6079,"jem":6080,"ĠSand":6081,"Ġmax":6082,"ĠfÃ¶rslagsanslag":6083,"ĠÃ¤vens":6084,"ĠlÃ¶neregl":6085,"ĠSy":6086,"Ġgeneral":6087,"Ġfaller":6088,"Ġsnabbare":6089,"ĠdÃ¤rpÃ¥":6090,"Ġrub":6091,"Ġmandatperi":6092,"ĠinvÃ¥n":6093,"Ġjordbruksutskottet":6094,"ris":6095,"ĠNorrbotten":6096,"Ġnarkotika":6097,"ĠfÃ¶rklarat":6098,"Ġlandstingen":6099,"ĠtÃ¤nkte":6100,"iden":6101,"ĠMagnu":6102,"ĠdomÃ¤n":6103,"jell":6104,"ĠderpÃ¥":6105,"strum":6106,"lagd":6107,"ansvar":6108,"ĠtillÃ¤ggs":6109,"Ġhanden":6110,"Ġutf":6111,"fvas":6112,"Ġste":6113,"nerligen":6114,"ĠmÃ¤nniska":6115,"Ġvecka":6116,"Ġaktiv":6117,"ee":6118,"Ġkraftig":6119,"skansl":6120,"ĠsistnÃ¤mnda":6121,"Ġstatistik":6122,"Ġtullen":6123,"ĠÃ¤vensom":6124,"Ġmillioner":6125,"Ġredovisa":6126,"Ġavseendet":6127,"ĠJordbruks":6128,"ĠfÃ¶reslog":6129,"ĠbrÃ¶":6130,"Ġlyfta":6131,"ĠglÃ¤dje":6132,"KD":6133,"Ġbristande":6134,"Ġegnahem":6135,"IC":6136,"Ã¤mligen":6137,"ĠomrÃ¶stningsapparat":6138,"ĠmÃ¤rkligt":6139,"Ġsamord":6140,"konjunktur":6141,"utveckling":6142,"Ġrisker":6143,"Ġledningen":6144,"Ġtenden":6145,"ĠfÃ¶ror":6146,"ĠjÃ¤mfÃ¶rt":6147,"fÃ¤llen":6148,"Ġ1950":6149,"Ġdela":6150,"RE":6151,"Ġfp":6152,"40":6153,"Ġbifallas":6154,"unga":6155,"Ġflick":6156,"beredningen":6157,"dran":6158,"ĠundersÃ¶ka":6159,"lan":6160,"vand":6161,"Ġregion":6162,"ĠHagberg":6163,"ĠPunkterna":6164,"Ġagera":6165,"Ġlade":6166,"ĠtÃ¤mligen":6167,"ENA":6168,"uster":6169,"edlar":6170,"sbil":6171,"ĠSkÃ¥ne":6172,"sch":6173,"Ġkommunikationsministern":6174,"vil":6175,"ÃīN":6176,"Ġtveksam":6177,"ĠSÃ¤rskil":6178,"ĠfÃ¶rsvarsministern":6179,"Ġupplysningar":6180,"lingar":6181,"Ġeleverna":6182,"ĠupprÃ¤tthÃ¥lla":6183,"ration":6184,"Ġreag":6185,"ĠLennart":6186,"ostad":6187,"Ġfackliga":6188,"ĠhemstÃ¤llde":6189,"ĠkÃ¤nsla":6190,"ĠrÃ¥det":6191,"jÃ¤na":6192,"ĠVal":6193,"cellens":6194,"LA":6195,"Ġfinansiering":6196,"styrelse":6197,"Ġ83":6198,"ĠLARS":6199,"rorna":6200,"Ġmodell":6201,"Ġfalla":6202,"utvecklingen":6203,"Ġkombin":6204,"ĠfÃ¶rening":6205,"ĠfÃ¤rre":6206,"ĠBjÃ¶rn":6207,"Ġ1967":6208,"Ġutbetal":6209,"ĠintrÃ¤ffa":6210,"Ġkapit":6211,"ĠfrÃ¤msta":6212,"Ġinh":6213,"Ġbefor":6214,"ĠBor":6215,"ula":6216,"gruppen":6217,"Ã¤ttning":6218,"ĠfrÃ¥gade":6219,"Ġgenera":6220,"Ġtillstyrkt":6221,"Ġ2000":6222,"gÃ¥ngar":6223,"ĠKonungens":6224,"bildnings":6225,"Ġkosta":6226,"Ġomfatta":6227,"Ġret":6228,"Ġsjuka":6229,"ĠpÃ¥minna":6230,"Ġ87":6231,"Ġerforderliga":6232,"Ġmonopol":6233,"Ġingri":6234,"Ġgenomsnitt":6235,"departementets":6236,"ĠanmÃ¤rknings":6237,"sprocess":6238,"ĠfÃ¶ljt":6239,"ĠrÃ¤knat":6240,"cen":6241,"srael":6242,"Ġdesto":6243,"ĠfolkomrÃ¶st":6244,"kvist":6245,"Ġskogen":6246,"ĠgrÃ¤nser":6247,"Ġenor":6248,"ĠpÃ¥verkar":6249,"ĠlÃ¥ngsiktigt":6250,"Ġalltmer":6251,"skolans":6252,"Ġbegagna":6253,"ĠÃħt":6254,"ĠerkÃ¤nner":6255,"Ġavveck":6256,"regeringen":6257,"ombuds":6258,"ĠfullmÃ¤ktige":6259,"ĠnÃ¤mnt":6260,"ĠdÃ¥liga":6261,"Ġsten":6262,"Ã¤tet":6263,"Ġherrarne":6264,"ĠvÃ¤d":6265,"Ġordningen":6266,"Ġag":6267,"ismen":6268,"ĠvÃ¤rdet":6269,"Ġsem":6270,"edagog":6271,"drade":6272,"ĠDÃ¤rvid":6273,"ĠframfÃ¶ra":6274,"ĠFrank":6275,"usik":6276,"ĠhÃ¤lsa":6277,"rett":6278,"Ġopposition":6279,"trafik":6280,"Ã¤vle":6281,"skrivning":6282,"Ġhistoria":6283,"Ġparterna":6284,"ĠfÃ¶rlÃ¤ng":6285,"ĠrÃ¤dda":6286,"udet":6287,"ikten":6288,"oppet":6289,"skontroll":6290,"sttag":6291,"Ġstaden":6292,"Ġrevision":6293,"Ġfakta":6294,"Ġarrende":6295,"jÃ¤mning":6296,"ĠMagnusson":6297,"Ġoft":6298,"ĠRos":6299,"kunskap":6300,"Ġtakt":6301,"Ġry":6302,"ĠfÃ¶retags":6303,"ĠgÃ¤llt":6304,"Ġinre":6305,"ĠfÃ¶rviss":6306,"ĠtillÃ¤mpa":6307,"xel":6308,"rog":6309,"iod":6310,"fattning":6311,"Ġspara":6312,"marknads":6313,"ĠframstÃ¤llts":6314,"ĠbestÃ¥r":6315,"Ġrikta":6316,"Ġnegativa":6317,"ĠrÃ¤kning":6318,"ĠefterfrÃ¥gan":6319,"Ġfot":6320,"ĠframstÃ¤llda":6321,"Ã¶rn":6322,"Ġlokalisering":6323,"Ġmassa":6324,"ĠbelÃ¤g":6325,"Ġinnebar":6326,"Ġtagits":6327,"ĠsÃ¤llan":6328,"Ġbidrar":6329,"ĠÃ¶fvervÃ¤gande":6330,"ĠÃ¥tgÃ¤rderna":6331,"fullmÃ¤ktige":6332,"skade":6333,"Ġkallar":6334,"oo":6335,"Ġamerik":6336,"ule":6337,"Ġutvecklings":6338,"Ġskatterna":6339,"Ġframlagt":6340,"skyldighet":6341,"ollegi":6342,"Ġarrendat":6343,"Ġ79":6344,"ĠAnn":6345,"ĠÃĸst":6346,"AB":6347,"ĠomstÃ¤ndigheten":6348,"Ġvuxen":6349,"blad":6350,"Ġrikets":6351,"Ġmak":6352,"ĠfackfÃ¶ren":6353,"inÃ¤r":6354,"Ġlagens":6355,"ĠbekrÃ¤":6356,"ĠmiljÃ¶n":6357,"Ġmalm":6358,"Ġbesvara":6359,"riga":6360,"Ġperiod":6361,"tillÃ¤gg":6362,"ituationen":6363,"ĠWi":6364,"visnings":6365,"stÃ¤ndiga":6366,"Ġstimulera":6367,"Ġpriserna":6368,"ĠÃ¤gna":6369,"ĠvÃ¤rder":6370,"ĠGÃ¤vle":6371,"ĠutlÃ¤nd":6372,"ĠbehÃ¶r":6373,"ĠanhÃ¥llan":6374,"berÃ¤tt":6375,"Ġkvinnorna":6376,"ĠfÃ¶rvÃ¥n":6377,"skydds":6378,"Ġstandard":6379,"Ġecklesiastik":6380,"Ġexister":6381,"ĠEng":6382,"rÃ¤mjande":6383,"skÃ¶ter":6384,"Ġradio":6385,"Ġkrono":6386,"ĠvÃ¤lj":6387,"Ġskapas":6388,"stÃ¥nds":6389,"ĠbrÃ¤nvin":6390,"Ġek":6391,"bor":6392,"Ġgaran":6393,"sked":6394,"ĠbistÃ¥nds":6395,"Ġklokt":6396,"ssjuk":6397,"Ġmotverka":6398,"ĠvÃ¤rldens":6399,"ĠjÃ¤mvÃ¤l":6400,"Ġtaxering":6401,"Ġkontin":6402,"Ġsynpunkten":6403,"Ġstol":6404,"Ġavtalet":6405,"ĠlÃ¥ngsiktiga":6406,"Ġjordbruksutskottets":6407,"ĠbitrÃ¤da":6408,"ĠKarin":6409,"Ġnational":6410,"GREN":6411,"usti":6412,"fÃ¶rsvar":6413,"11":6414,"Ġack":6415,"Ġmottag":6416,"fÃ¶rsÃ¶rjning":6417,"Ġsjukhus":6418,"dsamt":6419,"ĠstatsrÃ¥dets":6420,"Ġann":6421,"ĠGustav":6422,"Ġdrabbar":6423,"Ġbyggnader":6424,"Ġbankoutskottets":6425,"Ġdemokratin":6426,"Ġreduc":6427,"Ġbarnfamilj":6428,"Ġtrafiks":6429,"Ġutsatt":6430,"Ġmotsvarar":6431,"ĠhÃ¤rfÃ¶r":6432,"Ġsamlade":6433,"kapital":6434,"Ġkronan":6435,"ĠanstÃ¤llning":6436,"Ġmedborgarna":6437,"Ġ1965":6438,"krets":6439,"Ġmetoder":6440,"Ġansluta":6441,"fts":6442,"Ġ84":6443,"ĠfÃ¶rts":6444,"ĠfullstÃ¤ndig":6445,"ĠfÃ¤lt":6446,"Ġtaxerings":6447,"skrona":6448,"ĠsmÃ¥fÃ¶retag":6449,"rations":6450,"ĠhÃ¥llbar":6451,"IR":6452,"ĠFriherre":6453,"Ġimp":6454,"rÃ¶relse":6455,"Ġpressen":6456,"Ġsuppleanter":6457,"astighet":6458,"ĠomrÃ¶stningen":6459,"ĠViss":6460,"Ġegenskap":6461,"fria":6462,"Ġbemyndig":6463,"Ġfriheten":6464,"vÃ¤rlden":6465,"une":6466,"Ġ82":6467,"ALL":6468,"ĠVÃ¤st":6469,"Ġskiljer":6470,"fÃ¶rsÃ¤lj":6471,"Ġfarh":6472,"Ġ600":6473,"Ġindividu":6474,"Ġtycka":6475,"Ġbetyda":6476,"ĠkÃ¤nt":6477,"organisationer":6478,"anslag":6479,"uren":6480,"Ġtittar":6481,"ĠfÃ¶res":6482,"ĠÃ¶nskvÃ¤rd":6483,"Ġ1947":6484,"Ġresurserna":6485,"Ġutformning":6486,"ĠrÃ¶strÃ¤kning":6487,"inspek":6488,"urser":6489,"ĠsysselsÃ¤ttnings":6490,"ĠÃ¥sikt":6491,"ĠLIND":6492,"ĠÃĸre":6493,"Ġdok":6494,"Ġfond":6495,"bÃ¤ck":6496,"Ġarbetarna":6497,"abrik":6498,"Ġangif":6499,"ĠbetÃ¤nkligheter":6500,"Ġpratar":6501,"ĠfÃ¤ngelse":6502,"Ġjordbrukarna":6503,"ĠstÃ¤lle":6504,"Ġto":6505,"Ġomfattar":6506,"pacitet":6507,"Ġbud":6508,"olin":6509,"ĠvÃ¤rnpliktiga":6510,"Ġopinion":6511,"omma":6512,"Ġintresserade":6513,"Ġkommentar":6514,"ĠangelÃ¤gen":6515,"ĠtrÃ¤da":6516,"tygelse":6517,"astrof":6518,"ĠJust":6519,"ĠfullfÃ¶l":6520,"ĠÃ¥terstÃ¥r":6521,"rÃ¥ds":6522,"Ġframkommit":6523,"Ġig":6524,"ĠtjÃ¤nstgÃ¶ring":6525,"ifvel":6526,"Ġdiskussioner":6527,"ĠframhÃ¥ller":6528,"ĠredogÃ¶relse":6529,"rike":6530,"ĠangelÃ¤gna":6531,"spartiet":6532,"Ġ120":6533,"ders":6534,"lÃ¤ndska":6535,"ĠpoÃ¤ng":6536,"ĠinskrÃ¤nka":6537,"Ġspek":6538,"ĠlÃ¤roverk":6539,"Ġsannerligen":6540,"Ġ95":6541,"sr":6542,"Ġ1966":6543,"ĠrÃ¶ra":6544,"Ġ71":6545,"ĠfÃ¶relÃ¥g":6546,"behov":6547,"Ġinflation":6548,"ĠvÃ¤rre":6549,"Ġ78":6550,"ĠdÃ¥varande":6551,"Ġregistr":6552,"Ġuppfy":6553,"ele":6554,"ente":6555,"Ġyttranden":6556,"bank":6557,"Ġkontor":6558,"........":6559,"ĠtillÃ¤mpningen":6560,"ĠGrefve":6561,"Ġ89":6562,"Ġtillm":6563,"Ġpot":6564,"ĠRyd":6565,"Ġnatt":6566,"kontor":6567,"ĠÃ¤ndamÃ¥let":6568,"ĠenhÃ¤lligt":6569,"Ġlapp":6570,"ĠhÃ¥llas":6571,"US":6572,"pligt":6573,"Ġsyftet":6574,"Ġkonstru":6575,"Ã¶rja":6576,"ĠFÃ¶l":6577,"Ġlokaler":6578,"ĠpÃ¥stÃ¥r":6579,"Ġ1963":6580,"usentals":6581,"Ġupplysning":6582,"Ġjorden":6583,"ĠstÃ¤rk":6584,"tog":6585,"ĠersÃ¤ttnings":6586,"Ġviktigare":6587,"ĠÃ¥terkommer":6588,"Ã¤ste":6589,"uld":6590,"Ġuppgiften":6591,"Ġkvalific":6592,"ccess":6593,"ĠfÃ¶redrogs":6594,"varna":6595,"ĠpÃ¥pekat":6596,"ĠhÃ¤rad":6597,"Ġutgifts":6598,"ĠavstÃ¥nd":6599,"ĠWerner":6600,"tex":6601,"ĠinfÃ¶rs":6602,"ĠVÃ¤rm":6603,"Ġgruppen":6604,"Ġrubrik":6605,"ĠtillfÃ¶r":6606,"Ġkraven":6607,"ĠGe":6608,"ĠLik":6609,"-,":6610,"Ġkortare":6611,"ĠuppehÃ¥lla":6612,"Ġ86":6613,"Ġkust":6614,"flyttning":6615,"Ġbonde":6616,"Ġhyser":6617,"Ġgjord":6618,"Ã¤nga":6619,"ĠbefÃ¤l":6620,"Ġmeddelade":6621,"ĠgenomfÃ¶rande":6622,"sproduk":6623,"Ġ1951":6624,"ned":6625,"bolaget":6626,"ĠÃ¶m":6627,"ementet":6628,"Ġindel":6629,"hÃ¶jningar":6630,"ĠÃ¤gt":6631,"Ġpraktisk":6632,"idan":6633,"ĠÃ¶kas":6634,"ĠvÃ¤xer":6635,"Ġkonflikt":6636,"krafts":6637,"sfÃ¶rmed":6638,"ĠfrÃ¥nvarande":6639,"belt":6640,"Ġlek":6641,"ĠlÃ¥ne":6642,"ĠskÃ¶r":6643,"Ġifall":6644,"gjorde":6645,"VIST":6646,"Ġflertal":6647,"Ġindustrien":6648,"ĠhÃ¤rav":6649,"kass":6650,"Ġ81":6651,"Ġnationell":6652,"rÃ¥kra":6653,"ĠStaten":6654,"ĠmjÃ¶lk":6655,"fisk":6656,"Ġmyck":6657,"Ġau":6658,"alerna":6659,"STA":6660,"slin":6661,"ledningen":6662,"ĠvÃ¤xande":6663,"tryck":6664,"Ġtex":6665,"Ġkonkurrensen":6666,"ĠdÃ¶r":6667,"ĠKjell":6668,"underlag":6669,"Ġteleg":6670,"platser":6671,"ĠrÃ¤dd":6672,"ĠKalmar":6673,"II":6674,"Ã¤kerheten":6675,"Ġredovisning":6676,"ĠBÃ¶r":6677,"ĠframfÃ¶rts":6678,"Ġdomstolen":6679,"gÃ¶relsen":6680,"Ġpubl":6681,"ĠÃĸrebro":6682,"Ġdo":6683,"ĠhÃ¥rda":6684,"ĠvÃ¤lfÃ¤rden":6685,"ĠinnehÃ¥llet":6686,"Ġstycket":6687,"Ġlinjen":6688,"ĠhÃ¤vdar":6689,"nÃ¶j":6690,"handlingen":6691,"edi":6692,"iÃ¶sa":6693,"usten":6694,"produktion":6695,"Ġsemester":6696,"ĠnÃ¶jd":6697,"skor":6698,"Ġverkan":6699,"ĠtillrÃ¤ckliga":6700,"Ġfolkets":6701,"Ġtidningar":6702,"ĠfÃ¶ljden":6703,"Ġbolags":6704,"inkomst":6705,"ĠLindhagen":6706,"Ġinser":6707,"propri":6708,"Ġ1969":6709,"Ġkem":6710,"ĠfÃ¶ljaktligen":6711,"stÃ¤lt":6712,"Ġrekommen":6713,"ĠbekÃ¤mp":6714,"ĠframfÃ¶rt":6715,"fvens":6716,"hman":6717,"Ġintryck":6718,"Ġkansli":6719,"ĠupptÃ¤ck":6720,"Ġspela":6721,"yndigheterna":6722,"Ġbestrida":6723,"Ġarbetstag":6724,"Ġgrundlagen":6725,"ĠtillgÃ¥ngar":6726,"Ġlid":6727,"Ġutskottsbet":6728,"Ġdags":6729,"anten":6730,"ĠFrankrike":6731,"rak":6732,"Ġskrev":6733,"up":6734,"ĠutÃ¶k":6735,"ĠnÃ¶dvÃ¤ndigheten":6736,"ĠfÃ¶restÃ¤ller":6737,"Ġgrundval":6738,"Ġsuccess":6739,"beslut":6740,"Ġbeskri":6741,"ĠfÃ¶rÃ¤ldrarna":6742,"nÃ¤ringen":6743,"dad":6744,"Ġfrivilliga":6745,"Ġkommentera":6746,"ĠbekÃ¤mpa":6747,"Ġkommissionen":6748,"ĠvÃ¤ntar":6749,"ĠsjukvÃ¥rds":6750,"rem":6751,"ĠerhÃ¥llit":6752,"risk":6753,"Ġavsett":6754,"Ġanlit":6755,"ĠlÃ¤mnades":6756,"ĠuppgÃ¥r":6757,"Ġskrivning":6758,"Ġreformen":6759,"Ġupplever":6760,"storp":6761,"Ġproduktions":6762,"lare":6763,"soch":6764,"Ã¤ndringar":6765,"ĠframstÃ¤l":6766,"ĠmÃ¶ter":6767,"ĠKommer":6768,"Ġexcellens":6769,"ng":6770,"Ġass":6771,"ĠpÃ¥tag":6772,"Ġbehandlat":6773,"handlingarna":6774,"Ġmetod":6775,"Ġanalyser":6776,"Ġtvung":6777,"Ġperman":6778,"ĠLO":6779,"ĠPetersson":6780,"ĠstatsrÃ¥dsprotokollet":6781,"Ġkommission":6782,"Ġdetaljer":6783,"ĠHÃ¶g":6784,"Ġskolorna":6785,"Ġakadem":6786,"Ġtele":6787,"antas":6788,"domar":6789,"Ġsatsar":6790,"Ġ77":6791,"ĠupphÃ¤":6792,"Ġ1962":6793,"Ġvanlig":6794,"Ġtyng":6795,"Ġborg":6796,"Ġvaru":6797,"tige":6798,"Ġrust":6799,"ĠÃ¶verhuvud":6800,"ĠFredrik":6801,"Ġdervid":6802,"cka":6803,"Ġ;":6804,"motion":6805,"Ġarbetat":6806,"Ġprofessor":6807,"ĠhÃ¶jda":6808,"fÃ¶retagen":6809,"Ġterror":6810,"Ġnere":6811,"Ġavstod":6812,"mÃ¥":6813,"Ġ1956":6814,"bygga":6815,"ĠpÃ¥tal":6816,"berÃ¤k":6817,"verkar":6818,"fi":6819,"Ġfattades":6820,"bom":6821,"Ġfordras":6822,"sstat":6823,"Ġtelefon":6824,"ip":6825,"ĠfÃ¶rmÃ¥ner":6826,"hÃ¥llet":6827,"ningssÃ¤ll":6828,"Ġheder":6829,"sex":6830,"ĠHen":6831,"Ġinvandrar":6832,"lle":6833,"ĠRegeringens":6834,"ĠAnna":6835,"ĠhÃ¤ls":6836,"Ġbetrakta":6837,"speriod":6838,"ĠBÃ¥":6839,"Ġorik":6840,"Ġinterpellan":6841,"organisationerna":6842,"Ġmakten":6843,"Ġtillstyrk":6844,"ĠAllians":6845,"Ã¶ja":6846,"ĠstrÃ¤ng":6847,"ĠsÃ¤kerstÃ¤lla":6848,"ĠBidrag":6849,"liggande":6850,"gil":6851,"ĠframhÃ¥llits":6852,"ĠbibehÃ¥lla":6853,"Ġkonstitu":6854,"Ġborts":6855,"ĠarbetstillfÃ¤llen":6856,"Ã¶rerna":6857,"ktiven":6858,"annmÃ¥l":6859,"Ġkorre":6860,"Ġborttag":6861,"ĠRes":6862,"ĠPET":6863,"ĠberÃ¤kning":6864,"ĠlÃ¤nsstyrelsen":6865,"Ġtillkommit":6866,"Ġrationalisering":6867,"gÃ¥rds":6868,"Ġgagn":6869,"mat":6870,"istisk":6871,"Ġbehandlade":6872,"Ġmoral":6873,"ĠprÃ¶vas":6874,"ĠlÃ¤net":6875,"ĠIT":6876,"doms":6877,"skoll":6878,"ĠMotion":6879,"ologisk":6880,"ĠarbetslÃ¶shets":6881,"ĠlagfÃ¶rslaget":6882,"ĠonÃ¶digt":6883,"atiska":6884,"Ġfattar":6885,"ĠNIL":6886,"Ġhennes":6887,"tekn":6888,"ĠkÃ¤nsl":6889,"skrig":6890,"Ġtung":6891,"din":6892,"skommittÃ©":6893,"ĠING":6894,"ĠSkatte":6895,"ĠGotland":6896,"Ġpunkterna":6897,"ĠDom":6898,"Ġdepartementet":6899,"skyddet":6900,"betet":6901,"Ġbehandlats":6902,"avdrag":6903,"givning":6904,"Ġbetalas":6905,"Ġdialog":6906,"Ġ1948":6907,"Ġcentern":6908,"ĠfrÃ¥ge":6909,"Ġbefintliga":6910,"ĠdÃ¶ma":6911,"Ġengel":6912,"ĠTvÃ¤rtom":6913,"opera":6914,"Ġtillverkning":6915,"nt":6916,"ĠLjung":6917,"repr":6918,"Ġexpropri":6919,"ĠsÃ¤rdeles":6920,"Ġyrkats":6921,"ĠberÃ¤ttigade":6922,"Ã¥ldern":6923,"Ġgag":6924,"ĠÃ¤ndras":6925,"24":6926,"regleringen":6927,"Ġbibliote":6928,"ĠbrÃ¤nn":6929,"ĠÃ¥tag":6930,"Ġaktier":6931,"skansliet":6932,"iffer":6933,"ĠÃ¥terupp":6934,"Ġkomprom":6935,"fÃ¶rvaltningen":6936,"Ġdelade":6937,"Ġtidning":6938,"ĠlÃ¤s":6939,"ĠfrÃ¥gans":6940,"Ġorts":6941,"kostnader":6942,"ĠberÃ¤kningar":6943,"Ġgenerellt":6944,"Ġkomplic":6945,"Ġeniga":6946,"vat":6947,"enner":6948,"ĠVotering":6949,"Ġgynnsam":6950,"Ġfantas":6951,"ĠHade":6952,"Ġlog":6953,"ĠtrÃ¤ng":6954,"jk":6955,"Ġutslag":6956,"ĠÃ¤ktenskap":6957,"Ġetc":6958,"Ġforskningen":6959,"tals":6960,"splanen":6961,"ĠklÃ¤m":6962,"ĠdÃ¶ds":6963,"Ġbyggande":6964,"ĠSe":6965,"Ġ1946":6966,"baks":6967,"lagts":6968,"gÃ¤ng":6969,"Ġlades":6970,"ĠavsevÃ¤rt":6971,"lÃ¤ggnings":6972,"no":6973,"bÃ¥t":6974,"Ġposi":6975,"ĠEller":6976,"Ġunderteck":6977,"Ġlyssna":6978,"Ġvoteringspropositionen":6979,"Ġvunnit":6980,"gav":6981,"ĠfÃ¶reningar":6982,"ĠlÃ¥tit":6983,"Ġpat":6984,"Ġplaner":6985,"Ġdeltagande":6986,"ĠRo":6987,"Ġpenningar":6988,"Ġbyggas":6989,"ĠifrÃ¥gasatta":6990,"given":6991,"Ġaktivitet":6992,"ĠinfÃ¶rdes":6993,"ĠvÃ¤xa":6994,"avgifter":6995,"Ġsank":6996,"emente":6997,"Ġoakt":6998,"Ã¤nkt":6999,"OLM":7000,"ĠDal":7001,"nÃ¤mnderna":7002,"antz":7003,"grund":7004,"ĠVisserligen":7005,"fÃ¶rsÃ¶rjningen":7006,"Ġ2015":7007,"Ġsjunk":7008,"ktar":7009,"reter":7010,"ĠJohn":7011,"fÃ¶randen":7012,"fÃ¤lt":7013,"ĠÃ¥stadkomm":7014,"Ġobser":7015,"ĠenÃ¤r":7016,"Ġorsaken":7017,"ĠerkÃ¤nnande":7018,"ĠfÃ¶rsÃ¤kra":7019,"plikt":7020,"byte":7021,"undersÃ¶k":7022,"erier":7023,"Ġinkl":7024,"ĠfÃ¶rtjÃ¤n":7025,"byggnads":7026,"Ġbero":7027,"ĠHerrar":7028,"ĠdÃ¶d":7029,"Ġ1964":7030,"Ġmobil":7031,"ĠfÃ¶rbund":7032,"Ġstyra":7033,"Ġangivit":7034,"Ġprem":7035,"ĠHÃ¤rmed":7036,"ĠuppstÃ¥tt":7037,"prop":7038,"garanti":7039,"Ġ93":7040,"ĠutmÃ¤rkt":7041,"Ã¶ra":7042,"Ġreservationsanslag":7043,"ĠBil":7044,"ningsrÃ¤tt":7045,"Ġkollektivt":7046,"qu":7047,"handlingar":7048,"ĠhjÃ¤r":7049,"Ġgenerella":7050,"Ġdubbel":7051,"hamn":7052,"Ġkalk":7053,"ĠÃħker":7054,"go":7055,"Ġmedger":7056,"Ġbelast":7057,"Ġkart":7058,"Ġflyktingar":7059,"Ġrefer":7060,"fond":7061,"reglerna":7062,"Ġrapporter":7063,"ĠSta":7064,"ĠinfÃ¶ras":7065,"Ġbetydelsen":7066,"positioner":7067,"Ġkonsumenterna":7068,"Ġfoster":7069,"Ġskattebetal":7070,"Ġ1958":7071,"ĠFÃ¶rslag":7072,"Ġkult":7073,"ressen":7074,"lÃ¶sa":7075,"evill":7076,"SK":7077,"drings":7078,"ĠnÃ¶ja":7079,"Ġdiskuteras":7080,"produ":7081,"ĠStrÃ¶m":7082,"ĠÃ¶vervÃ¤g":7083,"anson":7084,"dire":7085,"Ġskif":7086,"Ġslutsatsen":7087,"ĠbestÃ¥":7088,"Ġarbetsk":7089,"oret":7090,"ĠtillgÃ¤ngliga":7091,"ow":7092,"skiftet":7093,"Ġkontakter":7094,"Ġbefunnos":7095,"Ġeger":7096,"ĠbedÃ¶mningen":7097,"ĠansÃ¶kan":7098,"tis":7099,"ĠhÃ¶jas":7100,"ĠmÃ¥len":7101,"mÃ¶jligheter":7102,"ĠsjÃ¤lvklar":7103,"IT":7104,"Ġsakkunnig":7105,"Ġmiljard":7106,"ĠstÃ¤lldes":7107,"Ġavveckling":7108,"23":7109,"Ġaktualis":7110,"Ġskattel":7111,"ĠArbetsmarknads":7112,"ĠAR":7113,"Ġensi":7114,"Ġdjupt":7115,"ĠÃ¶verskott":7116,"ionens":7117,"Ġsexu":7118,"ĠvÃ¤rna":7119,"Ġbos":7120,"resultat":7121,"personal":7122,"Ġutvidgning":7123,"Ġelem":7124,"Ġbrev":7125,"ĠnedsÃ¤ttning":7126,"ĠsÃ¤nkt":7127,"dningar":7128,"ĠFram":7129,"ĠarbetsmiljÃ¶":7130,"tivet":7131,"anc":7132,"ĠuppfÃ¶r":7133,"Ġproc":7134,"ĠGre":7135,"strument":7136,"invester":7137,"Ġpedagog":7138,"ĠfÃ¶rsÃ¶kte":7139,"dex":7140,"ĠGran":7141,"Ġgenast":7142,"undervisningen":7143,"Ġpa":7144,"Ġfarligt":7145,"Ġperio":7146,"smateri":7147,"pplÃ¥":7148,"ĠProblem":7149,"Ġundvik":7150,"Ġansetts":7151,"Ġvo":7152,"Ġtrygga":7153,"ĠskÃ¤len":7154,"to":7155,"Ġstuderande":7156,"landet":7157,"Ġsamordning":7158,"Ġoffici":7159,"Ġsuppleant":7160,"Ġinslag":7161,"ĠstÃ¶der":7162,"Ġmuse":7163,"ĠFR":7164,"Ġverksamheter":7165,"gnos":7166,"ĠbÃ¥t":7167,"falla":7168,"Ġdiskuterat":7169,"ĠThor":7170,"Ġtales":7171,"gitta":7172,"skapen":7173,"Ġprom":7174,"stÃ¶r":7175,"ĠbekrÃ¤ft":7176,"Ġmusik":7177,"ĠBO":7178,"Ġbarnet":7179,"ĠinvÃ¥nare":7180,"ĠtillmÃ¶tes":7181,"Ġgrunds":7182,"ĠÃ¤fvens":7183,"ĠlÃ¤genhet":7184,"ĠhushÃ¥llningssÃ¤ll":7185,"vakning":7186,"Ġmp":7187,"yrkande":7188,"Ġinstitutioner":7189,"ĠfÃ¶rstÃ¤rkning":7190,"Ġfunktions":7191,"ellre":7192,"skatter":7193,"Ġ1952":7194,"Ġutnyttjas":7195,"ĠIsrael":7196,"Ġbidraga":7197,"ĠBÃ¶rje":7198,"ĠWik":7199,"Ġverkningar":7200,"Ġfolkparti":7201,"ĠIngvar":7202,"Ġbevara":7203,"Ġminskade":7204,"Ġanalys":7205,"Ġspekul":7206,"spel":7207,"Ġintresset":7208,"handeln":7209,"ĠbistÃ¥ndet":7210,"Ġreklam":7211,"Ġfastigheter":7212,"stanser":7213,"Ġhvartill":7214,"Ġmarginal":7215,"Ġtransporter":7216,"ĠkÃ¤nns":7217,"habil":7218,"emanget":7219,"ĠanstÃ¤lla":7220,"ĠigÃ¥ng":7221,"falls":7222,"ĠTrafik":7223,"rapp":7224,"Ġeventuella":7225,"gÃ¤ldskontoret":7226,"Ġtomt":7227,"ĠfÃ¶retogs":7228,"Ġmedlen":7229,"edes":7230,"Ġmaxim":7231,"ĠNorrbottens":7232,"Ġpublic":7233,"Ġprovisor":7234,"vilja":7235,"Ġqvar":7236,"ĠvÃ¤xt":7237,"ĠlÃ¶nen":7238,"ĠvÃ¤rdefullt":7239,"ĠtillhÃ¶ra":7240,"ĠÃ¤fvensom":7241,"Ġ110":7242,"Ġpoliser":7243,"dernas":7244,"Ġgods":7245,"Ġuppdraget":7246,"struktion":7247,"Ġfritids":7248,"itÃ©":7249,"ĠtilltrÃ¤":7250,"Ġminskas":7251,"ĠNÃ¤rings":7252,"ĠfÃ¶rvaltnings":7253,"Ġsympa":7254,"Ġindustriministern":7255,"Ġrummet":7256,"ĠVisst":7257,"Ġfolkpartiets":7258,"skilj":7259,"ĠaktÃ¶rer":7260,"Ġkonsti":7261,"ĠÃ¥tskilligt":7262,"ĠÃ¥klag":7263,"Ġhemman":7264,"ĠersÃ¤tta":7265,"Ġbeting":7266,"Ġintill":7267,"ĠfÃ¶rmodligen":7268,"ĠstÃ¤lls":7269,"ĠrÃ¤ttegÃ¥ng":7270,"larna":7271,"ĠKammare":7272,"repren":7273,"elius":7274,"ĠkvÃ¤ll":7275,"Ġskolans":7276,"Ġbankoutskottet":7277,"ĠLule":7278,"ĠbegrÃ¤nsad":7279,"ĠfÃ¶rber":7280,"ĠNorden":7281,"Ġstycken":7282,"Ġprincipiellt":7283,"ĠÃ¶fvertygad":7284,"anke":7285,"Ġfrig":7286,"Ġriksdagsordningen":7287,"Ġdyrtids":7288,"Ġeffektiva":7289,"Ġfaktorer":7290,"ĠKa":7291,"uta":7292,"Ġfys":7293,"flÃ¶":7294,"Ġegentliga":7295,"inne":7296,"ĠolÃ¤genhet":7297,"Ġvidtagas":7298,"ugusti":7299,"Ġstatsverket":7300,"sum":7301,"gÃ¥rden":7302,"Ġriksdagsbeslut":7303,"ĠMig":7304,"ĠfÃ¶renade":7305,"ĠfÃ¶ga":7306,"JÃĸR":7307,"ĠupphÃ¶ra":7308,"Ġerbjuda":7309,"Ġbarns":7310,"Ġdesamma":7311,"ĠbehÃ¶vas":7312,"ĠspannmÃ¥l":7313,"slÃ¶st":7314,"Ġ92":7315,"Ġnoterar":7316,"Ġbeklaga":7317,"ĠSovjet":7318,"ĠbegÃ¤rdes":7319,"ĠfÃ¶ras":7320,"Ġbarna":7321,"ĠfÃ¶rekom":7322,"Ġriksdagsledam":7323,"Ġremitt":7324,"ĠbyrÃ¥kra":7325,"ĠotillrÃ¤ck":7326,"fÃ¶rbÃ¤tt":7327,"Ġutomlands":7328,"Ã¶mer":7329,"Ġstorle":7330,"ĠsÃ¤lj":7331,"ĠUL":7332,"Ġ94":7333,"Ġmedverkan":7334,"ile":7335,"ĠhÃ¤nvisade":7336,"grÃ¤nsen":7337,"Ġsprid":7338,"Ġreak":7339,"ENN":7340,"prÃ¶vning":7341,"Ġbotten":7342,"Ġcitera":7343,"Ġresor":7344,"ĠOck":7345,"iker":7346,"Ġhandeln":7347,"grad":7348,"Ġsocialdemokratisk":7349,"ĠutlÃ¤n":7350,"omas":7351,"titet":7352,"Ġhvars":7353,"Ġkontrakt":7354,"ĠuppgÃ¥":7355,"ĠfÃ¶rmÃ¶genhets":7356,"Ġpart":7357,"hag":7358,"Ġvarande":7359,"rater":7360,"system":7361,"Ġkrisen":7362,"ĠEd":7363,"Ġ107":7364,"ĠstÃ¤mmer":7365,"Ġbeviljas":7366,"Ġhellre":7367,"Ġegendomligt":7368,"ĠhÃ¤nger":7369,"ĠdÃ¤rvidlag":7370,"Ġbring":7371,"bildningen":7372,"Ġkraftiga":7373,"ĠCARL":7374,"DA":7375,"Ġuppskjut":7376,"Ġtrupp":7377,"ĠfÃ¶rebyggande":7378,"Ġtacksam":7379,"Ġskuld":7380,"Ġchans":7381,"Ġhamn":7382,"ĠaffÃ¤rs":7383,"ĠpÃ¥pekade":7384,"kommun":7385,"Ġsla":7386,"Ġvist":7387,"alitet":7388,"ĠupprÃ¶r":7389,"Ġnaturliga":7390,"iserade":7391,"ĠGen":7392,"ĠskolÃ¶ver":7393,"Ġstrategi":7394,"Ġfas":7395,"Ġ1955":7396,"Ġstrider":7397,"Ġstry":7398,"sbÃ¤nken":7399,"Ġbeklagligt":7400,"undervisning":7401,"Ġ1957":7402,"ĠFran":7403,"ĠvÃ¤st":7404,"Ġremissin":7405,"sÃ¤tts":7406,"Ġstadgande":7407,"Ġhvarom":7408,"ĠfarhÃ¥g":7409,"orterna":7410,"rot":7411,"Ġundervisnings":7412,"ĠbestÃ¤mmer":7413,"Ġlevnads":7414,"iat":7415,"Ġprester":7416,"Ġuttag":7417,"ĠhÃ¶jd":7418,"ituation":7419,"ĠJÃ¤m":7420,"Ġbolagen":7421,"ĠmissnÃ¶j":7422,"ĠSka":7423,"ĠUtan":7424,"Ġljus":7425,"Ġrubb":7426,"ĠanmÃ¤lde":7427,"ĠfÃ¶rsvÃ¥ra":7428,"ĠHe":7429,"Ġbesluten":7430,"ĠParti":7431,"Ġsiffra":7432,"ĠNaturligtvis":7433,"Ġext":7434,"Ġ99":7435,"skrav":7436,"ĠÃ¥ker":7437,"ode":7438,"ĠstÃ¤mpel":7439,"ĠfastÃ¤n":7440,"ĠspÃ¥r":7441,"usk":7442,"ĠHammar":7443,"skommun":7444,"yst":7445,"Ġlydande":7446,"ĠtÃ¤nkas":7447,"vida":7448,"ktyg":7449,"ĠfÃ¶rvÃ¥nad":7450,"Ġingripa":7451,"stian":7452,"Ġbristen":7453,"ĠfÃ¶rnu":7454,"somrÃ¥den":7455,"spolis":7456,"ĠframgÃ¥ngs":7457,"ĠupphÃ¤v":7458,"stam":7459,"Ġfiske":7460,"underna":7461,"Ġurs":7462,"ĠverkstÃ¤lla":7463,"Ġintresserad":7464,"Ġkatastrof":7465,"bidraget":7466,"Ġrespek":7467,"ĠMargar":7468,"Ġrepresenterar":7469,"ĠomdÃ¶me":7470,"sborg":7471,"Ġstadg":7472,"ĠvÃ¥ga":7473,"ĠHj":7474,"fÃ¶re":7475,"ligheterna":7476,"ĠUtskotts":7477,"Ġofant":7478,"ĠtillsÃ¤tta":7479,"ĠmÃ¶r":7480,"ĠfÃ¶rsÃ¤krings":7481,"delen":7482,"fartyg":7483,"ĠanmÃ¤lan":7484,"rister":7485,"bjud":7486,"OF":7487,"ĠKonstitutions":7488,"Ġorganisationerna":7489,"fÃ¶rhÃ¥llanden":7490,"ĠsjÃ¤lvt":7491,"ĠfÃ¶rvÃ¤rv":7492,"Ġskapat":7493,"ĠframstÃ¤llt":7494,"tiken":7495,"ĠBland":7496,"Ġ2016":7497,"CK":7498,"ĠUme":7499,"exi":7500,"Ġtolka":7501,"ĠangelÃ¤genhet":7502,"ehr":7503,"Ġbilden":7504,"Ġrehabil":7505,"Ġhunnit":7506,"ĠJustitie":7507,"ĠtillfÃ¤lligt":7508,"lings":7509,"Ġneutralitet":7510,"Ġ98":7511,"export":7512,"Ġteoret":7513,"Ġgiltighet":7514,"ĠSK":7515,"ĠSamman":7516,"Ġutaf":7517,"Ġflere":7518,"ĠOcksÃ¥":7519,"flyg":7520,"fÃ¶reningen":7521,"Ġsch":7522,"Ġtalarstolen":7523,"Ġuttrycket":7524,"Ġarbetslivet":7525,"Ġuppoff":7526,"Ġvind":7527,"Ġtusen":7528,"ach":7529,"staur":7530,"understÃ¶d":7531,"Ġstoppa":7532,"Ġpropag":7533,"Ġrimliga":7534,"Ġarbetstid":7535,"ĠhÃ¶gskolan":7536,"alet":7537,"glund":7538,"ĠundgÃ¥":7539,"Ġuppsattes":7540,"ĠfÃ¶rstÃ¥tt":7541,"ĠUtbildnings":7542,"ocka":7543,"sÃ¤ttande":7544,"ĠfristÃ¥ende":7545,"ĠRiksrevis":7546,"ĠanvÃ¤nd":7547,"ĠbestÃ¥ende":7548,"jord":7549,"Ġfunktion":7550,"Ġtalet":7551,"styrkt":7552,"Ġfreds":7553,"Ġtobaks":7554,"ĠmedfÃ¶rt":7555,"Ġdyrare":7556,"pplÃ¥der":7557,"ĠprimÃ¤r":7558,"sbestÃ¤mm":7559,"eve":7560,"Ġavl":7561,"ĠledamÃ¶terna":7562,"brukare":7563,"majoritetens":7564,"Ġmycken":7565,"ĠKultur":7566,"ekan":7567,"Ġsinne":7568,"ĠsvÃ¥righeterna":7569,"ĠEva":7570,"sprincipen":7571,"Erik":7572,"Ġsoldat":7573,"ĠvÃ¤nder":7574,"Ã¤rt":7575,"ĠfÃ¶rstÃ¥s":7576,"Ġskriftliga":7577,"Ġbesparing":7578,"Ġlikas":7579,"arbetslÃ¶s":7580,"ublik":7581,"ĠbegrÃ¤nsade":7582,"ĠhjÃ¤lper":7583,"Ġkampen":7584,"ĠfÃ¶rnyad":7585,"Ġuppfattningar":7586,"ĠberÃ¤ttigad":7587,"ĠtjÃ¤nsteman":7588,"ES":7589,"ĠbestÃ¤mmande":7590,"utt":7591,"Ġsekret":7592,"hÃ¤llet":7593,"ĠutvÃ¤rdering":7594,"Ġlagutskott":7595,"ĠOL":7596,"spar":7597,"vtal":7598,"ĠÃ¤ldreomsorg":7599,"Ġmedvetna":7600,"beskattningen":7601,"medlen":7602,"Ġlandstings":7603,"Ġbelys":7604,"iskor":7605,"ĠrÃ¤ttvist":7606,"Ġveter":7607,"strand":7608,"urk":7609,"Ġregioner":7610,"stids":7611,"ĠmÃ¤":7612,"Ġ1945":7613,"Ġstre":7614,"ologi":7615,"Ġ1961":7616,"Ġ2014":7617,"ĠÃ¤ndamÃ¥lsen":7618,"ĠnÃ¶dgas":7619,"Ġ105":7620,"Ġy":7621,"ĠGÃ¶teborgs":7622,"ĠtrÃ¤ffa":7623,"Ġarbetsmarknadsministern":7624,"Ġoftast":7625,"lÃ¤gger":7626,"Ġfinansiera":7627,"Ġvuxna":7628,"ĠplÃ¶ts":7629,"ĠForts":7630,"Ġredovisat":7631,"ĠlikvÃ¤r":7632,"Det":7633,"Ġdelega":7634,"spri":7635,"26":7636,"ĠLuleÃ¥":7637,"sÃ¶kande":7638,"Ġaugusti":7639,"Ġdefinitivt":7640,"djur":7641,"Ġintressanta":7642,"reser":7643,"ĠWester":7644,"produktionen":7645,"Ġregeringsformen":7646,"daf":7647,"ĠRune":7648,"Ġkonfer":7649,"ĠFÃ¶rslaget":7650,"utinnan":7651,"Ġdebatter":7652,"Ġbilar":7653,"Ġbedriver":7654,"ĠhÃ¤ndelser":7655,"Ġavvik":7656,"Ġkoncentr":7657,"Ġotro":7658,"ynt":7659,"fvan":7660,"mÃ¤stare":7661,"ĠstatstjÃ¤n":7662,"ĠlÃ¶nerna":7663,"ĠHela":7664,"ckande":7665,"ĠBirgitta":7666,"Ġuttalar":7667,"Ġnormal":7668,"Ġinteck":7669,"systemet":7670,"Ġkompensation":7671,"Ġtyper":7672,"ĠEkman":7673,"ĠvÃ¤rt":7674,"ĠaflÃ¶ning":7675,"Ġ97":7676,"ĠÃ¥terstÃ¥ende":7677,"ĠlÃ¶sningen":7678,"insatser":7679,"ĠvidhÃ¥ller":7680,"Ġslutsatser":7681,"bbl":7682,"ENS":7683,"Ġmotiverat":7684,"Ġ1954":7685,"Ġintegra":7686,"Ġhuvudsakligen":7687,"jon":7688,"ĠlÃ¤ste":7689,"ĠfÃ¶rhoppningen":7690,"institut":7691,"Ġ1939":7692,"Ġfrakt":7693,"Ġkommersi":7694,"Ġ800":7695,"Ġfunder":7696,"Ġ1940":7697,"ApplÃ¥der":7698,"kam":7699,"ĠRO":7700,"Ġriksstaten":7701,"Ġgarantera":7702,"Ġkompromiss":7703,"ĠlÃ¶st":7704,"Ġbehofvet":7705,"aten":7706,"ĠÃ¥beropade":7707,"Ã¥riga":7708,"Ġrevisorer":7709,"Ġkulture":7710,"ident":7711,"Ġhindrar":7712,"Ġgavs":7713,"dags":7714,"ĠframtrÃ¤":7715,"ĠRegering":7716,"35":7717,"allt":7718,"ĠfÃ¶retagens":7719,"ĠsmÃ¶r":7720,"Ġtrott":7721,"Ġavvakta":7722,"ĠHÃ¥":7723,"Ġledande":7724,"ĠkÃ¤rnkraften":7725,"Ġefterly":7726,"ĠnÃ¥tt":7727,"ĠlÃ¤rer":7728,"Ġkd":7729,"ĠuppfÃ¶rande":7730,"Ġ2006":7731,"Ġinterpellationss":7732,"ĠfolkhÃ¶g":7733,"Ġtunga":7734,"Ġiden":7735,"ĠkÃ¤rnvapen":7736,"ĠVatten":7737,"Ġmyndigheten":7738,"INA":7739,"ĠReservation":7740,"ĠbÃ¶n":7741,"ĠfÃ¶rsÃ¶rjning":7742,"ĠHÃ¤refter":7743,"Ġdomin":7744,"Ġfinansminister":7745,"stin":7746,"Ġ1959":7747,"Ġlef":7748,"IKA":7749,"Ġrepar":7750,"Ġanordning":7751,"orium":7752,"Ġkass":7753,"Ġtydligare":7754,"ĠhÃ¥rd":7755,"mÃ¤t":7756,"Ġnormala":7757,"ĠbegÃ¥":7758,"ĠbrÃ¤nsle":7759,"Ġavgift":7760,"Ġhyresg":7761,"ĠAd":7762,"ĠjemfÃ¶r":7763,"ĠtjÃ¤na":7764,"ĠfÃ¶rbe":7765,"Ġskattet":7766,"Ġunionen":7767,"spen":7768,"ĠvÃ¤garna":7769,"ĠNÃ¥gra":7770,"ĠpensionÃ¤rer":7771,"ĠPER":7772,"ĠUmeÃ¥":7773,"Ġstaterna":7774,"ĠfÃ¶rena":7775,"Ġverktyg":7776,"ĠÃ¤gare":7777,"Ġnykterhets":7778,"77":7779,"Ã¶vd":7780,"Ġ91":7781,"Ġnorska":7782,"befolk":7783,"Ġkvinna":7784,"Ġfelaktig":7785,"ĠhandlÃ¤ggning":7786,"Ġrena":7787,"ĠTH":7788,"ĠBertil":7789,"rÃ¥ket":7790,"ĠhÃ¤raf":7791,"Ġordnande":7792,"Ġfelaktigt":7793,"stillstÃ¥nd":7794,"Ġordentligt":7795,"Ġhumanit":7796,"ĠSI":7797,"Ġ125":7798,"ĠsÃ¤ges":7799,"ERS":7800,"Ġning":7801,"ĠnÃ¥diga":7802,"Ġanty":7803,"ĠSÃ¥vitt":7804,"ĠEuropeiska":7805,"smÃ¤ss":7806,"Ġberedskaps":7807,"Ġbidragit":7808,"Ã¶cker":7809,"Ġriktningen":7810,"ĠERIK":7811,"ĠfÃ¶rÃ¤ndras":7812,"ĠbestÃ¤mmelsen":7813,"gjord":7814,"ĠFÃ¶renta":7815,"ĠÃ¥sikter":7816,"ĠrÃ¤ttigheterna":7817,"ĠNÃ¥got":7818,"ĠrÃ¤cka":7819,"utredning":7820,"Ġsedel":7821,"fves":7822,"mÃ¤ssigt":7823,"ĠomfÃ¶rmÃ¤l":7824,"Ġ1949":7825,"ĠLena":7826,"Ġvalfrihet":7827,"ĠutÃ¶va":7828,"Ġslop":7829,"skande":7830,"zon":7831,"ĠsÃ¤nk":7832,"Ġtyder":7833,"Ġbefall":7834,"Ġuppfyll":7835,"ĠEricsson":7836,"ĠfÃ¶rank":7837,"ĠrÃ¤ntan":7838,"ĠMats":7839,"ĠmÃ¶jliggÃ¶ra":7840,"ĠÃĸv":7841,"Ġpekat":7842,"Ġmod":7843,"ĠefterstrÃ¤":7844,"ĠSp":7845,"utÃ¶ver":7846,"Ġ140":7847,"Ã¤kring":7848,"Ġtelegraf":7849,"ĠmotsÃ¤tt":7850,"stÃ¤llt":7851,"Ġmoderat":7852,"Ġtju":7853,"ĠAhl":7854,"borgs":7855,"ĠAnderson":7856,"ps":7857,"Ġvillkoren":7858,"nitt":7859,"ĠpÃ¥sk":7860,"Ġmotivera":7861,"asson":7862,"stÃ¤llas":7863,"Ġavsedda":7864,"Ġtolkning":7865,"ĠavlÃ¶nings":7866,"Ġhenne":7867,"sbel":7868,"atik":7869,"ĠEL":7870,"Ġlagstiftnings":7871,"Ġledighet":7872,"Ġkorthet":7873,"Ã¥rig":7874,"Ġinneburit":7875,"Ġuttryckt":7876,"ĠjemvÃ¤l":7877,"ont":7878,"Ġbefattning":7879,"Ġslippa":7880,"ĠfullgÃ¶ra":7881,"stads":7882,"Ġbju":7883,"ĠutskottsutlÃ¥tandet":7884,"dio":7885,"fel":7886,"ssssssss":7887,"Ġdeltagit":7888,"vÃ¤sendets":7889,"kommende":7890,"/,":7891,"drycker":7892,"ĠlÃ¤ggs":7893,"Ġstarta":7894,"skick":7895,"ĠnÃ¤mnden":7896,"Ġgarantier":7897,"ĠlÃ¤gsta":7898,"Ġrus":7899,"ĠfÃ¶rsum":7900,"29":7901,"bra":7902,"sindustri":7903,"Ġenskilt":7904,"Ġkonkurrenskraft":7905,"Ġ1953":7906,"Ġaktiva":7907,"Ġtecken":7908,"Ġreflex":7909,"ĠlÃ¶nereglering":7910,"ĠprÃ¶fning":7911,"Ġrym":7912,"Ġsocialdemokratin":7913,"Ġ103":7914,"Ġolyckligt":7915,"jÃ¤nsten":7916,"ventionen":7917,"Ġ2017":7918,"ĠinskrÃ¤nkning":7919,"represent":7920,"ĠRiksbanken":7921,"fabrik":7922,"Ġbeto":7923,"ĠvÃ¤cka":7924,"ĠBorÃ¥s":7925,"ĠPehr":7926,"Ġgill":7927,"klare":7928,"Ġnack":7929,"ullen":7930,"Ġtidpunkten":7931,"Ġofficer":7932,"Ġhysa":7933,"ĠsÃ¶nder":7934,"ĠfÃ¶rebygga":7935,"Ã¤garen":7936,"Ġmoderna":7937,"ĠbedÃ¶mer":7938,"ĠkÃ¶tt":7939,"Ġrigt":7940,"Ġhandikappade":7941,"urs":7942,"Ġafse":7943,"sklass":7944,"litt":7945,"ĠvÃ¤rden":7946,"Ġbrottslighet":7947,"likhet":7948,"lationen":7949,"Ġtyska":7950,"ĠPre":7951,"Ã¶tta":7952,"ĠKron":7953,"Ġvidtagit":7954,"Ġentrepren":7955,"Ġ..":7956,"Ġhvaraf":7957,"oten":7958,"undets":7959,"Ġyrkandena":7960,"''":7961,"Ġkast":7962,"ĠSkÃ¤l":7963,"ĠfÃ¶rfattning":7964,"projekt":7965,"Ġsvarade":7966,"ĠnedskÃ¤r":7967,"Ġhov":7968,"Ġlokalis":7969,"avgiften":7970,"ĠmÃ¶tt":7971,"Ġtvifvel":7972,"Ġisol":7973,"statens":7974,"Ġslutar":7975,"ĠtillfÃ¤llig":7976,"ningshafvande":7977,"Ġsvenskar":7978,"Ġsubventioner":7979,"ĠomrÃ¶stningsproposition":7980,"Ġvalkrets":7981,"Ġmedge":7982,"Ġcy":7983,"ĠfÃ¶rrÃ¤tt":7984,"lÃ¶st":7985,"avtal":7986,"ĠdÃ¤rifrÃ¥n":7987,"Ġmine":7988,"iddagen":7989,"ĠVer":7990,"Ġ106":7991,"ĠupplÃ¥":7992,"Ġlevande":7993,"ĠMa":7994,"Ġbetraktar":7995,"ĠArbetsfÃ¶rmed":7996,"Ġhufvudtit":7997,"ĠinrÃ¤tta":7998,"Ġenklare":7999,"igter":8000,"Ġantagas":8001,"domen":8002,"Ġgruv":8003,"Ġbudgetpropositionen":8004,"gel":8005,"Ġbehag":8006,"Ġfrik":8007,"nek":8008,"ĠÃħter":8009,"RIST":8010,"milj":8011,"ĠAT":8012,"tligen":8013,"Ġ101":8014,"juter":8015,"alken":8016,"Ġprov":8017,"fly":8018,"ĠSte":8019,"ĠHedlund":8020,"Ġkonsul":8021,"aktighet":8022,"Ġtyst":8023,"Ġ1991":8024,"Ġvidtas":8025,"ĠDaniel":8026,"ribu":8027,"ĠTi":8028,"ĠSD":8029,"ĠHell":8030,"Ġkvaliteten":8031,"Ġtredjedel":8032,"passa":8033,"Ġsnabba":8034,"ĠÃ¤ndock":8035,"ĠBevill":8036,"Ġras":8037,"fÃ¶rklar":8038,"ĠfÃ¶rbis":8039,"Ġbyggt":8040,"skommissionen":8041,"hÃ¤lle":8042,"Ġlivs":8043,"ĠBengtsson":8044,"Ġmandatperioden":8045,"ĠJansson":8046,"ĠavlÃ¤mnade":8047,"ĠfÃ¶d":8048,"Ġmedgiva":8049,"ĠfÃ¶relÃ¤g":8050,"anterna":8051,"sliv":8052,"ogram":8053,"Ġvisste":8054,"Ġolycksfall":8055,"ĠmÃ¥st":8056,"Ġgerna":8057,"Ġsituationer":8058,"ĠvÃ¤rderingar":8059,"Ġmitten":8060,"ĠafgÃ¶rande":8061,"ĠgÃ¤l":8062,"Ã¤mpar":8063,"Ġallting":8064,"ela":8065,"ĠNat":8066,"Ġriksbankens":8067,"ĠrÃ¤knas":8068,"Ġfrivillig":8069,"Ġbordet":8070,"Ġeffektivitet":8071,"Ġordent":8072,"Ġlegat":8073,"ĠskattesÃ¤nkningar":8074,"Ġfordra":8075,"Ġbeslutar":8076,"ĠanmÃ¤rkningsvÃ¤rt":8077,"ĠBJÃĸR":8078,"hÃ¥llandet":8079,"lof":8080,"Ġskicka":8081,"Ġ104":8082,"ĠtjÃ¤nar":8083,"60":8084,"Ġ''":8085,"Ġbefolknings":8086,"delningar":8087,"Ġinstitution":8088,"ĠVarje":8089,"farts":8090,"kare":8091,"Ġprovin":8092,"Ġvigtiga":8093,"ĠKD":8094,"Ġsocialstyrelsen":8095,"iera":8096,"vÃ¤m":8097,"ĠinnebÃ¶rd":8098,"ĠfÃ¶rbl":8099,"--------":8100,"34":8101,"ĠansÃ¥gs":8102,"ĠfÃ¶rklarats":8103,"ledning":8104,"Ġgymnasieskolan":8105,"sint":8106,"Ġinstrument":8107,"skom":8108,"ĠsÃ¤":8109,"MANN":8110,"ĠnÃ¤mner":8111,"Ġupptagna":8112,"Ġrekommende":8113,"ĠplÃ¶tsligt":8114,"Ġkristen":8115,"ĠNordiska":8116,"Ġrestaur":8117,"ĠorÃ¤ttvisa":8118,"ĠfÃ¶rsvarets":8119,"Ġfaktiska":8120,"Ġfre":8121,"Ġsanning":8122,"ĠER":8123,"yftet":8124,"ĠStrÃ¤ng":8125,"fÃ¶rordningen":8126,"Ġupprepar":8127,"ĠvÃ¤rd":8128,"ikal":8129,"smateriel":8130,"Ġprognos":8131,"oman":8132,"Ġmannen":8133,"200":8134,"\".":8135,"Ġstatsminister":8136,"Ġinhemska":8137,"Ġfulla":8138,"ĠAL":8139,"Ġtillika":8140,"Ġansvarig":8141,"reformen":8142,"Ġbanan":8143,"Ġinstitut":8144,"ĠvÃ¤lvill":8145,"ĠVÃ¥rt":8146,"fÃ¶rsvaret":8147,"Ġkropp":8148,"Ġtillkommer":8149,"ĠGÃ¶":8150,"stadgan":8151,"ĠberÃ¶rt":8152,"Ġfinansdepartementet":8153,"fÃ¶rmÃ¥n":8154,"ĠLÃĸ":8155,"Ġhvarigenom":8156,"Ġdistrikt":8157,"ĠmotionÃ¤rer":8158,".\"":8159,"ĠbestÃ¤mdt":8160,"fÃ¶rmÃ¥ga":8161,"ĠuppfÃ¶lj":8162,"Ġexpans":8163,"ĠnÃ¥gonstans":8164,"tv":8165,"Ġattit":8166,"Ġ130":8167,"Ġskador":8168,"distrikt":8169,"Ġavskaffa":8170,"Ġavvakt":8171,"ĠbegÃ¤rda":8172,"ollegium":8173,"ĠAxel":8174,"ĠKanske":8175,"ĠlÃ¤nsstyrelserna":8176,"ĠhÃ¥llning":8177,"Ġkonser":8178,"ĠGr":8179,"Ġrekommenda":8180,"Ġnedan":8181,"Ġerinrar":8182,"ĠutgÃ¥tt":8183,"Ġstycke":8184,"punkterna":8185,"Ġmedlemskap":8186,"ĠÃĸstersjÃ¶n":8187,"ĠuppgÃ¶relse":8188,"Ġbrand":8189,"anschen":8190,"Ġskjuta":8191,"strÃ¶ms":8192,"Ġtankar":8193,"ĠLed":8194,"strafiken":8195,"Ġundanr":8196,"dagens":8197,"Ġkonsumtion":8198,"ĠbenÃ¤g":8199,"ĠJac":8200,"Ġkontrollera":8201,"ĠanlÃ¤ggning":8202,"ĠVÃ¤sterbott":8203,"Ġmotions":8204,"ĠinvÃ¤ndningar":8205,"banken":8206,"Ġbankerna":8207,"ĠfÃ¶rbÃ¤ttras":8208,"Ġregelverk":8209,"Ġkvan":8210,"rarnas":8211,"Ġspan":8212,"Ġsommaren":8213,"priset":8214,"kul":8215,"ĠfÃ¶rdelningen":8216,"Ġskrivelser":8217,"ationerna":8218,"inspektionen":8219,"Ġkamrarna":8220,"bestÃ¤mmelser":8221,"Ġfallen":8222,"Ġkvinnliga":8223,"Ġdepartement":8224,"Ġmotsats":8225,"Ġsamlad":8226,"vÃ¥rdens":8227,"jupa":8228,"ĠmÃ¥ngfald":8229,"vÃ¤ckande":8230,"hÃ¤nder":8231,"Ġerfarenheten":8232,"gjorda":8233,"arbetarna":8234,"Ġcenterpartiet":8235,"imension":8236,"befÃ¤l":8237,"ssek":8238,"Ġkontrollen":8239,"artade":8240,"Ġjobben":8241,"Ġtillhanda":8242,"ĠkrÃ¤v":8243,"ĠnÃ¥gor":8244,"ĠomsÃ¤ttnings":8245,"Ġansvariga":8246,"Ġ102":8247,"ĠunderlÃ¤tt":8248,"ĠvÃ¥ll":8249,"Ġark":8250,"ĠÃ¶verty":8251,"ĠarbetsfÃ¶rmed":8252,"teringar":8253,"CH":8254,"ĠfÃ¶rmed":8255,"Ġtunn":8256,"Ġorsaker":8257,"ĠidÃ©er":8258,"ĠfÃ¶rmÃ¥":8259,"ert":8260,"ĠGUSTA":8261,"Ġfokus":8262,"Ġ114":8263,"Ġvaluta":8264,"Ġvinner":8265,"ĠSamma":8266,"Ġinkommit":8267,"pning":8268,"skrÃ¤ck":8269,"Ġvir":8270,"ĠfullfÃ¶lja":8271,"ĠsamrÃ¥d":8272,"Ġborgerlig":8273,"ĠfÃ¶rÃ¤ndringen":8274,"Ġdirektiven":8275,"ĠmÃ¶tes":8276,"Ġkontinu":8277,"ĠProblemet":8278,"Ġpassar":8279,"IE":8280,"Ġyrke":8281,"ĠmotstÃ¥ndare":8282,"ĠDu":8283,"Ġagerande":8284,"ĠBevillnings":8285,"lev":8286,"Ġ109":8287,"Ġvarom":8288,"ĠÃ¶fverlÃ¤ggningen":8289,"skrifter":8290,"ĠfrÃ¤mjande":8291,"Ġregionalpolitiska":8292,"Ġdispens":8293,"ĠorÃ¤ttvis":8294,"ĠKU":8295,"ĠhÃ¶gskolor":8296,"Ġadministrativa":8297,"Ġextrem":8298,"Ġflexi":8299,"Ġamerikanska":8300,"ĠRÃ¤tt":8301,"Ġmedborgar":8302,"Ġsidor":8303,"sindustrin":8304,"Ġdiskriminering":8305,"Ġsmula":8306,"ius":8307,"Ã¤f":8308,"Ã¥ende":8309,"ĠfÃ¶rutom":8310,"rarne":8311,"Ġformulering":8312,"Ġ1992":8313,"ĠLindman":8314,"pris":8315,"avgift":8316,"Ġeffektivare":8317,"GT":8318,"amm":8319,"ĠhÃ¶stas":8320,"ĠMargareta":8321,"ĠvÃ¤lkom":8322,"ĠÃ¶fverensstÃ¤mmelse":8323,"unde":8324,"Ã¶den":8325,"Ġpersonligen":8326,"ĠsammantrÃ¤dde":8327,"quist":8328,"ĠJacob":8329,"ĠnÃ¥gorlunda":8330,"ĠfÃ¶rvaltningen":8331,"ĠfÃ¶rtid":8332,"ĠarmÃ©n":8333,"Ġbekostnad":8334,"Ġoptim":8335,"berÃ¤ttig":8336,"Ġobliga":8337,"ĠSyd":8338,"Ġkonflikter":8339,"Ġ108":8340,"pend":8341,"skass":8342,"ĠMP":8343,"ĠanvÃ¤ndningen":8344,"ĠstrÃ¤van":8345,"ĠUlla":8346,"ĠMaria":8347,"ĠmÃ¥lsÃ¤ttning":8348,"45":8349,"ĠBÃ¤ck":8350,"ĠanlÃ¤ggningar":8351,"Ġbarnens":8352,"Ġinverkan":8353,"teckning":8354,"Ġdemon":8355,"ĠMÃ¥":8356,"Ġsutt":8357,"Ġkvinnors":8358,"risten":8359,"ĠverksamhetsomrÃ¥de":8360,"alest":8361,"Ġlita":8362,"ĠÃ¶nskat":8363,"Ġarbetsplats":8364,"Ġnotera":8365,"ĠÃ¶vergripande":8366,"ĠhÃ¶gskole":8367,"Ġberedas":8368,"Ġsiffran":8369,"Ġteknisk":8370,"Ġregeringar":8371,"ĠUtlÃ¥t":8372,"skÃ¥":8373,"ament":8374,"Ġelev":8375,"Ġansvars":8376,"fÃ¶rbud":8377,"ĠFrÃ¥nvarande":8378,"Ġlegiti":8379,"ĠBohman":8380,"Ġyr":8381,"ĠinhÃ¤m":8382,"sprÃ¶v":8383,"ĠordfÃ¶randen":8384,"Ġ113":8385,"skonfer":8386,"ĠPartivis":8387,"ĠfÃ¶rhÃ¶jning":8388,"Ġklok":8389,"Ġkronans":8390,"Ġafgifna":8391,"Ġru":8392,"Ġkrona":8393,"Ã¶nster":8394,"ĠAlf":8395,"ĠHerman":8396,"ĠHAN":8397,"Ġ180":8398,"VA":8399,"direktiv":8400,"kammar":8401,"ĠfÃ¶rhoppningar":8402,"nadt":8403,"Ġ1994":8404,"EI":8405,"emed":8406,"ĠfÃ¶rekommande":8407,"Ġvinster":8408,"vaka":8409,"Ġutskottsmajoritetens":8410,"ĠdrÃ¶jsmÃ¥l":8411,"Ġavsnitt":8412,"Ġregleringen":8413,"Ġbeakta":8414,"Ġgrundlags":8415,"ĠNOR":8416,"ĠÃ¥rens":8417,"bit":8418,"ĠTurk":8419,"varo":8420,"Ġ700":8421,"ĠInnan":8422,"bÃ¥":8423,"ĠÃ¥lig":8424,"Ġmedelstora":8425,"Ġomfattas":8426,"Ġvack":8427,"Ġinterpellanten":8428,"ĠfÃ¶rete":8429,"ĠRad":8430,"ĠfÃ¶rre":8431,"skam":8432,"Ġutformas":8433,"27":8434,"Ġgre":8435,"ĠAnledningen":8436,"slagstiftningen":8437,"Ġaktuell":8438,"institutet":8439,"Ġfamiljen":8440,"sbeskatt":8441,"Ġmag":8442,"ĠVÃ¤g":8443,"jour":8444,"Ġotroligt":8445,"ĠnÃ¤ringslivets":8446,"Ġopera":8447,"Ġuppskov":8448,"tyr":8449,"Ġstill":8450,"Ġunderskott":8451,"ĠSa":8452,"Ġbedrivs":8453,"Ġriktade":8454,"Ġtalarens":8455,"Ġdragit":8456,"ĠfÃ¶rluster":8457,"ĠDagens":8458,"Ġslagit":8459,"Ġdokument":8460,"ĠÃ¶verlÃ¤ggningar":8461,"utna":8462,"Ġ115":8463,"ĠglÃ¶mma":8464,"Ġvak":8465,"beskattning":8466,"ĠbedÃ¶mningar":8467,"Ġkyrko":8468,"xid":8469,"ĠgÃ¥ngna":8470,"slagstiftning":8471,"Ġprisstegr":8472,"Ġblock":8473,"ĠsÃ¶kande":8474,"QVIST":8475,"Ġvilkas":8476,"Ġstudenter":8477,"vetenskap":8478,"Ġargumenter":8479,"ĠfÃ¶rbruk":8480,"anstalt":8481,"ĠÃ¥tal":8482,"nivÃ¥n":8483,"ĠBank":8484,"Ã¶tas":8485,"Ġdep":8486,"Ġkommunisterna":8487,"Ġink":8488,"ĠfÃ¶rbi":8489,"domstol":8490,"ĠanvÃ¤nt":8491,"Ġlastbil":8492,"iseringen":8493,"Ġeffektivis":8494,"ĠgÃ¶res":8495,"ins":8496,"delega":8497,"Ġdug":8498,"tagna":8499,"ĠutgÃ¥ngspunkter":8500,"avtalet":8501,"ĠmÃ¥naden":8502,"ĠLUND":8503,"kraften":8504,"Ġuppgifterna":8505,"ĠhÃ¥llit":8506,"ĠSÃ¥ledes":8507,"ĠlÃ¥gt":8508,"ĠskrÃ¤m":8509,"Ġrika":8510,"sbo":8511,"Ġkorrekt":8512,"Ġ-âĢĶ":8513,"ĠÃ¥terfin":8514,"sland":8515,"Ġsolidaritet":8516,"Ġvalde":8517,"ĠpÃ¥bÃ¶rj":8518,"Ġ2021":8519,"Ġunderligt":8520,"Ġ2001":8521,"ĠÃ¥tnjutande":8522,"prÃ¥k":8523,"ĠOrdet":8524,"ĠNILSSON":8525,"ali":8526,"Ġdelarna":8527,"Ġutredningens":8528,"trafiken":8529,"demokrater":8530,"Ġfilm":8531,"ligande":8532,"ĠPa":8533,"vakt":8534,"Ġlinjer":8535,"Ġengelska":8536,"fÃ¶rbund":8537,"ĠSÃ¥dana":8538,"strid":8539,"ygger":8540,"Ġsammanlagt":8541,"Ġuttryckte":8542,"Ġfinansiella":8543,"Ġ1920":8544,"Ã¶rda":8545,"Ġsplitt":8546,"Ġanklag":8547,"fund":8548,"ura":8549,"Ġkollektivavtal":8550,"Ġnio":8551,"Ġsiffrorna":8552,"Ġupprepade":8553,"Ġguld":8554,"ĠlÃ¥na":8555,"ĠFinansministern":8556,"ĠgodkÃ¤nda":8557,"ĠfÃ¶rvÃ¤g":8558,"Ġsubvention":8559,"Ġ<":8560,"lidne":8561,"Ġlagts":8562,"Ġvarefter":8563,"Ġarv":8564,"gÃ¶ras":8565,"Ġotv":8566,"Ġ250":8567,"Ġtidnings":8568,"ĠjÃ¤rnvÃ¤gen":8569,"Ġbeviljades":8570,"Ġinsyn":8571,"ĠomÃ¶jlig":8572,"Ġideella":8573,"ĠAllmÃ¤npolitisk":8574,"Ġbefrielse":8575,"anstalter":8576,"Ġbeaktas":8577,"ĠBEN":8578,"sban":8579,"skÃ¥d":8580,"bringa":8581,"ĠlÃ¤kar":8582,"post":8583,"Ġspec":8584,"ĠfÃ¶rsvinner":8585,"ometer":8586,"Ġ2010":8587,"Ġbleve":8588,"Ġbegreppet":8589,"ĠfarhÃ¥gor":8590,"taget":8591,"EF":8592,"ĠbetÃ¤n":8593,"Ġungdomen":8594,"Ġeffekterna":8595,"ĠanhÃ¶r":8596,"Ġtopp":8597,"Ġindust":8598,"ĠSA":8599,"barn":8600,"otta":8601,"Ġintrycket":8602,"Ġunderka":8603,"vanterna":8604,"station":8605,"Ġembets":8606,"Ġkalkyl":8607,"stillÃ¤gg":8608,"ĠhÃ¥rdare":8609,"ĠSydaf":8610,"ĠÃ¤gde":8611,"ĠnÃ¥r":8612,"otal":8613,"Ġkongl":8614,"Ġprata":8615,"sperioden":8616,"Ġtryckfrihet":8617,"Ġbeskattnings":8618,"kastning":8619,"Ã¶rden":8620,"ekonom":8621,"Ġbesluts":8622,"ĠÃ¥ng":8623,"ĠinfÃ¶rt":8624,"Ġelement":8625,"93":8626,"ĠlÃ¶ser":8627,"ĠfÃ¶rstÃ¤rka":8628,"Ġbana":8629,"Ġnormalt":8630,"Ġskarp":8631,"Ġskogar":8632,"Ġprotester":8633,"100":8634,"ĠfÃ¶rbÃ¤ttrad":8635,"obil":8636,"bryt":8637,"Ġgrundskolan":8638,"Ġframkall":8639,"Ġpermanent":8640,"amer":8641,"Ġfingo":8642,"ĠPR":8643,"grunden":8644,"Ġdecenn":8645,"Ġkonstaterade":8646,"ĠPalme":8647,"Ġreserverat":8648,"ĠmotionÃ¤rens":8649,"Ġminns":8650,"Ġutdrag":8651,"sfÃ¶retag":8652,"ĠuppehÃ¥ll":8653,"Ġ117":8654,"Ġinkomsten":8655,"ĠtillgÃ¥ngen":8656,"dÃ¥":8657,"Ġ2019":8658,"ĠomnÃ¤mn":8659,"ycke":8660,"Ġformella":8661,"Ġlyssnar":8662,"ĠkvarstÃ¥r":8663,"ĠfÃ¶rsÃ¶ksverksamhet":8664,"Ġsamlingspartiet":8665,"Ġlandsh":8666,"Ġstadga":8667,"ler":8668,"Ġsakkunskap":8669,"Ġyttersta":8670,"Olof":8671,"Ġhandlade":8672,"Ġare":8673,"Ġtillkom":8674,"ĠtrovÃ¤r":8675,"ĠBENGT":8676,"ĠgenomfÃ¶rt":8677,"ĠhÃ¶rande":8678,"Ġdemokratisk":8679,"Ġinflationen":8680,"Ġkamp":8681,"Ġdrivit":8682,"beloppet":8683,"ĠtÃ¤cka":8684,"ĠBern":8685,"ĠbehÃ¶vde":8686,"Ġrev":8687,"ĠfÃ¶rse":8688,"Ġutbildningsministern":8689,"Ġkilogram":8690,"Ġ111":8691,"ĠangelÃ¤genheter":8692,"ĠhalvÃ¥r":8693,"olyck":8694,"Ġriksdagsman":8695,"ĠfÃ¶rfattnings":8696,"ĠkÃ¤nda":8697,"ĠolÃ¤mpligt":8698,"ĠRolf":8699,"Ġmi":8700,"Ġ1942":8701,"fÃ¶rhÃ¥llandena":8702,"ĠUr":8703,"Ġsuccessivt":8704,"Ġklarhet":8705,"ĠvÃ¤ntat":8706,"omÃ¥len":8707,"Ġtillvarat":8708,"Ġdispon":8709,"Ġsades":8710,"ĠBjÃ¶rk":8711,"ĠtillÃ¤ggsstat":8712,"ĠBR":8713,"ĠÃ¤mnar":8714,"tson":8715,"Ġidrotts":8716,"vÃ¤xt":8717,"Ġanpassa":8718,"Ġformen":8719,"Ġkrets":8720,"Ġutmaningar":8721,"ĠPolis":8722,"ĠgrÃ¶":8723,"Ġsedlar":8724,"ĠifrÃ¥gasÃ¤tta":8725,"ĠHjalmar":8726,"Ġmarin":8727,"verkning":8728,"penning":8729,"byggnader":8730,"ĠpÃ¥vis":8731,"Ġtillgodoses":8732,"Ġomorganisation":8733,"ĠÃ¤gnat":8734,"Ġ185":8735,"Ġbelysa":8736,"Ġjustitiedepartementet":8737,"Ġresul":8738,"ĠfullfÃ¶lj":8739,"Ġ116":8740,"material":8741,"ĠÃ¤ndrat":8742,"Ġkonkurrera":8743,"Ġknappt":8744,"Ġinkomsterna":8745,"ĠkonstnÃ¤r":8746,"Ġmedgifva":8747,"Ġ+":8748,"skatterna":8749,"skatta":8750,"Ġ1997":8751,"bla":8752,"Ġsmitt":8753,"ĠBeslut":8754,"slutning":8755,"Ġdiffer":8756,"Ġkapacitet":8757,"Ġinvandrare":8758,"ĠskolÃ¶verstyrelsen":8759,"har":8760,"Ġredogj":8761,"ĠlÃ¤mnats":8762,"Ġankn":8763,"Ġperioden":8764,"Ġbu":8765,"Ġberedande":8766,"ĠKarlskrona":8767,"ĠdÃ¤runder":8768,"Ġuttryckligen":8769,"savtal":8770,"Ġstatsfinansi":8771,"Ġutgjorde":8772,"ĠÃ¥beropande":8773,"Ġinstitutet":8774,"mÃ¤ng":8775,"ĠFÃ¥r":8776,"Ġdecentral":8777,"Ġbreda":8778,"Ġinsatserna":8779,"ind":8780,"alag":8781,"Ġoaktadt":8782,"Ġtalats":8783,"ansk":8784,"rÃ¤tter":8785,"ĠomrÃ¥dena":8786,"enum":8787,"Ġlyckligt":8788,"Ġobje":8789,"Ġ1918":8790,"ĠIcke":8791,"Ġseminari":8792,"edÃ¶m":8793,"Ġ112":8794,"ĠinnehÃ¥lla":8795,"Ġnett":8796,"Ã¤kter":8797,"ĠfÃ¶rneka":8798,"oga":8799,"Ġindirekt":8800,"ĠLundgren":8801,"Ġskiljaktiga":8802,"ĠjÃ¤mn":8803,"Ġpensioner":8804,"stÃ¤der":8805,"Ġordnas":8806,"Ġkarakter":8807,"ĠvÃ¥lds":8808,"Ġmedicinska":8809,"Ã¤lla":8810,"ĠKristian":8811,"Ġgodo":8812,"ĠmotionÃ¤rernas":8813,"ifikation":8814,"ĠÃ¶kningen":8815,"Ġ1943":8816,"Ġinno":8817,"slistan":8818,"marknad":8819,"ĠsjukfÃ¶rsÃ¤kringen":8820,"strate":8821,"ĠANDERS":8822,"Ġvidtagits":8823,"unionen":8824,"Ġdomare":8825,"ĠlÃ¤nen":8826,"eriet":8827,"atiken":8828,"Ã¥gan":8829,"Ġskilja":8830,"Ġ1944":8831,"ĠsjÃ¶farts":8832,"Ġexpropriation":8833,"Ġdagarna":8834,"ĠtillkÃ¤nnagivande":8835,"ĠsmÃ¤r":8836,"Ġkontraproposition":8837,"ĠefterfrÃ¥":8838,"ĠfÃ¶ranlett":8839,"Ġhvarken":8840,"ĠFÃ¶rsvarsmakten":8841,"lÃ¤st":8842,"ĠfÃ¶rsig":8843,"Ġvits":8844,"user":8845,"Ġupphandling":8846,"ugo":8847,"ilton":8848,"Ġdiskuterade":8849,"ORG":8850,"ĠEner":8851,"ĠHa":8852,"stÃ¤mmande":8853,"ĠutskottsbetÃ¤nkandet":8854,"ĠmÃ¤ng":8855,"ĠanstrÃ¤ngningar":8856,"prÃ¶":8857,"reform":8858,"kommissionen":8859,"Ġprocessen":8860,"ffek":8861,"ĠinfÃ¶randet":8862,"arnes":8863,"Ġtulltax":8864,"trakt":8865,"dast":8866,"Ġpersonlig":8867,"ĠRiksdags":8868,"ritt":8869,"ĠMika":8870,"Ġbetydelsefulla":8871,"Ġstigit":8872,"Ġvinnas":8873,"ĠansÃ¶kningar":8874,"Ġbefinna":8875,"Ġborta":8876,"ĠCentern":8877,"skraf":8878,"Ġkommunens":8879,"ĠArne":8880,"folk":8881,"ĠKARL":8882,"Ġnationellt":8883,"Ġangrepp":8884,"tjÃ¤nst":8885,"Ġ119":8886,"ĠÃ¤rendena":8887,"ĠursÃ¤kt":8888,"ĠTo":8889,"ĠkÃ¤nde":8890,"Ġparlamentarisk":8891,"ĠtjenstemÃ¤n":8892,"estad":8893,"ĠfÃ¶rordat":8894,"ĠÃ¶verra":8895,"ĠSjÃ¤lvfallet":8896,"ĠanvÃ¤ndes":8897,"Ġobserver":8898,"Ġfyller":8899,"Ġanda":8900,"ĠÃ¥rliga":8901,"ĠPar":8902,"ĠfaststÃ¤lla":8903,"ĠfÃ¶rvÃ¤rvs":8904,"tisti":8905,"ĠsjÃ¤lf":8906,"staden":8907,"Ġlokalt":8908,"pi":8909,"ĠUlf":8910,"Ġbuss":8911,"hal":8912,"ĠriksgÃ¤ldskontoret":8913,"ĠKn":8914,"ĠskogsvÃ¥rds":8915,"Ġrepresentation":8916,"ere":8917,"ĠprÃ¤ster":8918,"regionen":8919,"fredsstÃ¤ll":8920,"fvar":8921,"Ġobetydlig":8922,"mon":8923,"Ġdanska":8924,"Ġrehabili":8925,"Ġhufvudsakligen":8926,"Ġbetraktande":8927,"slÃ¤ge":8928,"ith":8929,"ĠrejÃ¤l":8930,"Ġkonstigt":8931,"Ġdrabba":8932,"Ġskoll":8933,"ANDER":8934,"Ġla":8935,"ĠÃ¶l":8936,"Ġsuttit":8937,"Ġ1938":8938,"Ġenskildes":8939,"ĠslÃ¤ppa":8940,"ĠfÃ¶rkort":8941,"Ġnykterhet":8942,"politiskt":8943,"Ġtapp":8944,"Ġofvan":8945,"vets":8946,"ĠMAT":8947,"Ġindustrier":8948,"ĠupptrÃ¤da":8949,"drande":8950,"Ġpassa":8951,"jÃ¤nster":8952,"ĠvÃ¤rldskrig":8953,"Ġresten":8954,"Ã¤ndamÃ¥l":8955,"Ġdrog":8956,"Ġantagit":8957,"__":8958,"rats":8959,"Ġmedicinal":8960,"ĠvÃ¥ras":8961,"Ġsparande":8962,"gare":8963,"ĠberÃ¶rde":8964,"ĠEskil":8965,"ĠfÃ¶rÃ¤ndrade":8966,"Ġimporten":8967,"ĠvalrÃ¶relsen":8968,"Ġgifvet":8969,"Ġdeklaration":8970,"Ġingripande":8971,"94":8972,"Ġutformningen":8973,"Ġdiskuterats":8974,"ĠVem":8975,"Ġarbetsuppgifter":8976,"ĠRegeringskansliet":8977,"ĠSig":8978,"leder":8979,"ĠÃ¶versti":8980,"givare":8981,"ĠframstÃ¤llde":8982,"Ġavses":8983,"ĠtÃ¤":8984,"ĠlÃ¥ngsiktig":8985,"mÃ¤ter":8986,"ĠtandlÃ¤k":8987,"mmer":8988,"Ġound":8989,"ĠÃ¶nskade":8990,"Ġframdeles":8991,"Ġodling":8992,"Ġminuter":8993,"ĠSÃ¤rskilt":8994,"Ġbehandlades":8995,"Ġinspek":8996,"nekligen":8997,"Ġhjel":8998,"Ã¶jd":8999,"ĠWest":9000,"ĠSer":9001,"ĠframstÃ¥r":9002,"CO":9003,"glas":9004,"ĠÃ¥beropa":9005,"Ġnoggrann":9006,"ĠÃ¶verdri":9007,"Ġfonden":9008,"sfÃ¶rordningen":9009,"lÃ¥n":9010,"bord":9011,"Ġ121":9012,"ĠEli":9013,"RIC":9014,"MANNEN":9015,"Ġcentralt":9016,"ĠlÃ¤roverken":9017,"anvÃ¤n":9018,"Ġcit":9019,"ĠutvÃ¤g":9020,"ortering":9021,"ĠanmÃ¤lt":9022,"ĠHamilton":9023,"ssil":9024,"Ġuppgif":9025,"dioxid":9026,"Ġvarigenom":9027,"Ġoa":9028,"ALMANNEN":9029,"verige":9030,"Ġutvecklat":9031,"Ġ118":9032,"Ġtvinga":9033,"Ġutgift":9034,"Ġmoder":9035,"ĠsjukskÃ¶ter":9036,"ĠÃ¥tervÃ¤n":9037,"ĠstÃ¤llda":9038,"ĠÃ¤ntligen":9039,"ĠBjÃ¶rck":9040,"ĠÃ¥tgÃ¤rden":9041,"ĠutgÃ¥ngspunkten":9042,"industrien":9043,"ĠbevÃ¤r":9044,"Ġunderd":9045,"Ġvatt":9046,"ĠFal":9047,"ĠFÃ¶rsÃ¤kring":9048,"Ġfolkskol":9049,"Ġantog":9050,"Ġobligatorisk":9051,"Ġlager":9052,"ĠtvÃ¥ngs":9053,"Ġkritiken":9054,"Ġbedrivas":9055,"Ġpropositionens":9056,"ĠDÃ¤rtill":9057,"Ġfossil":9058,"Ġdubbelt":9059,"effe":9060,"ĠskÃ¤rpa":9061,"kur":9062,"Ġsocialdemokratiskt":9063,"ĠkÃ¶per":9064,"ĠfÃ¶rberedande":9065,"Ġbanken":9066,"ĠstÃ¤ng":9067,"ĠAndre":9068,"ccin":9069,"ĠdyrtidstillÃ¤gg":9070,"ĠallmÃ¤nn":9071,"Ġdikt":9072,"graden":9073,"ĠosÃ¤kerhet":9074,"ĠMÃ¶j":9075,"ĠbemÃ¶ta":9076,"sedlar":9077,"jobb":9078,"Ġ135":9079,"skal":9080,"ĠArbetsfÃ¶rmedlingen":9081,"ĠTALMANNEN":9082,"ĠvÃ¥":9083,"kÃ¤nnas":9084,"ĠfÃ¶rtyd":9085,"Ġgrunderna":9086,"ĠÃ¶fverlem":9087,"ĠGÃĸR":9088,"ĠfÃ¶rdelas":9089,"alla":9090,"Ġtidningarna":9091,"ĠSR":9092,"Ġbete":9093,"ĠTurkiet":9094,"ĠrÃ¶stade":9095,"ĠEuropar":9096,"produkter":9097,"Ġ1995":9098,"Ġkonsekvent":9099,"yndigheter":9100,"ĠvÃ¥rdnads":9101,"ĠUtredningen":9102,"Ġintagna":9103,"bete":9104,"sttagare":9105,"myndigheten":9106,"inrikt":9107,"ĠMikael":9108,"ĠIndustri":9109,"Ã¤kerhets":9110,"ĠInd":9111,"Ġ1999":9112,"ktion":9113,"Ġspeciell":9114,"Ġsik":9115,"Ġtogs":9116,"Ġ1914":9117,"Ġvacker":9118,"ĠDÃ¤refter":9119,"ĠÃ¥tnjuta":9120,"kostnaderna":9121,"Ġtilldel":9122,"ĠfÃ¶rklarar":9123,"sss":9124,"ĠfÃ¶rdu":9125,"ĠBÃ¥de":9126,"ĠÃ¶verklag":9127,"Ġeventuell":9128,"ĠÃħtgÃ¤r":9129,"ĠÃħke":9130,"Ġbarnbidrag":9131,"Ġyng":9132,"styrka":9133,"strafik":9134,"ĠkÃ¤rnkrafts":9135,"riper":9136,"ĠfÃ¶rvar":9137,"ĠfolkhÃ¤l":9138,"Ġofantligt":9139,"Ġapp":9140,"Ġbrottsligheten":9141,"Ġkre":9142,"Ġkurs":9143,"Ġutnyttj":9144,"ĠMAG":9145,"Ġmarken":9146,"ĠjÃ¤mlikt":9147,"Ġaktuellt":9148,"ĠintrÃ¤ffar":9149,"ĠpÃ¥fÃ¶lj":9150,"Ã¶kningar":9151,"Ġfriherre":9152,"smÃ¶j":9153,"ĠÃ¥ka":9154,"Ġallsi":9155,"Ġgrepp":9156,"ĠlÃ¶pande":9157,"tabelt":9158,"Ġ1993":9159,"krig":9160,"punkten":9161,"ĠfÃ¶rbindelser":9162,"ĠanfÃ¶rdes":9163,"Ã¶fver":9164,"Ġanta":9165,"spartierna":9166,"fart":9167,"ĠvÃ¤ckts":9168,"Ġexpl":9169,"Ġlitt":9170,"Ġoklar":9171,"ĠstÃ¤llningstag":9172,"ĠutlÃ¤ndsk":9173,"ĠÃ¥stadkommas":9174,"ĠutfÃ¤rda":9175,"Ġhemmet":9176,"ĠfÃ¶rlora":9177,"Ġacklam":9178,"hammar":9179,"sterna":9180,"Ġ2018":9181,"ĠSvensk":9182,"ĠberÃ¤knade":9183,"Ġonekligen":9184,"Ġacklamation":9185,"70":9186,"ĠAM":9187,"Ã¥det":9188,"Ġgla":9189,"ĠStatsminister":9190,"anstÃ¤llda":9191,"ĠMÃ¤nn":9192,"ĠBak":9193,"33":9194,"byggnaden":9195,"Ġparlamentariska":9196,"Ġskillnader":9197,"Ġvillig":9198,"Ġoffentligt":9199,"ĠfÃ¶rsvinna":9200,"ĠkÃ¶ra":9201,"Ġ2002":9202,"Ġintegritet":9203,"ĠutÃ¶v":9204,"ĠlÃ¶ntagar":9205,"Ġsteget":9206,"Ġbefogenhet":9207,"ĠAntalet":9208,"Ġeffekten":9209,"Ġutrikesminister":9210,"ĠsjÃ¤lfva":9211,"Ġtolv":9212,"Ġavdelning":9213,"Ġsakens":9214,"Ġgemenskap":9215,"ĠotillfredsstÃ¤ll":9216,"ĠSkÃ¤let":9217,"Ġtrans":9218,"Ġarvo":9219,"Ġ160":9220,"Ġambition":9221,"Ġ122":9222,"Ã©ns":9223,"ĠbyrÃ¥":9224,"oth":9225,"ustr":9226,"ore":9227,"Ġdeltar":9228,"Ġforskare":9229,"ĠsammansÃ¤ttning":9230,"ĠÃ¥lders":9231,"Ġriktar":9232,"Ġvetenskapliga":9233,"ĠfÃ¶rfarande":9234,"Ġelektri":9235,"Ġtiller":9236,"Ġberedning":9237,"ĠbostÃ¤ll":9238,"ĠPERSSON":9239,"Ġyttre":9240,"ĠintrÃ¤ffade":9241,"Ġjemte":9242,"kommet":9243,"Ġutbyggnaden":9244,"splatser":9245,"Ġbilligt":9246,"96":9247,"ĠÃ¶verlÃ¤ggning":9248,"ĠuppnÃ¥tt":9249,"Ġberednings":9250,"cken":9251,"ĠbibehÃ¥llas":9252,"ĠavsÃ¥ge":9253,"Ġ............":9254,"Ġbarnomsorgen":9255,"uella":9256,"ĠfÃ¶rbig":9257,"Ġparall":9258,"ĠKom":9259,"Ġjuridiska":9260,"car":9261,"ĠVÃ¤rmland":9262,"95":9263,"staka":9264,"Ġmesta":9265,"ĠstÃ¥l":9266,"Ġstation":9267,"Ġminskad":9268,"ĠstrÃ¶m":9269,"Ġw":9270,"Ã¤sa":9271,"ĠunderdÃ¥n":9272,"Ġsanningen":9273,"ologiskt":9274,"Ġpatienter":9275,"ors":9276,"ĠKer":9277,"ningsan":9278,"Ġinterpellations":9279,"Ġjour":9280,"Ġ1930":9281,"priserna":9282,"ĠÃ¶vergrepp":9283,"ĠbitrÃ¤d":9284,"disk":9285,"Ġsorg":9286,"ĠnÃ¤ringar":9287,"ĠVin":9288,"Ġstatistiken":9289,"Ġuppb":9290,"Ġ124":9291,"redning":9292,"ĠfÃ¶rsiktig":9293,"Beslut":9294,"Ġautomobil":9295,"Ġsorts":9296,"ĠAN":9297,"Ġuppfost":9298,"utslÃ¤pp":9299,"ots":9300,"redit":9301,"Ġkvinno":9302,"Ġand":9303,"Ġvardag":9304,"Ġ123":9305,"Ġkyrkom":9306,"fonderna":9307,"ĠmÃ¤rka":9308,"rÃ¤ttsliga":9309,"ĠÃ¥tt":9310,"Ġ138":9311,"Ġhurusom":9312,"rÃ¶n":9313,"ĠanstÃ¤llnings":9314,"Ġrapporten":9315,"ĠskÃ¶n":9316,"ĠâĢĶ-":9317,"Ã¤mnande":9318,"Ġlandsbygdens":9319,"Ġbyggandet":9320,"ĠBorg":9321,"ĠbrÃ¤nsl":9322,"ĠasylsÃ¶kande":9323,"ĠJÃ¶nsson":9324,"enser":9325,"Ġsvart":9326,"ĠlÃ¤ngden":9327,"ĠmÃ¶te":9328,"ĠBarn":9329,"ĠjÃ¤mfÃ¶ra":9330,"Ġbidrags":9331,"deklar":9332,"olket":9333,"odling":9334,"ĠbegÃ¥tt":9335,"Ġ1919":9336,"Ġarvs":9337,"Ġpast":9338,"Ġhvarandra":9339,"hÃ¥llnings":9340,"ĠfÃ¶rtidspension":9341,"OK":9342,"sbek":9343,"Ġregionen":9344,"Ã¶tande":9345,"uropa":9346,"Ġfokuser":9347,"Ġenigt":9348,"ĠinnebÃ¶rden":9349,"ĠfÃ¶rdr":9350,"ĠSeder":9351,"Ġingrepp":9352,"Ã¶rs":9353,"iserings":9354,"ĠSvan":9355,"slivet":9356,"ĠlÃ¶fte":9357,"Ġtrakter":9358,"ĠnÃ¤mnts":9359,"Ġdimension":9360,"elsing":9361,"Ġomtal":9362,"agnar":9363,"ĠHÃ¶":9364,"Ġbesitt":9365,"Ġerinran":9366,"teÃ¥":9367,"ĠÃ¥dag":9368,"issionens":9369,"Ġhektar":9370,"olution":9371,"Ġbesvik":9372,"Ġviset":9373,"Ġalternativa":9374,"91":9375,"Ġfyr":9376,"Ġkritiska":9377,"ĠmisstÃ¤n":9378,"Ġpotati":9379,"Ġutse":9380,"spolitisk":9381,"rÃ¤nga":9382,"ĠhÃ¤nde":9383,"ĠEuropas":9384,"Ġlidande":9385,"Ġbesvaras":9386,"ĠtillvÃ¤xten":9387,".:":9388,"Ġinstans":9389,"Ã¶kande":9390,"Ġanslags":9391,"ĠlÃ¤rarna":9392,"Ġ128":9393,"ĠSydafrika":9394,"portera":9395,"Ġ1998":9396,"Ġuppfylla":9397,"Ġsyssla":9398,"Ġhalvt":9399,"stv":9400,"ĠsocialfÃ¶rsÃ¤krings":9401,"ĠrÃ¶relsen":9402,"ĠPrecis":9403,"iserat":9404,"Ġoo":9405,"Ġkoldioxid":9406,"Ġsekretess":9407,"Ġ127":9408,"atin":9409,"Ã¤nnens":9410,"Ġredovisade":9411,"Ġreglera":9412,"Ã¤sk":9413,"ĠbegrÃ¤nsas":9414,"opar":9415,"vits":9416,"ĠFinns":9417,"Ġutsk":9418,"Ġavgifts":9419,"ĠvÃ¤lkomnar":9420,"Ġafser":9421,"Ġsympati":9422,"ĠskÃ¶ts":9423,"skad":9424,"Ġinformations":9425,"Ġhas":9426,"smÃ¤nnen":9427,"elin":9428,"Ġolja":9429,"yrkan":9430,"ĠPropositioner":9431,"Ġgifvit":9432,"ĠomprÃ¶vning":9433,"ition":9434,"Ġnaturlig":9435,"ĠingÃ¥ng":9436,"hel":9437,"Ġhamna":9438,"Ġsvaga":9439,"Ġkasta":9440,"fritt":9441,"istens":9442,"Ġkamrarnas":9443,"Ġnyan":9444,"ĠgodkÃ¤nt":9445,"ĠCla":9446,"hr":9447,"Ã¤ro":9448,"Ġantar":9449,"ktoritet":9450,"ĠWenner":9451,"Ġlider":9452,"Ġsamvet":9453,"sfÃ¶ren":9454,"ĠtvÃ¤r":9455,"Ġenstaka":9456,"ĠavvÃ¤gning":9457,"ĠHuru":9458,"okaler":9459,"ĠfÃ¶redragningslistan":9460,"Ġtemp":9461,"hundra":9462,"Ġfart":9463,"Ġdifferenti":9464,"Ġprioritera":9465,"Ġrakt":9466,"ĠÃ¥sigter":9467,"Ġinledningsvis":9468,"ĠFlera":9469,"ktiga":9470,"ĠLiber":9471,"Ġlyckades":9472,"Ġerforderlig":9473,"Ġlyft":9474,"ĠfÃ¶rda":9475,"ĠÃĸvriga":9476,"ĠomrÃ¶stningens":9477,"Ġbilaga":9478,"ĠanmÃ¤la":9479,"Ġdram":9480,"farandet":9481,"vic":9482,"Ġanknyt":9483,"ghan":9484,"vÃ¤rden":9485,"rav":9486,"Ġdemokratiskt":9487,"ĠfÃ¶renk":9488,"Ġmyndighets":9489,"branschen":9490,"Ġinvesteringarna":9491,"ĠAnser":9492,"Ġbevisa":9493,"bell":9494,"Ġlandsbygd":9495,"ĠEndast":9496,"36":9497,"Ġungdomarna":9498,"Ġdepartementschef":9499,"Ġhant":9500,"ĠfÃ¶rskolan":9501,"Ġdoms":9502,"Ġturist":9503,"Ġ1937":9504,"medvet":9505,"Ġstadium":9506,"ĠBIR":9507,"Ġaspek":9508,"ĠMatt":9509,"ĠrÃ¶d":9510,"Ġarbetskraften":9511,"ĠmissfÃ¶rhÃ¥llanden":9512,"utredningens":9513,"ĠMitt":9514,"ĠLARSSON":9515,"ette":9516,"ĠberÃ¶rs":9517,"verkat":9518,"Ġresonera":9519,"ĠÃ¶verenskommelser":9520,"Ġavskaffande":9521,"Ġansluter":9522,"ĠotillfredsstÃ¤llande":9523,"delserna":9524,"Ġrimligen":9525,"ĠomhÃ¤nder":9526,"ĠDebatt":9527,"Ġsamla":9528,"forskning":9529,"ĠsÃ¶kte":9530,"Ġlock":9531,"Ġovanligt":9532,"Ã¤ls":9533,"Ġvackra":9534,"Ġtillse":9535,"ningarne":9536,"Ġantager":9537,"Ġkonstaterat":9538,"ĠjÃ¤mstÃ¤lldhets":9539,"ĠfÃ¶rordade":9540,"rrrr":9541,"ĠutslÃ¤ppen":9542,"ĠUti":9543,"ĠfÃ¶refinnes":9544,"Ġstrafflagen":9545,"nÃ¤mndens":9546,"skador":9547,"Ġ126":9548,"Ã¥rs":9549,"ĠfÃ¶rtjen":9550,"ĠutjÃ¤mning":9551,"ĠkrÃ¤vt":9552,"Ġbrett":9553,"skedet":9554,"ĠHelsing":9555,"ĠfÃ¶retrÃ¤der":9556,"kassan":9557,"ĠKAR":9558,"budet":9559,"ĠMÃ¶":9560,"ĠSocialstyrelsen":9561,"Ġskyldiga":9562,"UL":9563,"Ġframsteg":9564,"ĠGod":9565,"Ġkomplettering":9566,"lÃ¤gs":9567,"ĠfÃ¶rnÃ¤m":9568,"ĠKnut":9569,"Ġlyder":9570,"ĠIbland":9571,"Ġinverka":9572,"ĠdrÃ¶ja":9573,"Ġnation":9574,"Ġapote":9575,"Ġlandstinget":9576,"skul":9577,"ĠSve":9578,"ĠMARG":9579,"ĠhyresgÃ¤st":9580,"ĠHANS":9581,"ĠfÃ¶rutsatt":9582,"Ġtvungen":9583,"Ġombud":9584,"bÃ¤nken":9585,"Ġ129":9586,"Ġ1996":9587,"ĠbibehÃ¥llande":9588,"medlem":9589,"ĠnorrlÃ¤ndska":9590,"Ġarbetstiden":9591,"Ġutarbeta":9592,"plom":9593,"Ġkollektiv":9594,"ĠbitrÃ¤":9595,"Ġanstalt":9596,"ikat":9597,"ĠfÃ¶rplikt":9598,"ĠanstÃ¤lld":9599,"ĠOscar":9600,"person":9601,"ĠutgÃ¥ngen":9602,"Ġbon":9603,"Ġdrabbats":9604,"Ġ......":9605,"Ġbot":9606,"ĠuppnÃ¥s":9607,"Ġauktoritet":9608,"ĠfÃ¶retagande":9609,"ĠfÃ¶rfÃ¤r":9610,"ĠFinansminister":9611,"dagar":9612,"Ġnoggrant":9613,"Ġderest":9614,"Ġanslutit":9615,"Ġtillgodog":9616,"Ġ1941":9617,"ĠsamfÃ¶r":9618,"Ġledare":9619,"ĠÃ¶vervÃ¤ganden":9620,"Ġov":9621,"sbrott":9622,"Ġskattek":9623,"ĠResultat":9624,"undna":9625,"Ġutskotten":9626,"Ġdigit":9627,"ĠSkara":9628,"Ġbeaktande":9629,"ĠkÃ¤ns":9630,"inkomster":9631,"Ã¥lunda":9632,"ĠInterna":9633,"ĠuppbÃ¶r":9634,"ĠbordlÃ¤ggning":9635,"Ġanpassning":9636,"Ġpromemori":9637,"Ġ145":9638,"Ġdebattera":9639,"ĠpÃ¥gÃ¥tt":9640,"Ġtillskott":9641,"Ġsummor":9642,"ĠPaul":9643,"Ã¶dande":9644,"Ġformellt":9645,"ĠnÃ¶jda":9646,"ĠutgÃ¥ende":9647,"splaner":9648,"ĠÃ¥rtion":9649,"Ġupplysa":9650,"ĠutfÃ¶rs":9651,"Ġ%.":9652,"skaps":9653,"Ġstiga":9654,"Ġkland":9655,"ĠNorrkÃ¶ping":9656,"ĠfÃ¶rtryck":9657,"stÃ¤mmer":9658,"ĠreligiÃ¶sa":9659,"Ġklock":9660,"lys":9661,"anne":9662,"Ġ1928":9663,"behandling":9664,"ĠlÃ¤mpligen":9665,"Ġtings":9666,"ĠAlliansen":9667,"Ġdere":9668,"55":9669,"fÃ¶rsvars":9670,"ĠberÃ¤tta":9671,"fvare":9672,"etnam":9673,"ĠstÃ¥ndpunkten":9674,"Ġindragning":9675,"Ġindex":9676,"Ġbranschen":9677,"Ġslutliga":9678,"ĠersÃ¤ttningen":9679,"ĠHermansson":9680,"Ġanvisningar":9681,"Ġvall":9682,"ump":9683,"arier":9684,"stud":9685,"Ġprinciperna":9686,"fÃ¶rbin":9687,"ĠBara":9688,"ana":9689,"sersÃ¤ttning":9690,"Ġriktlinjerna":9691,"Ã¶vning":9692,"ĠkomitÃ©":9693,"Ġprotokollen":9694,"Ġrektor":9695,"Ġfrihandel":9696,"Ġvett":9697,"ĠmÃ¤rkvÃ¤r":9698,"Ġinnefattas":9699,"anna":9700,"ssel":9701,"ĠerhÃ¥ller":9702,"cit":9703,"Ġredovisar":9704,"Ġ133":9705,"drivande":9706,"Ġuppfattar":9707,"ĠhÃ¶gerns":9708,"ĠBeng":9709,"aldirekt":9710,"eral":9711,"ĠReservanterna":9712,"Ġringaste":9713,"aff":9714,"ĠanvÃ¤ndande":9715,"Ġresp":9716,"uktion":9717,"ĠLagfÃ¶rslag":9718,"Ġsammansatta":9719,"Ġgat":9720,"Ġindivider":9721,"Ġvik":9722,"Ġ132":9723,"ĠJustitiemin":9724,"rarnes":9725,"ĠensamstÃ¥ende":9726,"stekn":9727,"sbalken":9728,"ĠJanuari":9729,"Ġarbetsmarknadens":9730,"ĠATP":9731,"46":9732,"Ġfinansieringen":9733,"parlam":9734,"ĠkÃ¶ns":9735,"ĠTa":9736,"Ġlaga":9737,"ĠaffÃ¤rer":9738,"fs":9739,"barhet":9740,"ĠanvÃ¤nde":9741,"Ġstudent":9742,"gent":9743,"ĠNorrlands":9744,"Ġkommunalt":9745,"Ġhandlat":9746,"Ã¶verenskomm":9747,"Ġba":9748,"ĠLa":9749,"Ġtolkas":9750,"Ġinland":9751,"Ġdennes":9752,"98":9753,"Ġledde":9754,"alterna":9755,"ĠsjÃ¶fart":9756,"tliga":9757,"holk":9758,"ĠmissfÃ¶rstÃ¥nd":9759,"Ġstrids":9760,"Ġtisdagen":9761,"istiskt":9762,"ĠpÃ¥verkas":9763,"ĠKina":9764,"Ġutvis":9765,"Ġofull":9766,"Ġ131":9767,"Ġavsedd":9768,"ĠSTEN":9769,"juka":9770,"ĠJON":9771,"ĠfÃ¶rlorat":9772,"Ġryck":9773,"Ġkonsumtionen":9774,"Ġlopp":9775,"EST":9776,"Ġbeviljade":9777,"ĠfÃ¶rvÃ¤nta":9778,"ĠPost":9779,"Ġutsikt":9780,"inrÃ¤tt":9781,"Ġnyttigt":9782,"Ġutrikespolitik":9783,"ningsoch":9784,"ĠpÃ¥stÃ¥endet":9785,"OLL":9786,"ĠWin":9787,"Ġliter":9788,"ĠThomas":9789,"ombudsman":9790,"47":9791,"ĠUng":9792,"Ġoffer":9793,"sutredningen":9794,"vÃ¥":9795,"Ġsprida":9796,"inspekt":9797,"rÃ¶na":9798,"ĠRU":9799,"istor":9800,"ĠMycket":9801,"ĠÃĸres":9802,"Ġlyfter":9803,"Ġtimme":9804,"gÃ¶t":9805,"Ġutrustning":9806,"ĠBef":9807,"ografiska":9808,"ĠavsevÃ¤rd":9809,"lever":9810,"ĠfÃ¶rvisso":9811,"ĠmotsÃ¤tta":9812,"Ġtidningen":9813,"Ã¶pen":9814,"vap":9815,"ĠfÃ¶rhandlings":9816,"Ġexporten":9817,"Ġbilliga":9818,"Ġalli":9819,"ĠnivÃ¥n":9820,"ĠÃ¶kande":9821,"ĠvÃ¤rsta":9822,"stationer":9823,"Ġcentrum":9824,"adet":9825,"ĠfÃ¤rdiga":9826,"Ġmeddelas":9827,"regeln":9828,"ĠVÃ¥ra":9829,"ĠhÃ¤rpÃ¥":9830,"ĠÃ¤ldreomsorgen":9831,"ĠmÃ¤t":9832,"Ġvalen":9833,"ativa":9834,"Ġanstalter":9835,"LING":9836,"ĠfÃ¶rlorar":9837,"Ġprocents":9838,"ĠvidstrÃ¤ck":9839,"skrafter":9840,"omo":9841,"Ġantagligen":9842,"Ġsparsamhet":9843,"rer":9844,"Ġarbetande":9845,"Ġsumman":9846,"jun":9847,"Ġinkall":9848,"ssekreter":9849,"Ġderefter":9850,"forsk":9851,"kapit":9852,"Ġhandlande":9853,"Ġnegativ":9854,"odde":9855,"ĠsprÃ¥ket":9856,"klund":9857,"Ġantogs":9858,"sbudget":9859,"ĠomlÃ¤ggning":9860,"sby":9861,"ĠRE":9862,"ĠnÃ¤mnd":9863,"Ġprodukt":9864,"sprocessen":9865,"Ġarbetskrafts":9866,"Ġfinansministerns":9867,"gavs":9868,"ĠberÃ¶m":9869,"Ġ136":9870,"ilegi":9871,"ĠPol":9872,"Ġfix":9873,"ĠLindblad":9874,"Ġdistribu":9875,"Ġbeskrivning":9876,"ĠhemstÃ¤lt":9877,"kommittÃ©n":9878,"ĠÃ¶vers":9879,"ĠBostad":9880,"hÃ¤ngande":9881,"Ġatom":9882,"Ġstatsmakternas":9883,"iseras":9884,"Ġframkom":9885,"ĠfÃ¶rlÃ¤nga":9886,"Ġartiller":9887,"ĠFramfÃ¶r":9888,"Ġprincipiell":9889,"Ġuppkomma":9890,"ĠfolkomrÃ¶stning":9891,"husen":9892,"Ġmisstro":9893,"Ġreaktion":9894,"svis":9895,"Ġfallit":9896,"hlin":9897,"ĠMÃ¶ller":9898,"star":9899,"ĠfÃ¶rde":9900,"ĠLades":9901,"Ġskyndsam":9902,"ĠSocialdemokraternas":9903,"Ġ...":9904,"Ġmissupp":9905,"jemte":9906,"ART":9907,"skl":9908,"ĠÃ¶fvertygelse":9909,"ĠrÃ¶strÃ¤tten":9910,"Ġdryck":9911,"tima":9912,"Ġobehag":9913,"Ġstorleks":9914,"ĠAnnars":9915,"ĠJÃ¤mt":9916,"verkningar":9917,"Ġeurope":9918,"ĠGustavsson":9919,"Ġ1925":9920,"andade":9921,"ĠvÃ¤nner":9922,"ĠSÃ¥lunda":9923,"ĠIvar":9924,"ĠfÃ¶rfl":9925,"Ġerbjuder":9926,"ĠfÃ¶rstÃ¶r":9927,"Ġkristdemokrater":9928,"Ġplatsen":9929,"Ġprofessur":9930,"ssidan":9931,"ĠgenomfÃ¶rts":9932,"po":9933,"ĠfÃ¶rordar":9934,"ĠfÃ¶rberedel":9935,"Ġfak":9936,"Ġframtids":9937,"Ġavb":9938,"kontroll":9939,"ĠhvarpÃ¥":9940,"ĠinvÃ¤nda":9941,"ĠHOLM":9942,"sprogrammet":9943,"Ġimporter":9944,"ese":9945,"Ġfunktionshin":9946,"tiver":9947,"Ġorolig":9948,"savgift":9949,"Ġjul":9950,"Ġbetydelsefull":9951,"Ġera":9952,"tider":9953,"Ġuppmunt":9954,"Ġsynd":9955,"Ġblyg":9956,"ĠofÃ¶rÃ¤ndrad":9957,"KAB":9958,"Ġavstyrkt":9959,"ĠfÃ¶rsÃ¤mring":9960,"Ġmotsatsen":9961,"Ġpropaganda":9962,"Ġuttalandet":9963,"viv":9964,"ĠÃĦndÃ¥":9965,"Ġplanerade":9966,"92":9967,"olym":9968,"Ġdata":9969,"Den":9970,"Ã¤gge":9971,"uppdrag":9972,"ĠallmÃ¤nhetens":9973,"kreter":9974,"ĠsjÃ¶farten":9975,"Ġkontinuer":9976,"ĠJAN":9977,"ĠhÃ¶gkonjunktur":9978,"Ġsannolik":9979,"Ġ134":9980,"arm":9981,"ĠvÃ¤sentligen":9982,"dels":9983,"Ġjustitieminister":9984,"Ġbostadsbyggandet":9985,"Ġarbetsgivarna":9986,"samheten":9987,"lÃ¤stes":9988,"orat":9989,"Ġovillkor":9990,"Ġgammalt":9991,"istori":9992,"Ġensamma":9993,"mÃ¤g":9994,"Ġtalan":9995,"Ġutredas":9996,"ĠhÃ¥llbart":9997,"opul":9998,"Ġsakna":9999,"ĠpÃ¥pekar":10000,"begrÃ¤ns":10001,"Ġradik":10002,"97":10003,"Ġmon":10004,"âĢĿ,":10005,"derade":10006,"terings":10007,"Ġmeddelande":10008,"ransporter":10009,"Ġutgif":10010,"ĠRing":10011,"ĠlÃ¥ngtids":10012,"skyldiga":10013,"Ġskogsbruket":10014,"Ġkorr":10015,"egen":10016,"Ġbanker":10017,"institu":10018,"Ã¤tte":10019,"Ġantages":10020,"ĠUpplÃ¤stes":10021,"Ġpropositionerna":10022,"ĠkrÃ¥ng":10023,"ĠStef":10024,"Ġflygplats":10025,"Ġdiplom":10026,"Ġkurser":10027,"stÃ¤derna":10028,"avgifterna":10029,"investeringar":10030,"ĠtillÃ¥tit":10031,"ĠmiljÃ¶m":10032,"Ġutbilda":10033,"fonder":10034,"hÃ¥llningen":10035,"Ġklyft":10036,"Ġfinansutskottet":10037,"Ġdriften":10038,"Ġbolagets":10039,"Ġjorde":10040,"Ġlugn":10041,"ĠlÃ¶ften":10042,"lekonom":10043,"Ġuniversiteten":10044,"gÃ¶romÃ¥len":10045,"ias":10046,"ifva":10047,"ĠRydÃ©n":10048,"ĠomfÃ¶rmÃ¤lda":10049,"ledam":10050,"vilkor":10051,"Ġfinska":10052,"skr":10053,"git":10054,"Ġfrivilligt":10055,"Ġkapitalis":10056,"Ġtungt":10057,"Ġok":10058,"Ġdras":10059,"ĠsammanhÃ¤n":10060,"ĠÃ¶verblick":10061,"ĠRosen":10062,"Ġtendens":10063,"Ġbevar":10064,"ĠfÃ¥tal":10065,"sbehov":10066,"ĠskÃ¶ter":10067,"Ġfordringar":10068,"Ġstrax":10069,"Ġolyckor":10070,"ĠintrÃ¤":10071,"ĠKR":10072,"ĠBi":10073,"Ġflottans":10074,"ĠhÃ¶jer":10075,"sidan":10076,"Ġlots":10077,"Ġlyssnat":10078,"Ġsikte":10079,"ĠVilken":10080,"ĠmÃ¥ngen":10081,"amma":10082,"Ġsekreter":10083,"betalning":10084,"Ġprogress":10085,"ligast":10086,"ĠfÃ¶rmo":10087,"ĠvÃ¤rnplikt":10088,"ĠSjÃ¤lvklart":10089,"ĠanhÃ¤ng":10090,"ĠSvaret":10091,"Ġ143":10092,"Ġorsakerna":10093,"ransport":10094,"ĠÃ¶st":10095,"Ġambitioner":10096,"nn":10097,"ĠVÃ¤":10098,"givningen":10099,"ĠvÃ¤ckte":10100,"Ġkilometer":10101,"fil":10102,"Ġnegativt":10103,"Ġangivits":10104,"Ġarbetsliv":10105,"Ġryska":10106,"Ġplikt":10107,"ĠupphÃ¤vande":10108,"Ġkal":10109,"Ġbringa":10110,"protokoll":10111,"Ġsignaler":10112,"Ġupprustning":10113,"elimin":10114,"Ġstrateg":10115,"TT":10116,"Ġstimulans":10117,"ĠIII":10118,"Ġunderstruk":10119,"rakti":10120,"SAB":10121,"Ġanordnande":10122,"ĠEEC":10123,"ĠberÃ¤ttelse":10124,"Ġkas":10125,"ĠdÃ¤rhÃ¤n":10126,"ĠfÃ¶rlÃ¤ngning":10127,"ĠframstÃ¥ende":10128,"Ġutnyttjande":10129,"grupperna":10130,"Ġplus":10131,"atisk":10132,"ĠbedÃ¶mande":10133,"Ġaccepterar":10134,"ĠYtter":10135,"Ġvidkommande":10136,"Ġledamoten":10137,"Ġsamlat":10138,"ĠsamhÃ¤llen":10139,"ĠfÃ¶rutsÃ¤ttningen":10140,"Ġ147":10141,"nyta":10142,"ĠHamrin":10143,"ĠJacobsson":10144,"Ġolag":10145,"Ġtilltal":10146,"ĠfÃ¶rsen":10147,"ĠframstÃ¤llas":10148,"ĠFel":10149,"ĠfÃ¶rtjÃ¤nar":10150,"ĠÃħtgÃ¤rder":10151,"tande":10152,"Ġstrand":10153,"Ġordentlig":10154,"fordon":10155,"Ġsocken":10156,"ĠBIRG":10157,"ĠEliasson":10158,"Ġsamarbeta":10159,"ĠpÃ¥skyn":10160,"ĠTr":10161,"Ã¤lje":10162,"ikomm":10163,"ĠsÃ¤nkta":10164,"uten":10165,"Ġvaccin":10166,"ofog":10167,"Ġhistorien":10168,"ich":10169,"Ġstatskassan":10170,"Ġsynen":10171,"vatten":10172,"ĠfÃ¶retaga":10173,"âĢĵ":10174,"Ġfelaktiga":10175,"ĠfÃ¶rbjuda":10176,"Ġarran":10177,"Ġtekniskt":10178,"ĠSÃ¶dert":10179,"Ġlic":10180,"sling":10181,"ĠfÃ¶refinnas":10182,"Ġsagda":10183,"Ġange":10184,"Ġ141":10185,"ĠvÃ¤ljarna":10186,"Ġtusentals":10187,"ĠinrÃ¤ttas":10188,"fÃ¶rening":10189,"ĠinskrÃ¤nkningar":10190,"Ġursprungliga":10191,"Ġrep":10192,"ĠallmÃ¤nnytt":10193,"ĠSkÃ¶ld":10194,"Ġplanen":10195,"Ġcitat":10196,"ÃĦR":10197,"utbil":10198,"Ġmomentet":10199,"ĠtÃ¥l":10200,"Ġrubriken":10201,"Ġved":10202,"Ġvaran":10203,"spersonal":10204,"Ġtjug":10205,"stÃ¤llet":10206,"Ġresonemanget":10207,"ostnader":10208,"ĠKerstin":10209,"Ġexperter":10210,"Ġtest":10211,"ĠAmer":10212,"etill":10213,"niska":10214,"ftig":10215,"obak":10216,"pel":10217,".>":10218,"Ġyngre":10219,"ĠtrÃ¤ffat":10220,"ĠKvar":10221,"ĠingÃ¥tt":10222,"Ġuppfattas":10223,"Ġbetalnings":10224,"Ġprogrammet":10225,"ĠbrÃ¤nnvin":10226,"Ġvarvid":10227,"Ġ2008":10228,"vationer":10229,"Ġavvaktan":10230,"ĠLundberg":10231,"Ġmyndigheternas":10232,"lÃ¤ng":10233,"hÃ¤nseende":10234,"ĠstÃ¤llts":10235,"vÃ¤rv":10236,"Ġlikaledes":10237,"ĠkÃ¶n":10238,"ĠfackfÃ¶renings":10239,"ĠnÃ¤t":10240,"fÃ¶rmÃ¥ner":10241,"Ġgaranter":10242,"ĠEM":10243,"Ġkonsumenter":10244,"Ġarbetsgivaren":10245,"ĠÃĸstersund":10246,"Ġsken":10247,"ĠuppsÃ¤g":10248,"Ġexpedi":10249,"Ġgeneraldirekt":10250,"ĠanmÃ¤ldes":10251,"Ġnummer":10252,"Ġbetalt":10253,"sty":10254,"ĠnaturvÃ¥rds":10255,"rygghet":10256,"Ġstatsmedel":10257,"ĠLei":10258,"NA":10259,"procen":10260,"Ġrehabilitering":10261,"Ġstatsfinansiella":10262,"ive":10263,"Ġteater":10264,"Ġefterle":10265,"Ġinvestera":10266,"ĠÃ¥ttonde":10267,"ĠspanmÃ¥l":10268,"nandet":10269,"ĠlÃ¤t":10270,"ĠutlÃ¥":10271,"process":10272,"MARK":10273,"ĠTI":10274,"ĠhÃ¶jt":10275,"Ġjob":10276,"ECD":10277,"Ġdelas":10278,"ĠÃ¤gar":10279,"ĠÃ¶de":10280,"Ġkommunalskatt":10281,"Ġflyttar":10282,"Ġbostadsb":10283,"ĠfÃ¶rvÃ¥ning":10284,"OTOK":10285,"ĠBill":10286,"ĠRÃ¶":10287,"ĠOla":10288,"Ġfarliga":10289,"Ġfisker":10290,"Ġmotionens":10291,"stensson":10292,"ĠRa":10293,"OTOKOLL":10294,"Ġavtals":10295,"Ġbyta":10296,"Ġsal":10297,"56":10298,"Ġpartiled":10299,"uts":10300,"Ġblivande":10301,"ĠlÃ¥ngvar":10302,"elsernas":10303,"Ġgift":10304,"ĠgenomfÃ¶rdes":10305,"Ġinriktningen":10306,"Ġbidraget":10307,"Ġsned":10308,"ĠnÃ¶digt":10309,"ssituation":10310,"urg":10311,"ĠOECD":10312,"resurser":10313,"stri":10314,"Ġ2007":10315,"ĠbestÃ¤mmas":10316,"ĠutfÃ¶ras":10317,"venne":10318,"Ġsky":10319,"ĠjÃ¤tte":10320,"Ã¤nnande":10321,"aktie":10322,"Ġdebatterar":10323,"Ġsysslar":10324,"ĠskÃ¶tt":10325,"ĠfÃ¶rbindelse":10326,"klassen":10327,"Ġframlagts":10328,"Ġpsykiat":10329,"haft":10330,"SDAG":10331,"ĠvÃ¤rdefull":10332,"ĠtrÃ¤dgÃ¥rds":10333,"Ġstatsverkets":10334,"soff":10335,"Ġinnefattades":10336,"vÃ¤rdt":10337,"Ġdistrik":10338,"Ġseg":10339,"aktiv":10340,"ĠOlle":10341,"ĠfÃ¶ref":10342,"ĠGustafson":10343,"ĠVattenfall":10344,"alden":10345,"ĠredogÃ¶ra":10346,"Ã¥rd":10347,"ĠuppfÃ¶ras":10348,"Ġreder":10349,"ĠfÃ¶rdela":10350,"Ġindustriella":10351,"ĠfÃ¶rÃ¤d":10352,"lÃ¤ggningarna":10353,"ĠhÃ¤nvisats":10354,"kraf":10355,"sprojekt":10356,"ĠAmerika":10357,"SDAGENS":10358,"ĠlÃ¤nders":10359,"Ġkoll":10360,"bolagen":10361,"stopp":10362,"Ġfaktor":10363,"Ġbeton":10364,"Ġoriktigt":10365,"kes":10366,"Ġ137":10367,"Ġriskerna":10368,"Ġskyddet":10369,"Ġbeviljande":10370,"ĠPehrsson":10371,"ĠHandel":10372,"ĠbehÃ¶vt":10373,"samling":10374,"44":10375,"ĠPROTOKOLL":10376,"28":10377,"spres":10378,"Ġoroande":10379,"Ġbetalning":10380,"Ġspecif":10381,"Ġplaneringen":10382,"ĠSVENSSON":10383,"alestin":10384,"Ġnoll":10385,"Ġrelation":10386,"Ġuttrycker":10387,"Ġamb":10388,"ider":10389,"Ġ139":10390,"undsvall":10391,"Ġkansl":10392,"ĠWig":10393,"Ġpolisens":10394,"ĠBlek":10395,"Ã¤mpning":10396,"ĠnedlÃ¤ggning":10397,"fÃ¶rbÃ¤ttring":10398,"Ġrealiteten":10399,"Ġvartill":10400,"andar":10401,"Ġhistoriska":10402,"ĠfÃ¶rsamlingen":10403,"eligen":10404,"Ġutrikespolitiska":10405,"Ġrull":10406,"ĠhÃ¤rutinnan":10407,"Ġtullsats":10408,"arbetslÃ¶sheten":10409,"bas":10410,"betÃ¤nkande":10411,"FP":10412,"slagens":10413,"Ġinkomna":10414,"Ġavstyrk":10415,"fÃ¶rbundets":10416,"Ġsatte":10417,"Ġkapitalet":10418,"nÃ¤tet":10419,"Ġpatient":10420,"Ġutdel":10421,"Ġupptagas":10422,"Ġtalesman":10423,"Ġandras":10424,"ĠfÃ¶ruts":10425,"ansvÃ¤rt":10426,"Ġlida":10427,"ĠPÃ¤r":10428,"ĠberÃ¤kna":10429,"Ġhyra":10430,"marna":10431,"ĠfÃ¶rsÃ¤ljningen":10432,"ĠnÃ¤rheten":10433,"ĠfÃ¶rbÃ¤ttrade":10434,"stull":10435,"Ġliggande":10436,"ĠX":10437,"stax":10438,"Ġavfall":10439,"Ġresoner":10440,"ĠÃ¤gnar":10441,"Ġliberala":10442,"Ġalliansregeringen":10443,"Ġafsl":10444,"ĠÃ¶verallt":10445,"ĠvÃ¤gnar":10446,"Ġmaskiner":10447,"ĠgrÃ¶na":10448,"Ġlagtex":10449,"ĠSovjetunionen":10450,"ĠANNA":10451,"Ġmigrations":10452,"ĠuppmÃ¤rksamm":10453,"Ġhav":10454,"Ġalternativet":10455,"Ġskattere":10456,"ĠWach":10457,"arbetande":10458,"ĠhandlÃ¤ggningen":10459,"ĠgenomfÃ¶randet":10460,"Ġattra":10461,"Ġrese":10462,"Ġbefara":10463,"Ġtvenne":10464,"Ġavdelningen":10465,"ica":10466,"Ġkyrkans":10467,"itation":10468,"ĠÃ¶gonen":10469,"sul":10470,"stock":10471,"ĠuppehÃ¥llstillstÃ¥nd":10472,"odlingen":10473,"ĠmÃ¤nniskan":10474,"elses":10475,"pper":10476,"Ġunderstryker":10477,"titu":10478,"ĠavsÃ¤ttning":10479,"meister":10480,"Ġmeter":10481,"Ġhvilkas":10482,"ĠSedermera":10483,"Ġhandelsministern":10484,"Ġ144":10485,"ĠEF":10486,"ĠVÃ¤nsterpartiets":10487,"ersÃ¤ttning":10488,"intresse":10489,"mens":10490,"ĠbÃ¤gge":10491,"Ġkristna":10492,"standard":10493,"UN":10494,"Ġ!":10495,"beteck":10496,"ĠÃ¤ndringen":10497,"Ġkulturella":10498,"Ġkoncess":10499,"Ġanvisade":10500,"ĠfÃ¶rvÃ¥nar":10501,"ĠBanko":10502,"Ġum":10503,"brit":10504,"ĠÃ¥terin":10505,"skrivna":10506,"ĠspÃ¶rsmÃ¥let":10507,"ĠtillÃ¥tas":10508,"Ġrigtigt":10509,"ĠdÃ¤raf":10510,"Ġskepp":10511,"Ġmedlemsstat":10512,"ĠsamhÃ¤llsekonomiska":10513,"sektorn":10514,"ĠÃ¤mbetsverk":10515,"Ġordnings":10516,"Ġ146":10517,"ĠfÃ¶rsiktighet":10518,"Ġskattefri":10519,"Ġene":10520,"hÃ¥llen":10521,"ĠWacht":10522,"sbanan":10523,"eratur":10524,"andid":10525,"Ġpostverket":10526,"Ġseri":10527,"ĠriksdagsgÃ¶romÃ¥len":10528,"ĠomvÃ¤rlden":10529,"Ġresultaten":10530,"Ġupphov":10531,"Ġarbetstagare":10532,"rens":10533,"ĠlÃ¥gkonjunktur":10534,"Ġmassmed":10535,"vok":10536,"Ġbefo":10537,"ĠnÃ¶diga":10538,"ĠtrÃ¥k":10539,"slÃ¤k":10540,"Ġleddes":10541,"Ġbryter":10542,"Ġskyldigheter":10543,"ĠSyftet":10544,"Ġprojektet":10545,"Ġ2009":10546,"ĠbegrÃ¤nsat":10547,"ĠBirger":10548,"Ġ142":10549,"ĠUtskottsmajoriteten":10550,"ĠÃĸfver":10551,"skommittÃ©ns":10552,"Ġassist":10553,"Ġfolkskolan":10554,"ĠanmÃ¤rka":10555,"Ã¥rets":10556,"ĠhÃ¤nse":10557,"ĠlÃ¤rt":10558,"ĠWachtmeister":10559,"ĠmÃ¥lsÃ¤ttningen":10560,"Ġsr":10561,"ĠpÃ¥f":10562,"bol":10563,"sess":10564,"Ġnyck":10565,"ĠNation":10566,"Ġposition":10567,"agda":10568,"kÃ¤nna":10569,"Ġskyndsamt":10570,"vision":10571,"beh":10572,"Ġhuvu":10573,"Ġhuvudtitel":10574,"Ġfal":10575,"Ġbyggs":10576,"ĠResultatet":10577,"ĠhÃ¤rigenom":10578,"ĠvÃ¤rdefulla":10579,"ĠfÃ¶ll":10580,"ĠBro":10581,"Ġprivilegi":10582,"Ġantytt":10583,"Ġenorma":10584,"Ã¶kningen":10585,"ĠDepartem":10586,"Ġhelg":10587,"ĠjemfÃ¶relse":10588,"Ġgenomgripande":10589,"brÃ¤n":10590,"ĠspÃ¤n":10591,"ĠMellan":10592,"ĠanfÃ¶ras":10593,"ĠtrÃ¤ffar":10594,"ĠHvar":10595,"ĠFrid":10596,"ĠÃ¶verenskommelsen":10597,"ĠanfÃ¶randen":10598,"ĠProposition":10599,"ĠAvlÃ¶":10600,"Ġanges":10601,"ĠsÃ¤kerheten":10602,"ĠfÃ¶rk":10603,"esen":10604,"otter":10605,"tel":10606,"ĠLinder":10607,"ĠprÃ¤st":10608,"Ġregeln":10609,"Ġhvadan":10610,"Ġgrundar":10611,"Ġutebl":10612,"ĠhÃ¤kt":10613,"ĠnÃ¶dvÃ¤ndighet":10614,"Ġandelen":10615,"Ġfordrar":10616,"ĠEricson":10617,"OMAS":10618,"valver":10619,"ĠstÃ¥ende":10620,"Ġoaccep":10621,"Ġis":10622,"ansar":10623,"efteÃ¥":10624,"Ġglobala":10625,"Ġavveckla":10626,"ĠSundsvall":10627,"Ġfranska":10628,"Ġkommunistiska":10629,"mÃ¤ssiga":10630,"gÃ¤lds":10631,"Ġensidigt":10632,"Ã¶ner":10633,"kopp":10634,"Ġbetecknade":10635,"ĠsÃ¥l":10636,"Ġuppgick":10637,"Ġflickor":10638,"ĠGÃĸRAN":10639,"ĠBrant":10640,"rink":10641,"Ġabort":10642,"Ġbestrid":10643,"Ġproducera":10644,"ĠhumanitÃ¤ra":10645,"insats":10646,"Ġbarnets":10647,"ĠfÃ¶rverklig":10648,"ĠbehÃ¶righet":10649,"Ġnyhet":10650,"ĠintrÃ¤de":10651,"skollÃ¤r":10652,"ĠhÃ¶jningen":10653,"53":10654,"verkningen":10655,"Ġtolkar":10656,"Ġorten":10657,"drad":10658,"sÃ¤ttare":10659,"Ġdaghem":10660,"ĠfÃ¶ljas":10661,"RIKSDAGENS":10662,"ĠbedÃ¶mas":10663,"ĠsjÃ¶n":10664,"ĠHolmberg":10665,"Ġsakliga":10666,"ĠhÃ¤nseenden":10667,"Ġkvinnan":10668,"Ġskulds":10669,"ĠupplÃ¥telse":10670,"Ġvistas":10671,"ĠinfÃ¶rsel":10672,"Ġtermin":10673,"panj":10674,"gest":10675,"Ġvilande":10676,"arbets":10677,"ĠCH":10678,"Ġkommentarer":10679,"Ġsparbank":10680,"ĠbristfÃ¤ll":10681,"ĠuppfÃ¶ljning":10682,"Ġpande":10683,"dd":10684,"Ġriktat":10685,"ĠrÃ¥g":10686,"Ġpersonen":10687,"Ġberg":10688,"ĠallmÃ¤nnas":10689,"fÃ¶reningar":10690,"Ġsparandet":10691,"ĠlÃ¶ntagare":10692,"ĠtillkÃ¤nnagav":10693,"Ġfysiska":10694,"vanden":10695,"Ġchansen":10696,"Ġprelimin":10697,"ĠfÃ¶reslagen":10698,"nÃ¤t":10699,"02":10700,"ĠJÃ¤rn":10701,"ĠfÃ¶rsÃ¶rja":10702,"britann":10703,"Ġdyrt":10704,"hÃ¶rande":10705,"fÃ¶ljande":10706,"rop":10707,"utet":10708,"ĠfÃ¶rsÃ¶rjnings":10709,"ĠbesvÃ¤rligt":10710,"Ġitu":10711,"Ġtobak":10712,"Ġbebygg":10713,"Ġdrabbade":10714,"Ġopinionen":10715,"ĠtillfÃ¶rsÃ¤k":10716,"Ġ155":10717,"Ġdomstolarna":10718,"ĠMÃ¥l":10719,"umma":10720,"lander":10721,"sperspektiv":10722,"Ġhinner":10723,"ĠPETER":10724,"tanke":10725,"Ġutsik":10726,"Ġmargar":10727,"ĠlÃ¤rarin":10728,"ĠfÃ¶rsvag":10729,"ningsfÃ¶rslag":10730,"ĠfÃ¶ljder":10731,"ĠHjalmarson":10732,"ĠEw":10733,"Ġbeslutande":10734,"Ġpresentera":10735,"Ġstigande":10736,"ottag":10737,"Ġkorts":10738,"ynner":10739,"ĠframstÃ¤llningen":10740,"ĠrÃ¤knade":10741,"Ġjordbruksdepartementet":10742,"ĠCar":10743,"ĠkÃ¤nd":10744,"Ġriksm":10745,"ĠinnehÃ¶ll":10746,"ĠStorbritann":10747,"ĠLENN":10748,"ĠlÃ¥ngtgÃ¥ende":10749,"ĠVÃ¤sterÃ¥s":10750,"Ġkg":10751,"ĠersÃ¤ttas":10752,"Ġ148":10753,"Ġtrev":10754,"Ġfogat":10755,"Ġarbetsplatser":10756,"99":10757,"Ġkoopera":10758,"ĠFÃ¶retag":10759,"Ġklassen":10760,"uf":10761,"havare":10762,"ĠvÃ¶r":10763,"ikations":10764,"Ġskatteut":10765,"Ġanknytning":10766,"ĠmissnÃ¶je":10767,"Ġnaturen":10768,"ĠBergstrÃ¶m":10769,"kri":10770,"Ġbom":10771,"ĠrÃ¤ttssÃ¤kerhet":10772,"ĠsamfÃ¶rstÃ¥nd":10773,"Ġjobbet":10774,"Ġkomplettera":10775,"Ġinten":10776,"fara":10777,"Ġtroligen":10778,"Ġinsikt":10779,"Ġfost":10780,"oplan":10781,"Ġannon":10782,"ĠBER":10783,"skrift":10784,"Ġutrikesutskottet":10785,"Ġbeskriver":10786,"priser":10787,"ĠArbetet":10788,"ĠLeijon":10789,"Ġtion":10790,"Ġbranscher":10791,"ĠÃĦndring":10792,"Ġexistens":10793,"jelm":10794,"Ġfinansieras":10795,"ĠÃ¥taganden":10796,"domstolen":10797,"Ġregem":10798,"Ġfolkskole":10799,"Ġbeskyll":10800,"ĠmiljÃ¶ministern":10801,"Ġjournal":10802,"ĠohÃ¤l":10803,"ids":10804,"Ġhet":10805,"Ġgynnar":10806,"ĠBlekinge":10807,"Ġbag":10808,"ĠblÃ¥":10809,"blom":10810,"sintress":10811,"ĠfÃ¶retrÃ¤des":10812,"ĠTidigare":10813,"ĠgenomfÃ¶rs":10814,"Ġafslut":10815,"Ġgenerell":10816,"Ã¶fd":10817,"idkare":10818,"tits":10819,"ĠfÃ¶rehaft":10820,"Ġanger":10821,"adens":10822,"Ġintaga":10823,"vationen":10824,"jern":10825,"Ġsvarat":10826,"Ġfattigdom":10827,"Ġexperim":10828,"Ġvarmt":10829,"Ġfisket":10830,"IG":10831,"konventionen":10832,"Ġhantering":10833,"sÃ¤ttes":10834,"Ġutvidga":10835,"avdraget":10836,"Ġofficiella":10837,"ĠLÃ¶f":10838,"Ġstannat":10839,"ĠskÃ¶rde":10840,"\",":10841,"TE":10842,"lÃ¤get":10843,"iens":10844,"ĠomstÃ¤llning":10845,"ID":10846,"Ã¥nga":10847,"sÃ¤ttningarna":10848,"ĠÃ¶vertygelse":10849,"ĠrÃ¥kar":10850,"Ġavskaffas":10851,"ĠfÃ¶rverkliga":10852,"ĠLid":10853,"Ġtvist":10854,"ĠVÃ¤rl":10855,"styrelserna":10856,"ĠTobi":10857,"Ġ900":10858,"sfÃ¶rvalt":10859,"ssÃ¤ttet":10860,"ĠderÃ¥":10861,"Ġkonkurs":10862,"ĠnivÃ¥er":10863,"ĠfÃ¶resprÃ¥k":10864,"sekvens":10865,"ĠklargÃ¶ra":10866,"Ġsjukdomar":10867,"fÃ¶rÃ¤ndring":10868,"Ã¥ndet":10869,"ĠmÃ¥ls":10870,"Ġuppfattat":10871,"ĠriksdagsmÃ¤n":10872,"Ġdeltag":10873,"vidt":10874,"ĠbrÃ¥d":10875,"hÃ¤r":10876,"ĠfÃ¶restÃ¤lla":10877,"Ġtrag":10878,"Ġkommuna":10879,"Ġgreve":10880,"Ġintegration":10881,"Ġunderkast":10882,"skollegium":10883,"Ġafdelning":10884,"ĠAlltsÃ¥":10885,"Ġskatteutskottet":10886,"Ġobek":10887,"bestÃ¤mmande":10888,"Ġbevaka":10889,"ĠInne":10890,"ĠvÃ¤rldskriget":10891,"hyr":10892,"ĠFÃ¶rhandlingarna":10893,"ĠgÃ¥ende":10894,"Ġamba":10895,"Ġbalanser":10896,"Ã¤kra":10897,"ansvÃ¤rda":10898,"ĠÃ¤ran":10899,"Ġbefattningar":10900,"ĠsÃ¶der":10901,"Ġinrym":10902,"Ġhastig":10903,"ĠfÃ¶rtroendet":10904,"Ġsund":10905,"ĠHem":10906,"eteck":10907,"ĠAfghan":10908,"ĠmÃ¶ten":10909,"ubven":10910,"Ġlevnad":10911,"Ġmotsatta":10912,"Ġtyckes":10913,"Ġmotsvara":10914,"Ġfogats":10915,"ĠomstÃ¤ndigheterna":10916,"Ġbarnfamiljer":10917,"Ġskattskyldig":10918,"holmen":10919,"ĠAvslut":10920,"plac":10921,"Ġstolt":10922,"Sk":10923,"Ġgent":10924,"Ġ1921":10925,"ĠmÃ¶jliggÃ¶r":10926,"Ġantydde":10927,"ĠtrÃ¤ffade":10928,"ĠÃ¥dagal":10929,"01":10930,"Ġbevillning":10931,"Ġberett":10932,"Ġmatem":10933,"rÃ¤ttens":10934,"ĠIrak":10935,"ĠMigrations":10936,"ĠflÃ¤sk":10937,"Ġstatsk":10938,"ĠRiksbankens":10939,"Ġagerar":10940,"Ġport":10941,"ĠtillsÃ¤ttas":10942,"ĠtrÃ¤der":10943,"Ġsocialdepartementet":10944,"Ġkonventionen":10945,"arett":10946,"Ġ1917":10947,"Ġalt":10948,"Ġmynt":10949,"Ġstockholm":10950,"ĠfÃ¶rstat":10951,"ĠsynsÃ¤tt":10952,"Ã©r":10953,"Ġfullo":10954,"ĠFrÃ¶ken":10955,"ĠfÃ¶rmiddagen":10956,"Ġinnefattar":10957,"Ġverkningarna":10958,"Ġregister":10959,"ĠframgÃ¥":10960,"skridande":10961,"Ġvidly":10962,"ĠefterÃ¥t":10963,"sfÃ¶rbund":10964,"srÃ¤tten":10965,"Ġlab":10966,"ĠstÃ¶tt":10967,"Ġutforma":10968,"Ġsakligt":10969,"bilitet":10970,"Ġflottan":10971,"befolkningen":10972,"drun":10973,"Ġminnas":10974,"rÃ¤kna":10975,"ĠdÃ¶l":10976,"ĠbelÃ¤gg":10977,"ĠvarjÃ¤mte":10978,"ĠLENA":10979,"Ġcenterns":10980,"andrag":10981,"ĠerkÃ¤nt":10982,"Ġorganisations":10983,"ĠGudrun":10984,"ĠhÃ¤star":10985,"ansvaret":10986,"Ġregionalpolitiken":10987,"ĠMÃ¤nniskor":10988,"planen":10989,"Ġbibliotek":10990,"Ġinner":10991,"ĠtillgÃ¤nglig":10992,"Ġuppoffringar":10993,"Ġinform":10994,"rÃ¥l":10995,"ĠVietnam":10996,"Ġglada":10997,"ĠBygg":10998,"ĠLinkÃ¶ping":10999,"ĠÃĸr":11000,"Ġ170":11001,"Ġpalestin":11002,"Ã¤llor":11003,"Ġjusterades":11004,"Ġutvecklats":11005,"Ġfe":11006,"Ġir":11007,"Ġremissinstanser":11008,"ĠAvslutningsvis":11009,"ĠutfÃ¶rande":11010,"ĠhÃ¤nvisad":11011,"Ġbrutt":11012,"Ġrigtning":11013,"Ġsynpunkterna":11014,"ĠnÃ¶jer":11015,"hÃ¶gskolan":11016,"etsen":11017,"ĠpÃ¥frest":11018,"plig":11019,"ĠKvin":11020,"Ġpatent":11021,"ĠFÃ¶rsÃ¤kringskassan":11022,"Ġbisk":11023,"ĠfÃ¶reb":11024,"Ġciterade":11025,"ĠfÃ¶rorsak":11026,"ĠEFTA":11027,"Ġlista":11028,"bladet":11029,"Ġ157":11030,"Ġadministration":11031,"ves":11032,"antin":11033,"Ġavsikten":11034,"seffe":11035,"ĠKi":11036,"Ġkrigsmateriel":11037,"ĠUtlÃ¥tande":11038,"barns":11039,"eijer":11040,"kommittÃ©":11041,"mÃ¶":11042,"ĠpÃ¥stÃ¥enden":11043,"ĠsjukfÃ¶rsÃ¤kring":11044,"Ġanordningar":11045,"ĠsammantrÃ¤det":11046,"ĠskÃ¤rpning":11047,"ĠMarianne":11048,"Ġbefanns":11049,"ĠNya":11050,"ĠERIKSSON":11051,"Ġfastigheten":11052,"zÃ©n":11053,"ĠfÃ¶rsÃ¤kringen":11054,"isa":11055,"Ġfakult":11056,"ĠfÃ¶rstÃ¤rkt":11057,"Ġluften":11058,"Ġstart":11059,"ĠLKAB":11060,"Ġgifta":11061,"ĠupplÃ¤sts":11062,"Ġstatistiska":11063,"ĠPet":11064,"garne":11065,"Ġolycka":11066,"lÃ¤ge":11067,"Ġhvari":11068,"Ġobligatoriska":11069,"37":11070,"Ã¤rende":11071,"Ġkonserva":11072,"Ġfunne":11073,"Ġdyg":11074,"varu":11075,"Ġensamt":11076,"Ġdik":11077,"ĠÃ¥rsskiftet":11078,"Ġinnefattande":11079,"Ġhvart":11080,"ĠavlÃ¶ning":11081,"Ġrevi":11082,"ĠLandst":11083,"Ġstatsbudgeten":11084,"vor":11085,"kade":11086,"cipl":11087,"Ġstannar":11088,"LE":11089,"oat":11090,"Ã¤rks":11091,"Ġsammanslag":11092,"ĠInterpellationen":11093,"Ġ156":11094,"ĠnÃ¤ringsministern":11095,"parat":11096,"anstalten":11097,"Ġarfv":11098,"Ġutomordent":11099,"Ġtorp":11100,"aller":11101,"ifier":11102,"Ġpressa":11103,"Ġriksstatens":11104,"byrÃ¥":11105,"ĠVÃ¤l":11106,"Ġhinna":11107,"ĠanmÃ¤rkt":11108,"Ġmodellen":11109,"Ġdyra":11110,"Ġexpert":11111,"NER":11112,"ĠElm":11113,"usive":11114,"agstiftningen":11115,"sfÃ¶rslaget":11116,"Ġskott":11117,"ĠfÃ¶rÃ¤ndrad":11118,"ĠjÃ¤rnvÃ¤gsstyrelsen":11119,"Ġobestrid":11120,"ĠbÃ¤rande":11121,"fÃ¶rl":11122,"borger":11123,"ĠsammanjÃ¤m":11124,"Ġkommunikationer":11125,"ĠveterinÃ¤r":11126,"Ġtillgripa":11127,"Ġutbyte":11128,"ĠMorgan":11129,"Ġskattem":11130,"ĠHugo":11131,"Ġvittnar":11132,"ĠgrÃ¤nserna":11133,"Ġstegr":11134,"rism":11135,"ĠNog":11136,"ĠStatsministern":11137,"Ġ.........":11138,"ivelaktigt":11139,"Ġfullmakt":11140,"Ġkonvention":11141,"Ġdubbla":11142,"Â§":11143,"Ġstatsministerns":11144,"Ġ151":11145,"ĠvÃ¤goch":11146,"Ġskand":11147,"ĠÃ¤ventyr":11148,"Ġplanet":11149,"Ġstiger":11150,"Ġhygg":11151,"Ġmej":11152,"unna":11153,"Ġlad":11154,"ĠpÃ¥yrk":11155,"ĠÃĦl":11156,"ĠfÃ¤rdigt":11157,"Ġfoder":11158,"ĠBERG":11159,"kÃ¶pings":11160,"Ġenig":11161,"ĠutfÃ¶rligt":11162,"ĠÃ¥terremitt":11163,"Ġkyrkliga":11164,"cer":11165,"ĠSko":11166,"Ġfattats":11167,"Ġbehoven":11168,"Ġkontant":11169,"ĠtjÃ¤nsten":11170,"ytes":11171,"bÃ¥tar":11172,"monopol":11173,"Ġpopul":11174,"ĠrÃ¥dets":11175,"ĠsvÃ¤l":11176,"Ġsocialdemokraternas":11177,"Ġaspekter":11178,"Ġarbetsmarknadspolitiska":11179,"ĠBengtson":11180,"ĠAm":11181,"Ġmedicinalstyrelsen":11182,"ĠAvlÃ¶ningar":11183,"ornas":11184,"ningsmedel":11185,"Ġplanera":11186,"bana":11187,"skostnaden":11188,"Ġarbetsmarknadspolitiken":11189,"Ã¤nka":11190,"Ġhanteras":11191,"Ġefterhand":11192,"Ã¥lder":11193,"ktie":11194,"smiljÃ¶":11195,"ĠInga":11196,"ĠfÃ¶reningen":11197,"ĠfÃ¶rvÃ¤nt":11198,"ĠtillhÃ¶rande":11199,"officer":11200,"ĠbeslÃ¶ts":11201,"ĠfÃ¶rdes":11202,"ĠuppmÃ¤rksamma":11203,"Ã¤rr":11204,"Ġvalsedlar":11205,"Ġindividuella":11206,"Ġbortse":11207,"Ġkommunikationsdepartementet":11208,"Ġtemligen":11209,"ĠvÃ¤ntas":11210,"ĠifrÃ¥gasÃ¤ttas":11211,"ĠGl":11212,"Ġavsked":11213,"ĠanhÃ¶riga":11214,"Ġoh":11215,"ĠRÃ¥":11216,"Ġservic":11217,"ĠPropositionen":11218,"Ġvunn":11219,"Ġbrom":11220,"ittills":11221,"Ġnetto":11222,"myndighet":11223,"Ã¤mbetet":11224,"Ã¤mnen":11225,"ĠfÃ¶rdrÃ¶j":11226,"Ã¤ten":11227,"Ġutbildningar":11228,"nation":11229,"ĠkommittÃ©ns":11230,"Ġstipend":11231,"57":11232,"Ġ154":11233,"Ġogyn":11234,"ĠsocialfÃ¶rsÃ¤kring":11235,"Ġbesynner":11236,"Ġvalda":11237,"kande":11238,"Ġsamvets":11239,"enternas":11240,"ĠifrÃ¥gasÃ¤tter":11241,"ĠBeh":11242,"ĠerlÃ¤gga":11243,"Ġ153":11244,"Ġtacksamhet":11245,"vatiser":11246,"ĠfÃ¶rvÃ¤ntas":11247,"UR":11248,"ĠsÃ¥vida":11249,"maskin":11250,"vinna":11251,"Ġintyg":11252,"stre":11253,"onalekonom":11254,"ttrÃ¤d":11255,"behand":11256,"Ġfritid":11257,"Ġfril":11258,"vÃ¤sen":11259,"nasti":11260,"ĠBohu":11261,"ftigt":11262,"ortera":11263,"Ġskala":11264,"irekta":11265,"Ġvattenfalls":11266,"ĠberÃ¤knat":11267,"Ġanalysera":11268,"Ġtullar":11269,"ĠLENNART":11270,"Ġtidig":11271,"Ġvana":11272,"rÃ¤tta":11273,"ĠfÃ¶rstnÃ¤mnda":11274,"Ġ.......":11275,"wald":11276,"Ġgynna":11277,"ĠAfghanistan":11278,"Ġnati":11279,"Ġstadgas":11280,"ICE":11281,"ĠpÃ¥verkan":11282,"Ġstryka":11283,"Ġrer":11284,"Ġecklesiastikdepartementet":11285,"ĠpensionÃ¤r":11286,"ĠinvÃ¤ndning":11287,"Ġloj":11288,"dik":11289,"Ġhotar":11290,"Ġstyrning":11291,"Ġskrivelsen":11292,"ĠlÃ¤tta":11293,"ĠframstÃ¤lda":11294,"Ġcenterparti":11295,"ĠsammanhÃ¤nger":11296,"ĠnÃ¶ds":11297,"ordningar":11298,"Ġyrken":11299,"ĠfÃ¶rmyn":11300,"Ġerfarenheterna":11301,"ĠDepartements":11302,"likten":11303,"Ġvanligen":11304,"Ġinformationen":11305,"ĠRadio":11306,"ĠfÃ¶rkast":11307,"ĠfÃ¶renings":11308,"Ġgrupperna":11309,"Ġartiklar":11310,"skat":11311,"savgiften":11312,"Ġfrest":11313,"iering":11314,"ĠDel":11315,"frÃ¥nkom":11316,"ond":11317,"Ġvadan":11318,"ĠJOHAN":11319,"ETA":11320,"ĠStorbritannien":11321,"Ġunderord":11322,"Ã¤kert":11323,"princi":11324,"ĠanvÃ¤nts":11325,"Ġbarnfamiljerna":11326,"Ġinval":11327,"ener":11328,"ĠSol":11329,"Ġfaran":11330,"elagen":11331,"Ġbindande":11332,"ĠnÃ¤mnas":11333,"ĠhvarfÃ¶re":11334,"ĠdÃ¤rutÃ¶ver":11335,"sedel":11336,"Ġlindring":11337,"Ġutav":11338,"assel":11339,"ĠfÃ¶rvÃ¥nande":11340,"jÃ¤rn":11341,"ĠbÃ¶ter":11342,"ĠFÃ¶ret":11343,"ĠskattesÃ¤nkning":11344,"anlÃ¤ggningar":11345,"ĠHenrik":11346,"Ġbearbet":11347,"sfÃ¶re":11348,"Ġmargarin":11349,"Ġviljan":11350,"ssektorn":11351,"esel":11352,"ĠCe":11353,"sinne":11354,"Ġ158":11355,"samman":11356,"sspar":11357,"Ġlikgil":11358,"ĠfÃ¶retagas":11359,"Ġsvaren":11360,"Ġindirekta":11361,"Ġlyssnade":11362,"Ġflyttas":11363,"hult":11364,"norr":11365,"ĠhÃ¤vdat":11366,"ĠSocialminister":11367,"Ġgymnasiet":11368,"Ġbinda":11369,"ĠÃ¶verl":11370,"ĠfÃ¶rtjÃ¤nst":11371,"Ġstabilitet":11372,"ĠofrÃ¥nkom":11373,"Ġpansar":11374,"Ġkonsumtions":11375,"ige":11376,"ĠvÃ¤nt":11377,"ĠfÃ¶rstod":11378,"Ã¶pa":11379,"Ġgodtag":11380,"Ġjordbruksf":11381,"ĠNato":11382,"ĠlÃ¶nsamhet":11383,"ĠRiksrevisionen":11384,"miljÃ¶n":11385,"ĠstÃ¤llningen":11386,"ĠfÃ¶rutsÃ¤tta":11387,"Ġbeskattas":11388,"Ġfir":11389,"Ġhastigt":11390,"ĠÃ¶vergÃ¥":11391,"ĠfÃ¶rsvÃ¥r":11392,"Ġnarkotik":11393,"ĠDem":11394,"ĠbenÃ¤m":11395,"Ã¤nder":11396,"last":11397,"Ġofficerare":11398,"fÃ¶rt":11399,"Ġoppositionens":11400,"ĠAfrika":11401,"Ġskede":11402,"ĠSw":11403,"statisti":11404,"Ġsocialminister":11405,"ĠÃ¥tergÃ¥":11406,"Ġbredare":11407,"ĠÃ¶kats":11408,"Ġsyd":11409,"Ġformerna":11410,"ĠinrÃ¤ttandet":11411,"Ġ?":11412,"ĠhÃ¶gskola":11413,"mÃ¤ktiges":11414,"Ġangiven":11415,"ĠÃ¥rlig":11416,"egat":11417,"ĠDeras":11418,"ĠSN":11419,"ĠuppÃ¥t":11420,"urt":11421,"Ġkassa":11422,"direkt":11423,"Ġcirkul":11424,"Ġgrefve":11425,"ril":11426,"tell":11427,"tio":11428,"ĠsÃ¥r":11429,"ativet":11430,"Ġresurs":11431,"skollÃ¤rare":11432,"ĠfÃ¶rÃ¤ndrats":11433,"ĠDock":11434,"ĠfÃ¶rsÃ¶":11435,"Ġpraktik":11436,"ĠUdde":11437,"Ġstorstad":11438,"ĠslÃ¥s":11439,"Ġerforderligt":11440,"anpass":11441,"itÃ©n":11442,"ĠberÃ¤kningen":11443,"Ġborgen":11444,"ĠpensionÃ¤rerna":11445,"ĠMiljÃ¶partiets":11446,"Ã¤gget":11447,"ĠlagrÃ¥det":11448,"Ġglesbygd":11449,"ĠinskrÃ¤nk":11450,"ĠSkill":11451,"Ġdeltids":11452,"Ġhalva":11453,"ĠarmÃ©ns":11454,"ĠtjÃ¤nstemÃ¤nnen":11455,"IKAEL":11456,"gliga":11457,"ĠofÃ¶rm":11458,"ĠBranting":11459,"Ġbuds":11460,"ĠMIKAEL":11461,"shjÃ¤l":11462,"ĠderifrÃ¥n":11463,"ĠDA":11464,"Ġlikasom":11465,"Ġ/":11466,"Ġ149":11467,"Ġtyngd":11468,"Ġbudgetunder":11469,"sfÃ¶rslag":11470,"ffekter":11471,"Ġkriter":11472,"ningsverksamhet":11473,"ĠÃ¶ppenhet":11474,"Ġupptog":11475,"Ġreservant":11476,"fÃ¶rrÃ¤tt":11477,"31":11478,"sfÃ¶rm":11479,"Ġreakt":11480,"ĠlÃ¶nes":11481,"Ġhands":11482,"Ġkvalificerad":11483,"ĠtÃ¤t":11484,"ĠfÃ¶rfattningar":11485,"Ġnormer":11486,"Ġbetrygg":11487,"ĠstÃ¤rker":11488,"untra":11489,"rÃ¤knade":11490,"ĠTredje":11491,"Ġfungerat":11492,"Ġregelverket":11493,"Ġdemonstra":11494,"mÃ¥let":11495,"makterna":11496,"Ġblifver":11497,"Ġriskera":11498,"Ġneka":11499,"ĠModeraternas":11500,"Ġvuxit":11501,"vju":11502,"Ġytterligt":11503,"ĠvÃ¤lfÃ¤rds":11504,"ellersta":11505,"Ġexemplet":11506,"ĠutvÃ¤rder":11507,"ĠtÃ¤v":11508,"Ġuppkommit":11509,"Ġstatsut":11510,"ĠderstÃ¤des":11511,"Ġpresenterat":11512,"ĠSÃ¶dertÃ¤lje":11513,"Ġbefallningshafvande":11514,"ĠHÃ¤rtill":11515,"ĠgenomfÃ¶rd":11516,"ĠBergman":11517,"skifte":11518,"Ġarbetsgif":11519,"Ġnamnet":11520,"ĠstrÃ¤cka":11521,"ĠonÃ¶dig":11522,"ĠbÃ¤rk":11523,"ski":11524,"ĠAlex":11525,"ĠrÃ¤kenskap":11526,"Ġforskar":11527,"Ġkonferens":11528,"ĠpÃ¥stÃ¥tt":11529,"Ġmalt":11530,"ĠframfÃ¶rda":11531,"Ġsanktioner":11532,"Ġinformer":11533,"Ġmedborger":11534,"Ġslutade":11535,"Ġbostadsbyggande":11536,"Ġ1923":11537,"Ã¤mnden":11538,"ĠfÃ¶rhoppningsvis":11539,"Ġobligationer":11540,"iserad":11541,"Ġuppleva":11542,"rÃ¤kningen":11543,"Ġ152":11544,"ou":11545,"ĠlÃ¤roplan":11546,"ĠbostadsrÃ¤tt":11547,"enberg":11548,"Ġhuset":11549,"Ġstatsbidraget":11550,"Ġunderkasta":11551,"Ġrekrytering":11552,"ĠBildt":11553,"tsam":11554,"ĠlÃ¶negrad":11555,"Ġverkstad":11556,"Ġlivsmedels":11557,"Ġotvivelaktigt":11558,"Ġfarlig":11559,"ĠpÃ¥tagligt":11560,"ĠÃ¶verv":11561,"Ġyttrar":11562,"ĠgodkÃ¤nnas":11563,"nelse":11564,"Ġfunnes":11565,"Ġkolleger":11566,"Ġanslogs":11567,"ĠbelÃ¥t":11568,"intressen":11569,"Ġafskri":11570,"smÃ¶jligheter":11571,"terad":11572,"osof":11573,"brand":11574,"lÃ¶sning":11575,"ARD":11576,"Ġteko":11577,"ssamman":11578,"Ġanlita":11579,"ĠmÃ¤nnen":11580,"Ġrygg":11581,"timmar":11582,"fÃ¶rsÃ¤ljning":11583,"Ġuppfyller":11584,"ĠMarie":11585,"ĠintrÃ¤da":11586,"ĠMartin":11587,"Ġindividen":11588,"ĠutvÃ¤rdera":11589,"ĠvidhÃ¥lla":11590,"ĠÃ¥lderspres":11591,"Ġorda":11592,"Ġdoktor":11593,"Ġkamrater":11594,"ĠlandshÃ¶vd":11595,"ĠfÃ¶rhandla":11596,"Ġobef":11597,"ĠpÃ¥stod":11598,"ĠStÃ¥":11599,"Ġargumentation":11600,"Ġbemyndiga":11601,"Ġmotionstiden":11602,"ĠSkÃ¶v":11603,"omrÃ¥dena":11604,"Ġinklusive":11605,"ĠHEL":11606,"Ġpresenterade":11607,"Ġframgick":11608,"ĠÃ¥stadkommit":11609,"Ġkritisera":11610,"ĠHÃ¥kan":11611,"Ġstyrelser":11612,"ĠmÃ¥naderna":11613,"landa":11614,"ĠnÃ¤ringsutskottet":11615,"myndigheterna":11616,"arr":11617,"Ġprioritering":11618,"Ġnationalekonom":11619,"Ġuppkommer":11620,"aken":11621,"ĠfÃ¶renligt":11622,"kunniga":11623,"ĠjernvÃ¤gar":11624,"ĠtillfÃ¶rs":11625,"Ġerbjud":11626,"ĠAnita":11627,"ĠstÃ¤dernas":11628,"Ġuppmuntra":11629,"Ġdevalver":11630,"saken":11631,"ĠbitrÃ¤de":11632,"ĠfÃ¶rnyelse":11633,"Ġspridning":11634,"pens":11635,"ĠSÃĸ":11636,"ĠframfÃ¶rde":11637,"Ġkortsik":11638,"fÃ¤st":11639,"gningen":11640,"ĠfolkmÃ¤ng":11641,"valet":11642,"ĠoundgÃ¤ng":11643,"lÃ¤gges":11644,"ĠfÃ¶ljde":11645,"Ġbetydelsefullt":11646,"Ġexpansion":11647,"ĠGUSTAF":11648,"revs":11649,"ostnaderna":11650,"ĠfaststÃ¤llda":11651,"ĠomprÃ¶":11652,"Ġtron":11653,"Ġ1922":11654,"Ġ.....":11655,"Ġtradition":11656,"ient":11657,"num":11658,"Ġriktas":11659,"Ġkronofog":11660,"NU":11661,"Ġsve":11662,"Ġarbetsgrupp":11663,"Ġmeddelat":11664,"66":11665,"Ġrusdryck":11666,"Ġavskriv":11667,"ĠsammanhÃ¤ngande":11668,"Ġfonder":11669,"EDT":11670,"Ġslipper":11671,"sprÃ¶vning":11672,"Ġenahanda":11673,"ĠÃ¶ppnar":11674,"Ġgenerationer":11675,"ĠKARIN":11676,"ĠJoh":11677,"ĠRegerings":11678,"ĠOlofsson":11679,"Ġsinnessjuk":11680,"havande":11681,"Ã¤sning":11682,"asta":11683,"Ġvattenbyggnads":11684,"Ġbefogenheter":11685,"oppar":11686,"ĠavgÃ¶ras":11687,"Ġprivatiser":11688,"Ġindelnings":11689,"band":11690,"Ġberodde":11691,"Ġkolon":11692,"ĠstrÃ¤ngt":11693,"Ġbostadsmarknaden":11694,"Ġpolem":11695,"Ġkvalificerade":11696,"Ġpoj":11697,"Ġdiktatur":11698,"ĠStrand":11699,"ĠtrÃ¤ffas":11700,"ĠBergqvist":11701,"ĠNORD":11702,"Ġee":11703,"Ġbetryggande":11704,"Ġupplyst":11705,"Ġexisterar":11706,"ĠLindstrÃ¶m":11707,"Ġegendomen":11708,"Ġ161":11709,"Ġbostadsbidrag":11710,"Ġlandsbygds":11711,"ĠAMS":11712,"ĠTull":11713,"Ġupprepat":11714,"ssssss":11715,"Ġverkat":11716,"Ġsmi":11717,"Ġvilar":11718,"ĠtillÃ¤t":11719,"Ġmedvetet":11720,"Ġinbju":11721,"Ġavgifterna":11722,"ionde":11723,"llh":11724,"vig":11725,"Ġenergis":11726,"stÃ¤llnings":11727,"ĠnÃ¤stkommande":11728,"Ġdeltog":11729,"Ġ175":11730,"Ġkonstateras":11731,"ĠfÃ¶rvÃ¤rva":11732,"struktionen":11733,"stav":11734,"Ġorganisator":11735,"ĠDÃ¤rigenom":11736,"ĠSkÃ¶vde":11737,"ĠvÃ¤lstÃ¥nd":11738,"splikt":11739,"regel":11740,"mÃ¤gtige":11741,"ĠAndr":11742,"Ġfogad":11743,"Ġbetecknas":11744,"Ġkemikal":11745,"Ġtillt":11746,"ĠÃ¶vertyg":11747,"Ġdyrorts":11748,"ĠFRED":11749,"Ã¥rsperiod":11750,"ĠhushÃ¥llningssÃ¤llskap":11751,"800":11752,"valda":11753,"Ġtransports":11754,"ĠfÃ¶rlorade":11755,"Ġdisposition":11756,"Ġbestridande":11757,"Ġ..........":11758,"ĠLiberalerna":11759,"stram":11760,"Ġbre":11761,"Ġert":11762,"Ġskyldigheten":11763,"IS":11764,"frÃ¥gasatt":11765,"iffrorna":11766,"Ġtvingats":11767,"Ġsysselsatta":11768,"mod":11769,"Ġutlov":11770,"lÃ¤gsen":11771,"Ġkompletterande":11772,"ĠmÃ¤nnisko":11773,"ĠSamtliga":11774,"Ġvigtig":11775,"Ġredogjort":11776,"ĠgehÃ¶r":11777,"ĠdrÃ¶m":11778,"Ġupprik":11779,"rÃ¤knas":11780,"54":11781,"ĠfÃ¶rskjut":11782,"ĠutÃ¶fver":11783,"ĠÃħsa":11784,"hop":11785,"Ġavkastning":11786,"bak":11787,"ĠpÃ¥tryck":11788,"ĠStatsverks":11789,"ĠfÃ¶ranledde":11790,"ĠFolkpartiets":11791,"Ġundvikas":11792,"ĠgodkÃ¤nd":11793,"vos":11794,"ĠrÃ¥dde":11795,"inav":11796,"forss":11797,"ĠfÃ¶reslaget":11798,"ĠbrÃ¶d":11799,"ite":11800,"Ġbeman":11801,"Ġslakt":11802,"Ġtillkomma":11803,"ĠUtrikesminister":11804,"Ġ165":11805,"Ġkonflikten":11806,"krafttrÃ¤d":11807,"Ġproje":11808,"ĠmilitÃ¤rt":11809,"ĠRA":11810,"Ġutland":11811,"ĠvÃ¤gunder":11812,"Ġplanerings":11813,"ĠgÃ¤ng":11814,"Ġdisponer":11815,"Ġallsidig":11816,"Ġsannolikhet":11817,"Ġutesl":11818,"Ġyrkade":11819,"ĠorÃ¤ttvist":11820,"Ġtilltro":11821,"Ġrekommendera":11822,"Ġyttrandet":11823,"ĠMÃ¶r":11824,"ĠLÃ¤ns":11825,"Ġinrikesministern":11826,"ĠutsÃ¤tts":11827,"Ġvinsten":11828,"ĠLu":11829,"Ġplocka":11830,"Ġkollektivtrafik":11831,"fattande":11832,"Ġanordna":11833,"ĠIngrid":11834,"meter":11835,"Ġvittnes":11836,"Ġsil":11837,"undersÃ¶kning":11838,"Ġnyttig":11839,"Ġorimliga":11840,"ĠskÃ¤rpt":11841,"ftiga":11842,"ĠsÃ¤ljer":11843,"imin":11844,"parten":11845,"INE":11846,"Ġ2005":11847,"maktens":11848,"Ġkategorier":11849,"Ġexploat":11850,"oger":11851,"Ġupptagit":11852,"rup":11853,"Ġstadganden":11854,"ĠengÃ¥ng":11855,"ĠfÃ¶retagarna":11856,"ĠvÃ¤gled":11857,"STEDT":11858,"ĠBel":11859,"sesi":11860,"Ġvinnande":11861,"Ġkombination":11862,"Ġhoppats":11863,"ĠkÃ¤mpa":11864,"Ġvidtar":11865,"ĠVÃ¤sterbottens":11866,"vatt":11867,"Ġakut":11868,"ham":11869,"Ġratif":11870,"co":11871,"ĠDÃ¤rjÃ¤mte":11872,"tillstÃ¥nd":11873,"ĠvidkÃ¤nnas":11874,"ĠSTR":11875,"Ġmotionerat":11876,"BR":11877,"byggda":11878,"Ġparagrafer":11879,"ĠtillmÃ¶tesgÃ¥":11880,"ĠStig":11881,"Ġbesparings":11882,"Ġdro":11883,"Ġundra":11884,"Ġlikad":11885,"Ġ159":11886,"Ġuttalats":11887,"ĠbegrÃ¤nsningar":11888,"Ġavsluta":11889,"ĠfjolÃ¥rets":11890,"ĠstÃ¤llningstaganden":11891,"ĠfortsÃ¤ttningsvis":11892,"uller":11893,"rekvens":11894,"zelius":11895,"ĠHjelm":11896,"ĠKristensson":11897,"ild":11898,"Ġrelationer":11899,"kontoret":11900,"talien":11901,"Ġinkomstskatt":11902,"Ġ2004":11903,"Ġregleras":11904,"ĠmedlemslÃ¤n":11905,"ĠriksdagsledamÃ¶ter":11906,"ĠfÃ¶rvand":11907,"Ġpotatis":11908,"Ġuppslag":11909,"ĠutjÃ¤m":11910,"ĠTillfÃ¤ll":11911,"ĠsÃ¤mst":11912,"ĠtillÃ¥tet":11913,"Ġkaffe":11914,"ĠrÃ¤ntor":11915,"ĠfÃ¶rlÃ¤ggning":11916,"ĠfÃ¶rslagets":11917,"Ġpriskontroll":11918,"Ġreagera":11919,"GE":11920,"Ġreservanten":11921,"Ġgranskningen":11922,"ĠsjÃ¤lvstÃ¤ndighet":11923,"uppe":11924,"Ġplanerar":11925,"gym":11926,"skontorets":11927,"ĠinskrÃ¤nker":11928,"Ġsatsningen":11929,"ĠhÃ¤romdagen":11930,"ĠCent":11931,"Ġbelysning":11932,"ĠWesterberg":11933,"ĠÃ¶verensstÃ¤mmer":11934,"Ġflyget":11935,"ĠTrollh":11936,"ĠlÃ¶ntagarna":11937,"Ġmekan":11938,"Ġbeskriva":11939,"ĠUtvecklingen":11940,"ĠtjenstgÃ¶ring":11941,"ĠWinberg":11942,"fattningen":11943,"Ġriksdagsarbetet":11944,"beredskap":11945,"ĠfÃ¶rvÃ¤ntar":11946,"Ġgas":11947,"fattat":11948,"Ġavvecklas":11949,"ĠÃ¶msesi":11950,"ĠBol":11951,"lighetens":11952,"Ġsocialdemokrati":11953,"ĠÃĸstergÃ¶t":11954,"Ġfruktar":11955,"ĠLindqvist":11956,"jor":11957,"fÃ¶ringen":11958,"ĠstatsrÃ¥ds":11959,"ĠutlÃ¤nning":11960,"Ġovillkorligen":11961,"ĠupprÃ¤kning":11962,"sig":11963,"stÃ¤rk":11964,"Ġomfattningen":11965,"ĠanslÃ¥":11966,"Ġstilla":11967,"Ġinterpellationssvaret":11968,"ĠtrÃ¶":11969,"ĠersÃ¤ttningar":11970,"ista":11971,"Ġattack":11972,"KE":11973,"ĠfÃ¤ltet":11974,"Ġbemyndigande":11975,"ĠunderstÃ¶dja":11976,"Ġunderstrukit":11977,"ssÃ¶kande":11978,"Ġslaget":11979,"Ġnon":11980,"En":11981,"hushÃ¥llning":11982,"lige":11983,"ille":11984,"ĠanhÃ¤ngare":11985,"ĠFeldt":11986,"ĠjÃ¤mlikhet":11987,"Ġslog":11988,"Ġmetoden":11989,"Ġrepresentera":11990,"ĠmÃ¤rkvÃ¤rdigt":11991,"ĠbetÃ¤nkligt":11992,"Ġglas":11993,"Ġteat":11994,"Ġprioriteringar":11995,"kÃ¥r":11996,"Ġsjukpenning":11997,"ĠundersÃ¶kningen":11998,"Ġdjupa":11999,"Ã¤tten":12000,"fÃ¶rvÃ¤rv":12001,"Ġutnyttjar":12002,"Ġreligions":12003,"Ġperspektivet":12004,"ĠmÃ¤ngder":12005,"laga":12006,"ĠtillgÃ¤nglighet":12007,"ĠspÃ¤nnande":12008,"ĠtillfÃ¶ra":12009,"ĠHuvud":12010,"ĠsocialtjÃ¤nst":12011,"ĠKil":12012,"ĠFÃ¶rra":12013,"Ġklasser":12014,"produc":12015,"ĠWikstrÃ¶m":12016,"ĠCivil":12017,"ĠprÃ¶vningen":12018,"ben":12019,"seq":12020,"Ġefterm":12021,"ĠsvÃ¤":12022,"sbeskattningen":12023,"Ġmun":12024,"ĠEkonom":12025,"Ġgrand":12026,"mÃ¤staren":12027,"ĠstatstjÃ¤nstem":12028,"agÃ¥ng":12029,"byrÃ¥n":12030,"vÃ¤nner":12031,"ĠNe":12032,"Ġberedningen":12033,"Ġskytt":12034,"pengar":12035,"Ġrot":12036,"ĠvÃ¤ghÃ¥llnings":12037,"ĠÃ¤gnade":12038,"Ġstudiemedel":12039,"ĠfÃ¤ster":12040,"ĠGrefven":12041,"saf":12042,"Ġbetydlig":12043,"ĠBeck":12044,"Ġmajoritetens":12045,"ĠIfrÃ¥gasatt":12046,"Ġparten":12047,"ĠtillgodogÃ¶ra":12048,"elander":12049,"Ġarvode":12050,"ĠFREDRIK":12051,"Ġmarkera":12052,"Ġvoteringen":12053,"ĠStora":12054,"agens":12055,"Ġmenat":12056,"ĠFisk":12057,"ĠLundstrÃ¶m":12058,"wei":12059,"Ġnom":12060,"ĠbesvÃ¤rliga":12061,"Ġtillsattes":12062,"ĠfÃ¶rskott":12063,"ĠikrafttrÃ¤d":12064,"Ġmedverkat":12065,"ĠÃ¥syftade":12066,"Ġogill":12067,"ĠfortlÃ¶":12068,"Ġed":12069,"betyg":12070,"Ġmotiverar":12071,"ionerna":12072,"ĠrÃ¶rde":12073,"rÃ¥ken":12074,"Ġattityd":12075,"Ġneddrag":12076,"sfÃ¶rhÃ¥llanden":12077,"atell":12078,"ĠfortgÃ¥":12079,"Ġskattesystemet":12080,"ĠMARIA":12081,"Ġenheter":12082,"Ġmarknadsekonom":12083,"dats":12084,"sjuk":12085,"Ġfjer":12086,"ĠHerrarne":12087,"Ġsaklig":12088,"ĠSkogs":12089,"Ġ1910":12090,"stt":12091,"Ġhamnat":12092,"bestÃ¤mmelserna":12093,"iteter":12094,"ĠKommunikations":12095,"ĠPo":12096,"Ġupplev":12097,"ĠERIC":12098,"Ġmedgifver":12099,"ssituationen":12100,"ĠLant":12101,"ĠlÃ¤ngd":12102,"ĠinfÃ¶rde":12103,"ĠvÃ¥gat":12104,"rip":12105,"ĠVol":12106,"Ġ162":12107,"Ġbidragen":12108,"Ġhanteringen":12109,"Ġstadgar":12110,"regering":12111,"Ġkommersiella":12112,"ingenjÃ¶r":12113,"invand":12114,"bedÃ¶m":12115,"ĠomnÃ¤mnda":12116,"centen":12117,"Ġanseende":12118,"ĠÃ¥hÃ¶r":12119,"Ġhistoriskt":12120,"Ġplacera":12121,"ĠskadestÃ¥nd":12122,"finansiering":12123,"balken":12124,"ĠrÃ¤ttare":12125,"ĠSS":12126,"yrelsen":12127,"Ġinbl":12128,"weiz":12129,"Ġmedgivande":12130,"ĠfrÃ¥gas":12131,"ĠlÃ¶nefÃ¶r":12132,"ĠÃ¤ganderÃ¤tten":12133,"ĠGÃ¶sta":12134,"Ġbeskedet":12135,"ĠvÃ¤rda":12136,"ĠuppmÃ¤rksammat":12137,"ĠnedskÃ¤rningar":12138,"Ġkretsar":12139,"ombudsmannen":12140,"Ġutm":12141,"fÃ¥ng":12142,"ĠKÃ¶pen":12143,"sering":12144,"ĠÃ¥lderspresident":12145,"Ġstr":12146,"Ġplacering":12147,"gats":12148,"Ġuppfin":12149,"Ġinterpellationssvar":12150,"Ġkulturen":12151,"ĠBÃ¶rjesson":12152,"Ġbifallen":12153,"Ġombuds":12154,"ĠFil":12155,"ciplin":12156,"dda":12157,"Ġ163":12158,"ĠlÃ¤ttnad":12159,"ĠskattehÃ¶jningar":12160,"materiel":12161,"ĠEK":12162,"ĠrÃ¶dg":12163,"cil":12164,"ĠskÃ¤ra":12165,"ĠpÃ¥visa":12166,"talets":12167,"ĠuppbÃ¤ra":12168,"Ġinterpellationsdebatt":12169,"ĠkÃ¤nslan":12170,"ĠYtterligare":12171,"Ġenas":12172,"Ġpekade":12173,"ĠframlÃ¤ggas":12174,"hÃ¶jningen":12175,"Ġbrottsoff":12176,"Ġ1907":12177,"ĠUll":12178,"ĠReuter":12179,"stÃ¤mma":12180,"ĠfÃ¶rmÃ¥nen":12181,"yp":12182,"ĠhÃ¤nseendet":12183,"Ġsyften":12184,"ĠsÃ¤kerhetspolitiska":12185,"ĠdrÃ¶jsmÃ¥let":12186,"Ġbehagade":12187,"ĠTrygger":12188,"nÃ¤s":12189,"Ġremissinstans":12190,"ĠEVA":12191,"Ġerinringar":12192,"folket":12193,"Ġlju":12194,"Ġsyntes":12195,"Ġ2011":12196,"ĠmÃ¶nster":12197,"ĠanlÃ¤gga":12198,"ĠrÃ¤ttelse":12199,"berÃ¤ttigade":12200,"ĠstÃ¥ndpunkter":12201,"motionen":12202,"ĠfÃ¶relÃ¤ggas":12203,"52":12204,"ĠskÃ¤rpta":12205,"Ġkritisk":12206,"Ġklander":12207,"Ġuppskjuta":12208,"ĠanmÃ¤rkningen":12209,"ĠmervÃ¤rde":12210,"ĠOtt":12211,"Ġilleg":12212,"ancer":12213,"innan":12214,"ĠfrÃ¥ngÃ¥":12215,"Ã¶relsen":12216,"sko":12217,"ĠNaturvÃ¥rds":12218,"400":12219,"ĠfullstÃ¤ndiga":12220,"formation":12221,"sbestÃ¤mmelser":12222,"ĠnyssnÃ¤mnda":12223,"Ġkanal":12224,"Ġkomplex":12225,"ĠutÃ¶fva":12226,"Ġbemed":12227,"spolitiskt":12228,"Ġriktad":12229,"ĠverkstÃ¤llas":12230,"infl":12231,"hÃ¥lles":12232,"ĠvÃ¥rda":12233,"ĠsÃ¥vidt":12234,"ĠutlÃ¤m":12235,"perspektiv":12236,"krafter":12237,"FÃ¶r":12238,"ĠstÃ¤ndiga":12239,"Ġenty":12240,"holms":12241,"kol":12242,"ĠfÃ¶reskrift":12243,"Ġdagligen":12244,"Ġyrkesutbildning":12245,"ĠAvs":12246,"ĠWid":12247,"Ġorganiserade":12248,"ĠsakfrÃ¥gan":12249,"brist":12250,"ĠÃ¥terkommande":12251,"Ġutses":12252,"Ġback":12253,"Ġtidens":12254,"Ġtrett":12255,"Ġoparti":12256,"ĠAP":12257,"slund":12258,"Ġrepet":12259,"Ġkongress":12260,"ĠEngberg":12261,"Ġuniversitetet":12262,"ĠfÃ¶rbudet":12263,");":12264,"Ġkyrka":12265,"Ġadvok":12266,"artad":12267,"ĠtillvÃ¤g":12268,"ningsrÃ¤tten":12269,"bilar":12270,"Ġskattesystem":12271,"Ã¶dsel":12272,"skÃ¤n":12273,"skÃ¥dning":12274,"tift":12275,"ĠÃ¶vertog":12276,"Ġpensionering":12277,"ĠMATS":12278,"ĠtillmÃ¤":12279,"ĠstÃ¶rst":12280,"boken":12281,"Ġlatin":12282,"savgifter":12283,"Ġursprungligen":12284,"Ġegnahems":12285,"ĠskolvÃ¤sendet":12286,"ungande":12287,"Ġborttagande":12288,"ĠanmÃ¤lda":12289,"ĠSundberg":12290,"garen":12291,"DT":12292,"ĠfÃ¶rfÃ¶lj":12293,"Ġovilkor":12294,"Ġbostadspolitiken":12295,"Ġfordran":12296,"end":12297,"skÃ¶ts":12298,"ĠKar":12299,"ĠvÃ¤ldiga":12300,"beredningens":12301,"lva":12302,"Ġme":12303,"ĠGrund":12304,"ĠÃ¥terhÃ¥ll":12305,"Ġogynnsam":12306,"Ġsty":12307,"Ġsammanslut":12308,"ĠupprÃ¤tta":12309,"ĠrÃ¥tt":12310,"ĠtÃ¤tor":12311,"Ġsednare":12312,"Ġtekniken":12313,"runa":12314,"ĠChrist":12315,"03":12316,"tiker":12317,"Ġtroligt":12318,"Ġsjunkit":12319,"Ġbeviljat":12320,"skas":12321,"Ġdomstolar":12322,"etabl":12323,"ssp":12324,"hjel":12325,"ĠÃ¶verlÃ¥t":12326,"Ġkonstruktion":12327,"ĠBromma":12328,"fyll":12329,"Ġarbetade":12330,"lagdt":12331,"skapets":12332,"oren":12333,"ĠYlva":12334,"Ġroligt":12335,"Ġgrova":12336,"ĠÃ¥rsk":12337,"Ġpet":12338,"Ġautomatiskt":12339,"Ġ1932":12340,"ĠBra":12341,"ĠbefrÃ¤m":12342,"ĠfattigvÃ¥rds":12343,"Ã¤gande":12344,"Ġschabl":12345,"Ġgren":12346,"RID":12347,"Ġ1936":12348,"ĠLika":12349,"ĠfÃ¶rsvarsfrÃ¥gan":12350,"stjÃ¤nster":12351,"ĠAdolf":12352,"Ġoviss":12353,"Ġetablering":12354,"ĠHÃ¶rn":12355,"ĠjÃ¤mfÃ¶relser":12356,"journ":12357,"ĠsÃ¤nker":12358,"ĠojÃ¤m":12359,"ĠavstÃ¥r":12360,"ĠHÃ¶j":12361,"ccis":12362,"ĠvarpÃ¥":12363,"ĠPolen":12364,"onden":12365,"OTH":12366,"Ġvilligt":12367,"ĠLith":12368,"ĠkÃ¶pe":12369,"politikens":12370,"Ġosk":12371,"Ġ1927":12372,"Ġtryggheten":12373,"ĠHedin":12374,"anslaget":12375,"ĠIngem":12376,"ĠÃ¶vertygade":12377,"Ġkunn":12378,"liv":12379,"Ġgivna":12380,"ĠutÃ¶kning":12381,"ĠpÃ¥pekats":12382,"ĠbÃ¶cker":12383,"Ġmanliga":12384,"ĠAnnika":12385,"Ġtalarstol":12386,"Ġanti":12387,"stvÃ¥ng":12388,"Ġinb":12389,"ĠFranzÃ©n":12390,"Ã¤ndringen":12391,"64":12392,"Ġfrihets":12393,"ĠfÃ¤rd":12394,"Ġankommer":12395,"ĠfÃ¶rbundet":12396,"vakningen":12397,"ĠfortlÃ¶pande":12398,"Ġobetydliga":12399,"sfÃ¶rbundet":12400,"ĠOskar":12401,"ĠVÃ¤x":12402,"ĠForss":12403,"Ġriksdagar":12404,"Ġblifvande":12405,"ETH":12406,"Ġstadgandet":12407,"38":12408,"Ġleverera":12409,"ĠgrannlÃ¤nder":12410,"Ġtillkall":12411,"yttring":12412,"Ġgrundad":12413,"TER":12414,"ĠinbÃ¶r":12415,"ĠHult":12416,"urserna":12417,"ĠKent":12418,"Ġskogsbruk":12419,"Ġaccepterat":12420,"ĠsÃ¤nkas":12421,"ĠlÃ¤mpligaste":12422,"ĠClaes":12423,"Ġordnad":12424,"lÃ¤nd":12425,"Ġnot":12426,"ĠAD":12427,"sproblemen":12428,"ĠRisk":12429,"Ġklin":12430,"ĠsammantrÃ¤den":12431,"Ġidrotten":12432,"75":12433,"Ġtillkomst":12434,"ĠBod":12435,"Ġpassiv":12436,"Ġ350":12437,"ĠStefan":12438,"Ġsamvete":12439,"ĠFÃ¤ll":12440,"Ġtrycket":12441,"Ġtillgodosedda":12442,"Ġkandid":12443,"Ġuppfattade":12444,"Ġkompensera":12445,"sproduktionen":12446,"ĠoÃ¤nd":12447,"ĠKoppar":12448,"ĠUtÃ¶ver":12449,"ĠfÃ¶rordnande":12450,"skonferensen":12451,"ÃĦL":12452,"str":12453,"ola":12454,"Ġvisas":12455,"jutit":12456,"Ġfing":12457,"ĠutanfÃ¶rskap":12458,"grÃ¤":12459,"vinst":12460,"Ġtionde":12461,"empel":12462,"derÃ¥":12463,"ĠutnÃ¤m":12464,"ĠvÃ¤cktes":12465,"ĠJÃ¶nkÃ¶ping":12466,"ĠUN":12467,"underlaget":12468,"Ġproblematiken":12469,"Ã¤nda":12470,"Ġenergik":12471,"ĠfÃ¶rlÃ¤ggas":12472,"fÃ¶rÃ¤ndringar":12473,"ĠtÃ¤cktes":12474,"ĠstadsfullmÃ¤ktige":12475,"ĠtillgÃ¥":12476,"Ġ164":12477,"Ġdoll":12478,"riksdagen":12479,"Ġegentlig":12480,"Ġminne":12481,"ĠhÃ¤nvisat":12482,"ĠutÃ¶ka":12483,"ĠskÃ¤ligt":12484,"onne":12485,"mÃ¤ssig":12486,"ostÃ¤der":12487,"ĠGem":12488,"Ġexam":12489,"Ġlemnas":12490,"ĠGeorg":12491,"ĠlagÃ¤ndring":12492,"Ġstatskontoret":12493,"ĠtilltrÃ¤de":12494,"Ġperm":12495,"gorna":12496,"Ġkds":12497,"Ġdrasti":12498,"splats":12499,"ĠKARLSSON":12500,"tiven":12501,"agstiftning":12502,"kassa":12503,"Ġredskap":12504,"ĠÃ¥beropar":12505,"bort":12506,"Ġnionde":12507,"Ġlemnar":12508,"ĠManner":12509,"Ġ1909":12510,"sborgs":12511,"rie":12512,"ĠgrÃ¶n":12513,"Ġamortering":12514,"ĠutskottsutlÃ¥tande":12515,"ĠInger":12516,"Ġdistrikts":12517,"ĠfolkrÃ¶r":12518,"lÃ¥ter":12519,"Ġgymnasti":12520,"ĠStÃ¥hl":12521,"HOLM":12522,"Ġincit":12523,"Ġvackert":12524,"Ġson":12525,"ĠParis":12526,"ĠHage":12527,"Ġantecknat":12528,"ĠNationernas":12529,"Ġtillstyrker":12530,"Ġhof":12531,"ĠlÃ¤rjun":12532,"Ġgud":12533,"ĠtillfÃ¶rlit":12534,"Ġdominerande":12535,"valla":12536,"Ġrestriktioner":12537,"ĠMon":12538,"ĠstatsunderstÃ¶d":12539,"ĠifrÃ¥gakomma":12540,"sanslaget":12541,"ĠhithÃ¶rande":12542,"Ã¤kten":12543,"Ġbilen":12544,"ĠnÃ¶dsak":12545,"Ġorterna":12546,"ĠMer":12547,"Ġprejud":12548,"Ġmetall":12549,"skrid":12550,"ĠtillÃ¤ggspension":12551,"ĠgevÃ¤r":12552,"ĠUp":12553,"Ġbestridas":12554,"rÃ¶k":12555,"formar":12556,"staterna":12557,"ĠLÃ¥ng":12558,"Ġ168":12559,"Ġoffens":12560,"ĠMÃ¤l":12561,"ĠMina":12562,"hall":12563,"oderna":12564,"Ġskattebetalarna":12565,"ĠvidstrÃ¤ckt":12566,"600":12567,"anks":12568,"ĠsÃ¤tts":12569,"Ġnedrustning":12570,"Ġtalarna":12571,"Ġlokaliserings":12572,"ĠFÃ¤lldin":12573,"stidens":12574,"ĠnÃ¶dig":12575,"Ġgrundade":12576,"ĠskÃ¤lig":12577,"Ġ2003":12578,"Ġbetungande":12579,"Ġ166":12580,"Ã¤gelse":12581,"ĠÃ¤rendets":12582,"Ġmena":12583,"ekn":12584,"ĠfÃ¶retagsamhet":12585,"Ġliberal":12586,"ĠhushÃ¥llningssÃ¤llskapen":12587,"ĠJohnsson":12588,"ial":12589,"ĠBa":12590,"Ġbox":12591,"ĠglÃ¤der":12592,"Ġhalver":12593,"Ġlugna":12594,"Ġmotorfordon":12595,"Ġretro":12596,"sar":12597,"ĠrÃ¤ttsliga":12598,"Ġdjupare":12599,"Ġvintern":12600,"Ġreella":12601,"ĠÃ¥beropat":12602,"ĠSTEF":12603,"sid":12604,"Ġsocialutskottet":12605,"felt":12606,"tning":12607,"fattningar":12608,"prov":12609,"ĠTel":12610,"havaren":12611,"skyldigheten":12612,"ĠSTEFAN":12613,"behovet":12614,"mÃ¤nnens":12615,"Ġdum":12616,"Ġprotektion":12617,"esam":12618,"Ġtrafikutskottet":12619,"efonden":12620,"Ġintensivt":12621,"ĠÃ¶nskningar":12622,"ĠnedannÃ¤mnda":12623,"32":12624,"uel":12625,"ĠfÃ¶rÃ¶dande":12626,"Ġtyckas":12627,"Ġkronors":12628,"Ġmorgondagens":12629,"sbestÃ¤mmelserna":12630,"ĠAnderssons":12631,"ĠFÃ¶re":12632,"ĠunderrÃ¤ttelse":12633,"ĠGrÃ¶n":12634,"ĠriksfÃ¶rsÃ¤krings":12635,"ĠfÃ¶rankring":12636,"ĠsjÃ¤lvstÃ¤ndig":12637,"ĠonÃ¶diga":12638,"Ġhospital":12639,"krÃ¤":12640,"Ġreligion":12641,"allÃ¤k":12642,"Ġuran":12643,"Ġmul":12644,"ĠklagomÃ¥l":12645,"Ġtraditionella":12646,"iets":12647,"riska":12648,"ĠbefrÃ¤mjande":12649,"Ġteoretiska":12650,"ĠinstÃ¤llningen":12651,"Ġingick":12652,"sttagarna":12653,"Ġsedelut":12654,"Ġdepartementschefens":12655,"Ġambass":12656,"ĠSE":12657,"Ġnackdel":12658,"proc":12659,"ĠfÃ¶rÃ¤ldr":12660,"bon":12661,"ĠBif":12662,"48":12663,"HR":12664,"Ġegt":12665,"ĠSkillnaden":12666,"Ġvarm":12667,"Ġsittande":12668,"ĠMark":12669,"ĠSpan":12670,"ĠafslÃ¥":12671,"ĠSkoglund":12672,"ĠÃ¥lderdoms":12673,"Ġhund":12674,"Ġverksamma":12675,"Ġriskkapital":12676,"somrÃ¥dena":12677,"Ġhufvudtitel":12678,"Ġont":12679,"ALM":12680,"uppgift":12681,"ĠberÃ¶rts":12682,"Ġkonsekvensen":12683,"strakt":12684,"Ġtillvaro":12685,"ĠSvea":12686,"39":12687,"ygien":12688,"ĠnÃ¤ringsutskottets":12689,"konsum":12690,"ĠFÃ¶ljande":12691,"splanering":12692,"paciteten":12693,"Ġdomkapit":12694,"ĠbrÃ¤nslen":12695,"gna":12696,"uttag":12697,"ĠfÃ¶relegat":12698,"ĠÃ¶verstiger":12699,"ĠlÃ¶ft":12700,"ĠbarnavÃ¥rds":12701,"ĠSahl":12702,"Ġbelastning":12703,"ĠavgÃ¥":12704,"Ġkyrkor":12705,"Ġtendenser":12706,"ĠLithander":12707,"Ġband":12708,"Ġordalag":12709,"ĠtankegÃ¥ng":12710,"Ġcykel":12711,"ĠinhÃ¤mtat":12712,"Ġ2012":12713,"Ġposten":12714,"Ġanskaffa":12715,"Ġhvarefter":12716,"Ġrepresenterade":12717,"ĠÃ¶nskvÃ¤rdheten":12718,"ĠfÃ¶rdelaktigt":12719,"sdagens":12720,"Ġefterlyser":12721,"itie":12722,"ĠderhÃ¤n":12723,"Ġoffentlighet":12724,"ĠhÃ¤lsooch":12725,"ĠpÃ¥kallad":12726,"ĠvÃ¤dja":12727,"gern":12728,"olinska":12729,"Ġindustril":12730,"Ġmotiverade":12731,"ĠfÃ¶retrÃ¤desvis":12732,"ĠbehjÃ¤r":12733,"Ġpartibeteck":12734,"slÃ¶n":12735,"Ġbostadspolitik":12736,"Ġmotiverad":12737,"strategi":12738,"ĠuppfÃ¶ra":12739,"Ġflygplan":12740,"ĠJem":12741,"ningstid":12742,"ĠkrÃ¤vas":12743,"ĠomvÃ¤rl":12744,"Ġenhetlig":12745,"Ġher":12746,"ĠfÃ¶rekomna":12747,"Ġinklu":12748,"ĠslÃ¤kt":12749,"astigheter":12750,"Ġrelev":12751,"Ġvapenexport":12752,"ĠhÃ¤dan":12753,"vux":12754,"anal":12755,"ĠLÃ¤r":12756,"Ġsocialistiska":12757,"ĠmÃ¤nniskornas":12758,"ĠutfÃ¶ll":12759,"fvade":12760,"ĠÃ¥sid":12761,"ĠsÃ¤krare":12762,"ordin":12763,"ĠprissÃ¤tt":12764,"Ġrestriktiv":12765,"Ġretor":12766,"Ġtj":12767,"smo":12768,"Ġuppenbara":12769,"ĠÃ¥beropas":12770,"ĠprÃ¤glas":12771,"fakt":12772,"ĠIran":12773,"ĠrÃ¤ttsvÃ¤sendet":12774,"ĠfÃ¶rdjup":12775,"Ġpensionen":12776,"projektet":12777,"lÃ¤gsna":12778,"Ġvarvs":12779,"Ġstatsrevis":12780,"Ġtvungna":12781,"Ġeld":12782,"ĠÃ¥terfÃ¶r":12783,"Ġdeklarera":12784,"Ġtviv":12785,"Ġavslutades":12786,"lykt":12787,"ĠfÃ¶rsamlingar":12788,"Ġarbetsb":12789,"Ġbillighet":12790,"ĠanhÃ¥llit":12791,"ved":12792,"ĠvalmÃ¤n":12793,"ĠÃ¤go":12794,"Ġrationellt":12795,"ĠLeif":12796,"Ġantagits":12797,"Ġ1929":12798,"Ġtuff":12799,"polis":12800,"anskaff":12801,"Ġpedagogiska":12802,"ĠlikasÃ¥":12803,"ĠinlÃ¥ta":12804,"ĠframstÃ¥":12805,"Ġdrivmedel":12806,"ĠinskrÃ¤nkt":12807,"ĠfÃ¶rordats":12808,"ĠÃ¤ndrar":12809,"Ġdagliga":12810,"sbelopp":12811,"Ġlagstad":12812,"An":12813,"ĠIV":12814,"Ġhuvudet":12815,"Ġanvisas":12816,"Ġtakti":12817,"ĠfÃ¶rsÃ¤ljnings":12818,"Ġloppet":12819,"frÃ¤mjande":12820,"itions":12821,"ĠgrÃ¤":12822,"Ġspring":12823,"lÃ¶f":12824,"sutvecklingen":12825,"shÃ¶j":12826,"ĠhÃ¥llbara":12827,"ĠstrÃ¤vanden":12828,"ĠGUNN":12829,"belÃ¤g":12830,"Ġbygder":12831,"Ġmisslyckats":12832,"Ġhustru":12833,"Ġ1913":12834,"LO":12835,"ĠlÃ¤ttnader":12836,"resor":12837,"ĠBIRGIT":12838,"VEN":12839,"ĠstÃ¤mma":12840,"Ġfakultet":12841,"Ġrestitu":12842,"Ġbanor":12843,"poteks":12844,"register":12845,"ĠUtbildningsminister":12846,"Ġhastighet":12847,"ĠJÃ¶rn":12848,"Ġklarat":12849,"Ġaning":12850,"ĠMagn":12851,"arbetena":12852,"ĠfÃ¶retagsamheten":12853,"ĠoerhÃ¶rda":12854,"Ġstyrk":12855,"enda":12856,"Ã¤ttningen":12857,"ĠAnt":12858,"Ġavgiften":12859,"mom":12860,"Ġalliansen":12861,"ĠÃ¶verlÃ¤mnats":12862,"ĠtrÃ¤dde":12863,"ĠsÃ¤nd":12864,"Ġtillverkningen":12865,"Ġauktor":12866,"Ġ1933":12867,"ĠvÃ¤rnpligt":12868,"sbildning":12869,"Ġenormt":12870,"tving":12871,"ĠtillstÃ¥ndet":12872,"JE":12873,"ĠPri":12874,"Ġgifver":12875,"Ġfreden":12876,"Ã¤nkta":12877,"Ġinitiativet":12878,"slinjen":12879,"41":12880,"Ġblick":12881,"rikta":12882,"elset":12883,"deikomm":12884,"Ġminist":12885,"ĠfÃ¶rhindrad":12886,"ĠErfar":12887,"DAL":12888,"forts":12889,"centrum":12890,"Ġplaceras":12891,"ĠlÃ¶nar":12892,"ĠVÃ¤sternorr":12893,"grens":12894,"ĠÃħsling":12895,"Ġtabell":12896,"skantz":12897,"ĠLÃ¤g":12898,"Ġutvecklade":12899,"ylander":12900,"ĠkÃ¤nneteck":12901,"OS":12902,"ĠNÃ¥":12903,"ĠkÃ¥r":12904,"Ġplenum":12905,"Ġ1934":12906,"Ġspetsen":12907,"ĠrÃ¤nt":12908,"65":12909,"gyn":12910,"JELL":12911,"ĠPÃ¥l":12912,"Ġskulder":12913,"ĠFortsatt":12914,"Ġbjuda":12915,"emedlen":12916,"stÃ¤llande":12917,"ĠfÃ¶rsÃ¤mra":12918,"ĠÃ¥syftar":12919,"Ġtak":12920,"Ġledar":12921,"Ġvindkraft":12922,"Ġderu":12923,"Ġnyo":12924,"Ġmilitie":12925,"Ġklasserna":12926,"pt":12927,"Ġinveck":12928,"ĠlÃ¶r":12929,"Ġblank":12930,"ERIK":12931,"ĠtillkÃ¤nnagivit":12932,"ĠKÃ¤ll":12933,"Ġsocialbidrag":12934,"Ġfastighetsskatten":12935,"ĠgÃ¥rd":12936,"ĠÃ¥ligger":12937,"Ġmellersta":12938,"Ġgillar":12939,"ĠfattigvÃ¥rd":12940,"Ġkriminella":12941,"ĠKÃ¶penhamn":12942,"Ġinm":12943,"uterade":12944,"Ġhemlig":12945,"ĠvÃ¤grar":12946,"ĠMannerskantz":12947,"Ġbekymrad":12948,"skapande":12949,"Ġtrycka":12950,"ĠmiljÃ¶vÃ¤n":12951,"ĠpÃ¥fÃ¶ljd":12952,"ĠbrÃ¥":12953,"Ġinformera":12954,"Ġomsorgen":12955,"Ġ167":12956,"ĠframgÃ¥tt":12957,"Ã¶nst":12958,"Ġ2013":12959,"Ġsakerna":12960,"Ġinskriv":12961,"ĠstÃ¤rkt":12962,"ĠÃ¤venty":12963,"ĠstÃ¤nga":12964,"mi":12965,"Ġfina":12966,"Ġarbetstids":12967,"Ġgivits":12968,"ĠundanrÃ¶j":12969,"slokaler":12970,"kture":12971,"Ġ1926":12972,"Ġhuvudsakliga":12973,"ĠÃ¥klagare":12974,"Ġgaf":12975,"utÃ¶vning":12976,"Ġgenomt":12977,"Ġborgerligt":12978,"sproduktion":12979,"Ġinsett":12980,"varbet":12981,"ĠgodkÃ¤nner":12982,"vandena":12983,"Ġterrit":12984,"ĠFÃ¶lj":12985,"Ġharmon":12986,"uggl":12987,"ĠutfÃ¤st":12988,"Ġdisponera":12989,"ĠvÃ¤gra":12990,"stuna":12991,"DER":12992,"ĠavhjÃ¤l":12993,"Ġminnet":12994,"Ġetapp":12995,"Ġadop":12996,"ĠThe":12997,"ĠCenterpartiets":12998,"ĠHÃ¤ruti":12999,"ĠAllan":13000,"Ã¶ns":13001,"Ġanledningar":13002,"Ġ$,":13003,"ĠfÃ¶rÃ¤ndringarna":13004,"ĠsocialtjÃ¤nsten":13005,"ĠWigforss":13006,"Ġhuvudan":13007,"Ġorig":13008,"ĠLÃĸF":13009,"Ġregelb":13010,"nÃ¶den":13011,"Ġfund":13012,"Ġfolks":13013,"Ã¥tgÃ¤rd":13014,"ĠbyrÃ¥krati":13015,"ĠSi":13016,"Ġbruka":13017,"sbehandlingen":13018,"Ġutdelning":13019,"Ġsammanlagda":13020,"ĠWo":13021,"Ġurholk":13022,"andarden":13023,"Ġkonkurrenskraf":13024,"ĠkrÃ¤vde":13025,"arknaden":13026,"Ġkoncentration":13027,"Ġreflexioner":13028,"Ġderuti":13029,"Ġkvantitet":13030,"ssak":13031,"ĠdagslÃ¤get":13032,"ĠfÃ¶redragande":13033,"Ġmoms":13034,"ĠStatsverkspropositionen":13035,"ĠDetsamma":13036,"Ġdomar":13037,"ĠIM":13038,"ĠelÃ¤n":13039,"kds":13040,"ĠSpar":13041,"Ġflag":13042,"ĠÃ¶fverlÃ¤ggning":13043,"ĠÃ¶vre":13044,"Ġsatsat":13045,"Ġeuropeisk":13046,"Ġokunn":13047,"gional":13048,"Ġavstyrker":13049,"nÃ¤mnder":13050,"Ġpublik":13051,"alans":13052,"ĠfÃ¶rfÃ¤rligt":13053,"papper":13054,"ĠnyanlÃ¤n":13055,"Ġskiss":13056,"Ġdecennier":13057,"Ġpaket":13058,"knipp":13059,"ĠdomÃ¤nverket":13060,"Ġprovisoriska":13061,"ĠhÃ¤danefter":13062,"Ġutgick":13063,"Ġyttrades":13064,"ytet":13065,"ĠskattelÃ¤tt":13066,"Ã¥tt":13067,"ssats":13068,"Ġpresenteras":13069,"Ġtriv":13070,"ĠberÃ¶":13071,"Ġdomstols":13072,"inkomsttagare":13073,"Ub":13074,"ĠÃ¶mt":13075,"ĠavslÃ¶j":13076,"Ġkommo":13077,"alternativ":13078,"lÃ¶n":13079,"ĠTÃ¤nk":13080,"ĠfÃ¶rsorg":13081,"spunkt":13082,"ĠhjÃ¤lpas":13083,"Ġmunt":13084,"ĠGÃ¥r":13085,"ĠhandlÃ¤ggnings":13086,"Ġlediga":13087,"Ġtredjedelar":13088,"Ġegendomar":13089,"ĠErn":13090,"Ġpresident":13091,"Ġfantastiskt":13092,"Ġindragnings":13093,"Ġapparat":13094,"Ġtydlighet":13095,"stjerna":13096,"lÃ¥ten":13097,"Ġtveksamhet":13098,"Ġinstanser":13099,"ĠKullen":13100,"usul":13101,"ĠrÃ¥kat":13102,"deikommiss":13103,"Ġantagna":13104,"ĠfÃ¶rbereda":13105,"ĠhÃ¤nfÃ¶r":13106,"ĠfÃ¶redÃ¶m":13107,"ĠfÃ¶rmÃ¶genhetsskatten":13108,"verkande":13109,"Ġakuta":13110,"Ġopinions":13111,"elsel":13112,"rÃ¶stningen":13113,"ĠKvarn":13114,"sfÃ¶rebyggande":13115,"ĠrÃ¶rlighet":13116,"Ġsekreterare":13117,"ĠbesÃ¶ka":13118,"ĠMarg":13119,"ĠMigrationsverket":13120,"Ġpromemoria":13121,"Ġfinanser":13122,"Ġbildning":13123,"avall":13124,"Ġframtidens":13125,"ĠrÃ¤ttssÃ¤kerheten":13126,"Ġrestaurang":13127,"Ġtilll":13128,"ĠsjÃ¤tte":13129,"porten":13130,"ĠfÃ¶rval":13131,"Ġbifalles":13132,"ĠAvstod":13133,"67":13134,"ĠlÃ¤rob":13135,"delegationen":13136,"ĠhushÃ¥llning":13137,"problemen":13138,"Ġrov":13139,"leva":13140,"ĠnÃ¤ringen":13141,"ĠFÃ¶rste":13142,"ĠarbetsfÃ¶rmedling":13143,"ĠfÃ¶rmÃ¥r":13144,"setts":13145,"rigt":13146,"Ġhomo":13147,"Ġfjerde":13148,"ĠLÃ¶n":13149,"ĠEskilstuna":13150,"Ġplanerna":13151,"Ġkategori":13152,"Ġombyggnad":13153,"marks":13154,"gÃ¶randet":13155,"Ġmedborgarnas":13156,"Ġmaterialet":13157,"Ġtyckt":13158,"Ġlagstifta":13159,"ĠfÃ¶rsvÃ¥rar":13160,"ĠfÃ¶rhÃ¥llandevis":13161,"Ġaflem":13162,"sning":13163,"ĠIns":13164,"synt":13165,"ĠSkatteverket":13166,"Ġrss":13167,"Ġprest":13168,"ĠglÃ¶mt":13169,"59":13170,"oci":13171,"Ġresande":13172,"ĠGeijer":13173,"Ġsnabbprotokoll":13174,"ĠEhuru":13175,"ĠvÃ¥ldsam":13176,"Ġbalansen":13177,"ĠDepartementschefen":13178,"Ġfinansutskottets":13179,"Ġpartner":13180,"Ġkommunall":13181,"Ġomedelbara":13182,"Ġpartiernas":13183,"ĠAlexander":13184,"ĠfÃ¶rsvarsbeslut":13185,"Ġutvecklar":13186,"ĠbestÃ¥nd":13187,"ĠÃ¶nskvÃ¤rda":13188,"Ġindelta":13189,"sutveckling":13190,"Ġallas":13191,"Ġadministrativ":13192,"ĠÃ¶stra":13193,"ĠPerson":13194,"imm":13195,"anger":13196,"voteringen":13197,"gningar":13198,"ivare":13199,"Ġgrundligt":13200,"Ġoroliga":13201,"Ġklimatet":13202,"frastruktur":13203,"Ġstatsverksproposition":13204,"Ġbefarar":13205,"ĠmiljÃ¶k":13206,"Ġbruks":13207,"narna":13208,"banor":13209,"Ġintervju":13210,"Ġbunden":13211,"ĠkungÃ¶relse":13212,"Ã¤mnda":13213,
[...]
